#version: 0.2 - Trained by `huggingface/tokenizers`
▁ t
h e
▁ a
i n
e r
▁t he
o n
r e
▁ o
ا ل
a n
a t
e n
▁ s
e d
o r
▁ w
▁ ال
i s
a r
i t
▁o f
e s
a l
▁ c
n d
▁ in
▁ f
▁ b
▁ p
' '
▁a nd
in g
a s
i c
r o
i on
▁t o
▁ m
▁ d
l e
o u
▁ S
▁ T
▁ 1
▁ h
▁ A
▁ C
i l
en t
▁ م
s t
e l
o m
▁ و
▁ M
▁ re
o l
a m
▁ l
▁ ''
c t
▁ B
a d
▁ (
▁ ب
▁ n
e t
u r
▁ I
▁t h
▁ P
▁ 2
c h
▁ e
i v
▁T he
at ion
i d
u s
▁ ف
i g
▁w as
▁ H
i r
l y
c e
i m
▁ on
o t
▁f or
▁ ,
▁ R
u t
▁1 9
▁ g
r a
t er
▁ .
o w
ا ن
ي ة
▁ D
▁ F
▁b e
▁ is
▁ أ
▁ L
it h
▁a s
▁ G
er s
a y
u n
▁2 0
e m
▁s t
▁ N
▁ف ي
▁ W
he r
u l
▁ ع
an d
▁w ith
▁ ل
▁ ت
is t
t h
▁ E
v er
▁ال م
▁b y
o s
ا ت
▁ J
a g
ا ر
▁w h
u m
▁ "
▁c on
' s
▁a l
a c
ro m
▁a t
r i
ي ن
es t
▁th at
▁a n
▁ O
s ,
o p
▁م ن
a v
a in
▁d e
o d
ا م
▁ v
▁ he
o c
▁ it
it y
▁I n
re s
▁f rom
il l
▁p ro
s .
at e
i f
e w
a b
or t
▁c om
u p
b er
i es
i an
ar t
p e
▁ ك
▁ K
▁s e
ر ا
▁ U
i a
▁o r
l d
u d
al l
q u
ar d
ig h
s e
ic h
▁a re
▁ ي
o re
ر ي
an t
0 0
ه ا
و ن
a k
▁S t
a p
▁ ا
و ل
er e
▁ س
▁ r
at ed
u b
g e
▁20 1
▁ د
▁e x
▁ إ
▁h is
m ent
▁ ن
▁ ه
ar y
i p
es s
▁w ere
i al
o v
in e
iv e
ل ى
▁ال أ
u g
n t
▁ V
ou r
u nd
as t
en d
▁C h
س ت
ي ر
el l
▁c h
u re
▁ ح
▁20 0
ا د
e ar
u st
on g
▁ y
is h
o g
▁p l
o st
ct ion
▁wh ich
r an
و ر
e p
ic al
▁ le
▁ ق
'' '
▁s h
▁1 8
igh t
i re
am e
▁ال ت
▁'' '
▁ال ع
▁و ال
or d
▁ k
u c
t her
▁ ج
c l
i e
ل ي
▁h ad
m er
f f
av e
▁n ot
r y
or k
s o
) ,
e ,
▁ us
ou s
p er
م ا
▁a r
it ion
▁ un
▁ 3
p l
ا ب
p ort
o k
▁ ،
u e
as s
ig n
▁com p
i z
ac k
▁ ش
om e
ag e
e ct
a re
1 9
m an
ir st
ل ا
at er
ي ا
er v
▁al so
▁T h
on d
▁U n
id e
▁w he
▁con t
i b
ul t
▁ ro
▁c l
▁in t
r ic
و ا
r it
ي د
l and
ou nt
▁h as
▁ –
▁it s
c c
و د
) .
ou ld
ow n
▁ خ
▁H e
ou t
he d
▁ل ل
▁the ir
▁ -
▁a d
p t
▁h ave
▁I t
an g
▁re s
ar k
f ter
en ce
▁ع لى
ic e
▁b ut
▁f irst
▁a b
or y
r u
▁ Y
w o
▁p art
ation al
▁A r
a ch
▁A l
en s
es ,
ن د
▁ ر
re e
▁th is
o ver
it e
▁al l
▁ال س
ن ا
▁ ک
al ly
ter n
a ce
▁m an
t e
i k
▁ en
n e
ug h
ou nd
▁wh o
▁a p
▁ال ح
▁19 9
ي ل
n g
il d
▁p er
▁on e
es .
ب ر
y ,
▁ 4
▁ j
s h
w n
cl ud
▁ال ق
i le
▁be en
▁y ear
'' ,
u ch
e c
▁ im
▁o ther
و م
a ct
ub l
ر ب
g h
ol d
p h
f er
ad e
ol l
T he
ur ing
ر ة
am p
▁t e
im e
▁be c
a il
ل ك
a w
▁أ ن
is s
ع د
or m
v el
▁ her
w e
▁ال ج
▁a g
ا ئ
▁d es
ab le
▁in clud
in d
it ed
▁t wo
▁M ar
▁com m
in t
▁ 5
res s
ي م
▁N ew
ح د
▁re c
ع ة
i ed
o y
▁ال ب
▁d is
el y
ation s
▁ up
on e
o od
▁s p
o ol
em ber
▁إ لى
▁م ع
▁o ver
س م
▁C om
▁o ut
iv ers
at es
▁s c
o b
ou gh
an ce
at h
▁the y
▁c an
f t
▁a fter
re d
▁n ew
▁ ra
e g
▁w ork
or n
e b
▁int o
r on
▁b u
▁ال إ
▁ und
▁of f
s s
w ay
▁c ent
▁ب ال
os e
▁e v
▁ال د
▁s pe
▁ 6
▁ال ن
و س
▁19 8
ا ف
▁t ra
ur n
c es
ro ugh
or ld
mer ic
us e
▁D e
▁ال ف
▁ آ
ه م
▁ال ش
a ,
▁ال ك
▁at t
▁p re
▁l oc
o ok
ou th
▁m ore
g an
id ent
▁( 19
▁g ro
▁f l
w ard
i o
ا ء
d u
o h
l es
▁w ould
ic t
re at
a h
re n
or s
▁m e
د م
as ed
▁b et
an s
as e
2 0
on s
er ,
▁ :
ر ك
or th
و ي
e ver
▁und er
ch ool
▁re g
ak e
ic k
ran s
▁ع ام
oc k
r al
▁s erv
▁k n
▁a cc
▁19 7
ف ي
t on
le ct
en er
ل م
c he
y .
▁A meric
u al
e v
▁ ص
ot h
و ب
ol og
ed .
i ous
▁pl ay
ri b
س ي
▁con s
we en
e x
▁m ost
▁o p
at t
▁in d
ing s
r ad
in al
▁s up
▁whe n
س ب
▁h im
ion s
▁1 7
▁ 7
ent s
▁s he
▁19 6
▁us ed
ul ar
is hed
▁ب ه
ت م
▁Th is
e y
▁p r
i et
▁S h
▁on ly
▁the re
▁O n
r am
ubl ic
ل ة
▁s y
▁c ol
▁'' The
▁d uring
▁A n
▁bet ween
▁ب ا
c k
▁th an
▁s o
▁19 4
▁se c
f orm
▁re l
in ce
el d
t ed
▁w e
it ies
a z
over n
▁p e
▁for m
▁a ct
ان ت
▁ qu
▁e ar
l l
ou se
ق د
▁l ar
t s
p r
ivers ity
▁t ime
▁ )
▁I nd
▁re m
er ed
if ic
ق ة
p ro
ي و
▁( 1
▁ 8
▁s uch
▁in ter
a j
an k
▁the m
00 0
▁th rough
ou n
c ed
▁s ub
▁s ome
ا ع
▁ال ر
c ial
▁C on
an n
i x
▁ ط
▁f ound
▁م ا
at ing
ر د
o int
s on
▁whe re
er n
▁p res
▁ab out
a ir
▁L e
d uc
▁a m
▁ غ
oll ow
i er
▁as s
▁re t
▁c o
▁c ar
ro und
▁W ar
" .
▁in c
و ق
▁و ت
▁ Z
▁ را
ing ,
▁1 5
▁p ol
▁ع ن
p os
▁d o
is m
ي ات
▁ 9
▁b l
ow er
▁الم ت
▁1 6
er man
ب ي
▁pro v
▁y ou
▁1 0
em ent
▁st ud
f ore
▁ag ain
ed ,
▁P ro
e .
am il
م ن
iv er
▁a c
in es
ان ي
▁19 5
at ive
t en
▁f e
▁m ade
▁C ol
▁t rans
▁I s
▁n um
c ess
vel op
o ber
ver y
op le
ن ة
ذ ا
an y
j ect
ب ل
▁ end
▁S c
a .
▁J oh
م ل
is ion
▁ه و
▁A s
▁ال خ
ut ion
▁Un ited
er m
▁أ و
ur ch
ی ‌
he n
▁th ree
▁ar t
▁p op
▁C l
▁F ran
▁s ur
ن ي
▁ ent
ش ر
i eld
و ج
▁ال ص
er t
▁man y
st em
al e
v e
ر ج
▁E ng
▁الت ي
t t
in s
▁Un iversity
▁n o
▁F or
as h
. .
▁in v
ً ا
▁p .
▁m od
▁w ell
▁m ov
i am
▁ ز
ار ي
▁l ater
▁the n
as on
1 ,
at her
▁ال ا
us s
▁Americ an
▁f ollow
os s
ي ت
س ا
em b
sh ip
▁kn own
ك ن
u ro
▁p h
▁Joh n
ح ت
▁m ain
4 ,
et t
▁c all
▁be ing
ی ن
2 ,
▁d ist
in n
▁o per
. "
ik e
▁bec ame
▁19 3
ك ت
▁ ذ
ur al
a id
r id
▁ک ه
▁a ir
" ,
▁ est
▁bu ild
▁c ount
▁B rit
▁G erman
ك ان
و ف
en n
overn ment
▁Com m
▁ad d
ic s
le y
م د
iv ed
▁s m
5 ,
0 ,
▁ Q
▁e m
ep t
et h
▁د ر
il m
▁ال ث
▁S p
ot her
ف ت
ow ever
▁in st
▁C ar
▁h igh
ج م
▁W orld
▁m on
▁de c
'' .
at ure
▁c ap
i ew
il t
3 ,
u res
▁M ay
▁ال ذ
▁ ed
▁de velop
on t
▁de f
ur y
▁des ign
▁includ ing
▁sec ond
▁pe ople
un e
a u
▁ا ست
▁ &
▁c ity
▁wh ile
is e
el f
▁d ay
▁A t
▁d if
▁N ational
c y
▁P h
▁h ist
▁م ح
8 ,
▁year s
حد ة
ul l
ل د
▁ch ar
▁o wn
▁J an
p le
▁ب ن
a x
▁Y ork
▁le ad
d er
▁ '
e k
r ist
am es
al s
t il
y s
7 ,
▁the se
is ter
▁ال ط
ري ك
ra ct
6 ,
▁A ir
2 00
▁s ign
ire ct
▁m ay
in a
▁w ill
u ally
▁n e
▁f our
ي س
a use
▁sy stem
▁ex t
▁W h
▁c re
▁b oth
و ت
i ent
i um
▁s chool
▁be fore
ب ا
خ ت
ي ف
▁m in
ing .
▁l ong
ra ph
▁f amil
f l
م ة
▁C ent
▁B l
k e
▁off ic
▁g ener
▁1 2
en g
iz ed
▁or ig
▁ك ان
▁A d
a i
c om
▁se ver
if e
it s
ab l
م ر
▁J u
▁op en
ut e
in ed
▁un til
o ot
▁l and
▁m ar
▁v ar
▁P l
ce pt
▁و ي
▁ا ز
ire d
9 ,
▁comp le
▁o b
in k
er ies
▁19 1
ك ل
- 1
ش ت
س ة
▁A ust
▁con st
ib le
س ل
د ي
v ed
iss ion
owever ,
om an
▁'' S
▁b ack
ro ss
m y
▁spe c
ه ر
▁w ar
1 .
aj or
▁num ber
ق ي
▁te am
ain ed
▁an y
▁ پ
p ed
it t
▁م ی‌
le ction
▁S he
▁E uro
ی د
▁'' ,
u ary
▁gro up
4 .
v en
▁ ث
ist s
▁O r
ug ust
▁a ut
ال ي
▁'' A
▁m ed
ع ب
ation ,
ir d
r and
▁P res
0 .
im es
▁و أ
▁us e
f ul
ق ا
p or
ق ت
▁sh ow
ation .
tern ational
ru ct
ن ت
ص ل
▁n ear
ر ية
us ic
ers on
▁pro du
an ge
▁b el
are d
▁N ov
il ity
2 .
▁G e
▁b ro
▁ب ين
▁P r
pe ct
▁c ould
▁S outh
▁P ar
▁ear ly
▁1 3
ذ ه
▁again st
▁ap pe
و ع
▁cont in
▁و ه
▁call ed
▁ال ل
▁I I
▁1 4
. S
ال م
it al
▁A ugust
ر ف
▁g o
t he
▁sm all
▁rec ord
▁p ublic
▁C an
▁e ff
l ed
▁re p
▁ت م
▁و ا
▁n ame
▁م ت
▁g overnment
▁f ilm
▁s ame
am ed
▁ چ
▁أ م
ع ل
ion al
ept ember
v ent
▁p ass
ot t
▁A fter
▁O ct
ro p
و ز
▁Brit ish
ار ة
▁sever al
▁19 2
▁B e
r is
il it
ter s
c on
▁ب ر
o ,
▁ب عد
pr il
re et
▁Mar ch
▁ل ا
▁de p
▁R e
▁N orth
ان ية
m ber
▁s l
5 .
▁o cc
ول ا
un g
ical ly
o .
▁Euro pe
▁م د
▁و م
▁d id
ers ,
▁st ate
▁S eptember
خ ر
ب د
▁w rit
er .
oc i
o x
▁ ان
▁d r
el s
ه د
▁Ju ly
f or
ل ف
▁ه ي
▁an n
ric t
ri ed
▁E d
▁Oct ober
id ed
▁P ol
▁Jan uary
▁f in
▁en g
▁ex p
▁G u
▁1 1
ra ft
▁المت حدة
▁are a
t y
▁bu ilt
6 .
ak ing
ar m
▁M an
▁A pril
▁s im
ar s
8 .
ce mber
▁sup port
g est
y l
at or
ar ch
3 .
▁St ates
20 1
a f
▁dif fer
ch n
▁n ow
iv ing
▁or gan
re t
on ,
▁r un
▁E x
▁S e
و ري
▁re le
▁J une
7 .
▁ گ
▁C ity
▁pro g
▁W ill
ع ت
le ,
iv es
u ed
▁s uc
▁st art
▁ل م
ط ة
▁s ince
▁to wn
om en
▁a round
▁The re
▁ب د
is ed
- s
▁in s
p s
▁ع د
ill ion
▁B ar
er g
▁dis c
ul ation
en e
▁The y
ur g
▁st r
▁lar ge
ain t
▁S chool
▁U S
– 1
▁De cember
▁res ult
▁se ason
▁w ater
▁C ount
▁m et
og raph
▁m ajor
ا ً
ب ة
i or
▁H ist
▁w orld
▁'' C
duc ed
▁he ad
▁s ing
▁d irect
▁Nov ember
- b
ain s
ل ال
c ent
▁comm un
- d
ren ch
ر ت
▁c ur
ج ل
▁al ong
ح ة
ر ض
ية .
ا ص
▁re st
اد ي
▁l ine
▁part ic
9 .
▁K ing
▁Ch rist
▁be gan
▁re ce
re nt
▁e lect
و ك
▁t y
qu e
iv al
▁Al l
et er
▁t r
i od
▁e ach
ير ة
▁A m
ro l
▁R ep
▁أ ي
ي ث
▁s aid
▁o ld
ر ن
es e
▁g u
use um
ي ز
▁T e
▁l a
h or
▁ret urn
ers .
at ic
▁E m
b y
▁p ar
ant s
.S .
a us
▁pl ace
in c
ك ون
g et
▁19 0
h am
b le
▁est abl
▁ب ود
th ough
▁A f
▁for mer
▁p oint
▁r ight
eb ru
is c
ro w
o ard
ebru ary
▁H ar
م ال
ج ا
▁F rench
ac ed
uc k
le t
▁F l
ت ي
re en
y n
ov e
ث ل
▁des c
▁loc al
▁ال و
ين ة
▁A nd
▁m ark
▁P ark
as ter
end ed
▁follow ing
▁inc re
ع ض
▁b us
▁الأ م
▁ap pro
ag es
▁s et
▁Aust ral
▁M in
▁re f
ing ton
i en
▁ch ild
▁Ge or
ment s
▁W est
i ence
▁L ond
▁d own
an e
▁ 's
▁F ebruary
▁bec ause
p .
an c
▁re port
▁ ض
he s
▁h ouse
ك ر
▁A b
olog y
▁ه ذه
▁ $
m ed
▁re qu
▁A ss
▁p ubl
▁b as
▁v is
re w
▁'' M
al k
▁t rad
ia ,
▁a v
▁pol it
m in
▁s eries
▁St ate
am b
▁ very
av ing
اد ة
ru ction
▁b ook
▁to ok
ian s
▁all ow
ق ل
▁H is
▁d em
▁re v
▁st ill
▁cons id
o le
▁الذ ي
▁l ast
▁ه م
ية ،
▁'' P
▁loc ated
le ge
▁C al
▁p rom
ap an
▁B ro
on y
▁c our
g ed
▁m at
ث ر
▁ if
f ord
es tern
▁t erm
a e
ع ي
ord ing
▁18 9
▁Ch ar
▁p os
▁build ing
▁le ft
▁d et
ilit ary
▁R uss
o or
▁Ar t
▁( ''
▁c amp
▁H owever,
▁Will iam
▁prog ram
▁per iod
▁wh at
▁R eg
▁l ike
ف ا
▁cl ass
▁s oc
▁Com p
▁le g
rid ge
att le
▁he l
- t
د يد
▁with in
er y
▁h and
▁m usic
if ied
b all
▁ev ent
r ing
al d
▁m emb
▁famil y
▁E l
ag ue
o ad
▁ا ین
▁th ose
▁n orth
i ,
▁pres ent
▁d ue
a im
ر ق
اري خ
و ان
▁of ten
▁ X
▁B y
u es
ic es
▁'' L
u ff
▁U .S.
res ent
▁ه ذا
▁im port
st it
at ely
p ar
▁st and
▁h ome
▁و لد
l ish
iet y
w w
د ر
r ation
▁he ld
ie f
▁2 5
▁differ ent
▁H er
id d
al th
m e
▁th ough
ي ع
▁ع لي
um ent
ول ة
u k
ed er
▁p ower
▁S y
▁ev en
▁ar ch
▁S w
▁ت ق
ص ر
▁و ب
oun c
▁(1 8
re ad
▁ك ل
▁J apan
ent ly
▁char act
▁ad v
▁( 200
ولا يات
▁ال غ
▁ap p
س ر
▁ذ لك
▁j ust
▁m illion
al ity
▁t im
a ''
▁p erson
▁p ort
▁cent ur
iv en
ل ب
▁s outh
▁R iver
▁C or
▁g ame
▁c or
ore d
▁m uch
▁de ath
▁d el
um an
a ugh
▁sh ip
ay s
▁D uring
il le
oy al
ron t
▁e qu
ol ution
▁ es
▁C o
ure d
خ ص
et s
n er
د ا
ex t
▁'' B
▁t em
▁S oc
- l
a ul
g er
▁R es
▁Can ad
▁suc cess
▁E n
▁Af ric
س ط
▁v ers
▁n ational
▁p at
le v
▁l aw
z e
▁ال ه
id es
و ية
, 000
▁18 8
om b
▁Eng lish
con om
iv ely
st er
at s
il y
▁b ased
in ing
ت ه
ies ,
▁add ition
f ess
▁re pl
▁n amed
▁آ ن
ial ly
▁M ed
ه ‌
▁includ e
▁S ec
▁201 0
▁20 00
و ات
o f
▁أ ك
▁ال ولايات
▁p oss
▁pro t
i -
▁att ack
▁Lond on
▁3 0
▁It al
al es
▁M c
▁Ch urch
om in
▁f ac
. ,
ن ية
▁الأ ول
▁s old
▁ت ع
ies .
c raft
▁c ult
▁'' D
▁f ore
amp ion
ز ي
n a
▁أ ب
▁B r
▁st at
▁s k
s k
▁Ph il
iz e
in ess
is on
▁و ج
iv ision
art ment
▁t it
ener al
رك ة
▁ i
– 19
▁s ix
our n
▁س نة
s c
▁St reet
it er
▁am ong
▁ ;
▁pop ulation
▁serv ice
▁g l
ang u
iz ation
ف س
en se
▁وال م
▁m en
▁sh ort
▁acc ess
▁S an
▁comm on
▁res p
al f
▁In ternational
▁an other
▁hist ory
ت ر
▁( b
▁st ation
▁v ol
ounc il
- c
▁H ouse
▁f ive
ي ك
al t
w ork
ion ,
▁A cc
أ ن
he m
i us
▁عد د
▁الم ح
ne y
▁ت و
▁ ی
▁hist or
▁18 6
▁The se
il ar
t ain
iv il
▁a ge
ري ق
▁ح يث
▁Is land
▁الم ن
ward s
▁count ry
im ent
▁p ost
▁to p
▁ ين
▁comp any
▁e very
▁f act
▁m y
' t
▁c r
▁H igh
▁memb ers
5 0
ا ه
▁v al
os p
l ing
▁G l
▁l ate
ص ب
▁v ill
▁P art
▁eff ect
▁k ill
▁D av
u el
▁E ast
l ine
a pe
v ers
e h
ra y
▁g reat
خ ل
▁P ort
▁M on
▁is s
▁orig inal
▁w ay
▁s ett
ور ة
▁le vel
i ber
▁includ ed
▁con c
▁الم ع
ction s
o -
/ /
▁publ ished
▁l ed
▁S ch
ا ج
h ip
▁'' T
اف ة
▁m ake
رب ية
▁p p.
▁ق د
s ide
▁D ep
▁ex per
l in
d ay
▁c are
her n
▁A ng
▁2 1
▁R oman
▁ra il
ur s
▁be g
▁M useum
ب ار
ا ز
om et
ur b
▁aut hor
▁A g
▁ex pl
▁cl os
▁desc rib
▁w on
ak es
▁f re
▁t urn
▁18 7
▁T r
▁L a
av y
pl oy
ir c
ع ية
م ان
▁pro ject
▁pos ition
er ing
ur ther
▁te chn
▁l ist
: //
▁m ilitary
▁f ew
ir on
▁" The
▁ك انت
▁ق بل
at a
▁trad ition
n ing
0 s
را ء
▁or der
▁ب ل
▁mon th
▁( S
▁s it
- f
e ad
▁P al
س ية
an ,
▁cur rent
l er
ri pt
▁eng ine
▁d ied
▁أم ريك
▁ل ت
▁و ن
▁s ide
▁c ame
t al
op h
od y
▁re fer
▁r ad
us h
▁2 4
c hed
ort hern
um b
r .
▁in fl
ri es
ap p
che s
▁w omen
▁act iv
▁و ع
as tern
ad em
▁Ar my
▁و ك
▁establ ished
▁ne ed
▁R oyal
▁201 1
ia .
▁s ong
▁Fran ce
▁us ing
n ess
ep end
in o
▁1 00
ou ther
▁Pres ident
ra g
ion .
▁O ne
▁b re
▁Eng land
▁W hen
▁rece ived
b or
▁( A
▁ch ang
o on
re g
▁t er
▁rele ased
▁ي ت
▁ج م
a ff
د ة
outher n
an a
▁s ite
▁P e
en ,
▁n on
▁خ لال
it ect
▁pre v
▁A nt
▁S up
en c
▁'' H
▁f inal
pos ed
▁Col lege
ib r
ب ات
▁ك رة
em pt
▁develop ment
▁man ag
▁t ake
▁a ff
▁ت ش
▁with out
ا ط
le ar
▁l ight
▁f ield
▁cont rol
▁comp et
▁W e
▁c rit
▁child ren
h ib
▁pop ular
as k
▁G ro
ak en
▁'' .
▁cent ury
inn ing
▁Ind ian
itt le
▁b ar
ar a
▁الع الم
▁th ird
إ ن
▁b and
▁g r
v es
▁م س
s elf
▁rep resent
▁s w
▁د ي
2 )
▁ar m
▁ي ق
لي م
pe cial
e an
▁إ ن
▁var ious
le x
▁Count y
on es
od e
▁per form
▁لل م
▁bec ome
▁import ant
رك ز
▁con f
un ic
▁ت ح
▁A p
▁ro ad
ff ic
ri end
rib ut
▁d est
▁G eneral
▁Hist ory
و ار
▁E ar
ree k
▁s ,
▁h ig
▁orig in
ة .
▁ك ما
ot e
▁are as
▁ب م
▁play ed
le g
▁sim ilar
▁ع بد
▁ال ز
or ,
▁St .
▁200 8
▁f oot
▁ح ت
b um
3 0
▁الم م
at ter
▁ا و
س ك
▁ي م
▁200 9
▁P er
▁ed uc
ار ك
▁Geor ge
and er
▁cl aim
ra in
▁produ ction
ك م
َ ّ
ا ض
olog ical
▁w eb
▁( C
▁س ب
▁H ol
▁R ev
▁sh ould
ف ر
▁sing le
e f
▁ind ust
▁e conom
▁spe cial
u f
▁spec ies
▁an t
▁1 ,
▁ch urch
▁in it
ic le
▁الم د
▁ل ه
ي ب
سب ة
▁'' R
f ield
▁com b
s p
he l
▁m ember
▁W ith
د ه
▁Rep ublic
▁Europe an
- p
▁mov ed
d om
ol ic
▁int ro
▁j o
▁f ire
▁l im
▁V al
ric k
▁g iven
m it
iv id
c o
op s
▁ /
▁c over
▁D es
▁ ام
re st
▁ال ي
▁Ar ch
ب را
ourn al
ra w
▁v iew
▁M ich
▁l ife
a ur
▁ann oun
▁ق دم
▁V ol
▁mod ern
r ated
▁201 3
▁R ober
▁و في
en cy
▁و قد
ب ن
▁inv ol
▁be h
▁Th om
5 )
▁p o
ئ ي
▁we ek
▁gener al
ac hed
▁ty p
▁l ow
ة ،
و ش
▁m ag
- 19
▁offic ial
▁w in
▁serv ed
ار س
u it
ab or
▁A ct
▁201 2
▁l angu
an ish
▁g ood
▁l ess
d ition
▁(19 9
’ s
▁gro und
▁ el
ard s
▁R ail
▁n ext
▁غ ير
▁t ri
▁ع ند
▁ب ش
▁د ا
ab ly
▁to tal
▁t w
▁ف ر
▁t ro
و ض
ra b
▁c aus
▁2 2
▁in f
▁200 7
ي ش
- m
y le
▁pr im
du ct
ذ لك
ip p
ber t
▁you ng
▁appe ar
▁polit ical
- A
▁ et
▁H en
▁s um
▁st ruct
▁re d
▁f em
▁pro cess
ic a
▁charact er
ent ion
▁Q u
ampion ship
▁air craft
ح ي
▁Q ue
▁'' E
ئ يس
ق ط
▁h aving
4 )
▁cl ub
▁s ent
▁H all
ط ل
▁J ames
▁ z
▁consid ered
m p
▁ت ت
y d
▁A c
▁ انت
id ence
▁infl u
ر م
em or
▁L ou
it her
▁D ist
an i
▁ب عض
▁2 3
▁e p
▁الع ام
▁cre ated
- 2
ور ية
أ س
ال ة
▁s on
▁w ent
▁p ract
▁sur v
▁av ail
▁commun ity
ظ م
▁J ew
▁f urther
it or
▁b est
ا ح
form ation
▁F rom
▁م ثل
▁im p
ra p
نا ء
▁S m
if orn
▁f ather
og n
▁gro w
▁200 6
m ost
▁al bum
▁Le ague
و ال
لك ة
▁partic ular
b urg
- w
▁B el
▁B er
3 )
▁N or
n ect
▁ال آ
▁R ec
le ment
ست خ
a ut
▁م ق
▁ ident
m en
▁'' N
▁( M
▁t est
▁ت اريخ
▁f un
ط قة
idd le
▁open ed
▁contin ued
▁att empt
▁prev ious
ها ی
▁( 201
▁b orn
▁s qu
▁f ront
▁'' G
▁h uman
▁ب ت
▁M or
▁R ich
- S
▁م ج
▁ex amp
▁re se
1 0
▁ت ن
▁d er
ist ic
▁ass oci
▁h alf
▁C ouncil
ار ت
▁حت ى
▁sign ific
g o
▁( 2
▁ر و
un t
op e
a el
وق ع
▁const ruction
▁ ).
▁de cl
▁أي ض
n ow
way s
ه ،
▁s ug
▁m ater
▁S ome
a 's
▁re n
▁ er
v an
▁ب را
i qu
▁rem ain
i j
▁G reat
▁pro per
▁l if
ly ,
▁ل اع
▁ex ist
▁Acc ording
▁St at
▁Cal iforn
▁" S
▁201 4
▁T ra
و في
▁R oad
ic o
se qu
▁h ost
▁pro fess
▁أ ف
▁ب ي
▁2 6
▁h ous
ot s
▁is land
ال ية
▁وال ت
▁P aul
min ist
▁pr iv
▁f ull
at ural
ber g
▁comp os
1 )
▁و ق
▁of fer
▁st e
in ation
8 )
▁re ad
▁lar gest
▁'' F
▁n ever
▁C our
▁bus iness
▁ro le
▁b o
for man
▁inter est
▁2 7
▁ن م
▁2 8
▁soc ial
ح ص
▁ “
خر ى
ا ی
▁Ass oci
at ch
end ing
▁In stit
▁J os
o e
6 )
ivid ual
ن س
in ,
ar n
▁p ark
ا س
▁p ri
▁ث م
▁M ount
▁avail able
▁e ast
ت اب
7 )
▁t re
i ol
is ,
ص ف
▁Rober t
ك رة
▁al though
▁announ ced
ي ط
▁و ل
▁أ ول
▁start ed
▁T rans
▁ي ع
▁c e
▁w est
▁bel ie
▁R ed
g y
▁s ol
ر س
▁200 4
um e
▁Y ou
▁kn ow
▁h old
▁ar r
▁or d
▁fe ature
ert ain
ق ات
'' )
▁m ot
▁in ternational
▁de v
▁g en
▁وه و
▁fe at
▁M al
▁" A
re am
وس ط
▁c ost
▁h ow
▁" I
▁Dav id
▁F irst
it z
ی م
▁c ross
▁m ount
o ff
▁bl ack
ibr ary
ان يا
▁se e
ash ington
عد اد
▁ —
▁18 5
▁le t
m b
- y
رج ع
▁s our
▁Char les
▁e lection
ens ive
▁m ust
▁St ud
▁201 5
▁ب ح
▁18 4
ro te
v al
▁c irc
▁ac ross
▁se par
▁Un ion
el t
k s
▁pro duced
▁ت حت
▁و من
u le
he re
ro y
is ing
▁rel ig
▁d am
▁d i
▁de b
▁str ong
''' ,
▁me et
د ام
▁m ult
- C
a ign
av al
▁a ward
et work
▁arch itect
▁M e
▁ال بر
▁ک رد
▁وال أ
بل غ
I I
ro ll
▁se en
as es
▁pl ant
am a
▁w ind
▁pl an
▁M art
▁ ide
ی ر
▁ap pl
h old
am ent
▁mater ial
▁mark et
▁ro ck
g in
▁M ary
▁ind ividual
wo od
▁reg ion
▁mod el
ish ing
en ed
▁H ill
▁I m
▁M ag
ble m
▁inv est
▁tra ck
us ed
e e
▁re al
▁م ي
ri an
i ation
▁مح مد
▁Fran c
▁comp an
▁لاع ب
▁to get
▁T o
▁toget her
▁w ord
ه .
h tt
are nt
ar ian
il es
▁M ex
ict or
g es
ines e
i que
▁For ce
▁p ress
▁pres ident
B C
▁Christ ian
▁l ook
▁م ست
ight s
ائ ل
▁design ed
▁( w
▁develop ed
ud d
▁B ra
▁201 6
ell ow
▁S erv
▁Dep artment
l ess
▁l ost
▁him self
▁tim e,
ار ات
ب ع
v iron
▁Thom as
om m
غ ير
▁signific ant
▁و ح
▁C ath
ام عة
و عة
re m
f ic
ين ي
▁vill age
▁ ),
▁B ay
▁P at
er b
▁C ap
▁f riend
▁vers ion
▁m id
▁c oll
▁f ail
sh ire
ra el
ل ام
▁im pro
▁د ار
▁N e
▁أ ع
▁ن ظ
ج د
▁describ ed
ال ت
▁return ed
le b
▁( P
unic ip
ir m
▁B ut
▁5 0
ن وب
▁f ind
▁G rand
▁Russ ian
ers hip
▁t aken
▁الأم ريك
9 )
▁w rote
pl ay
▁report ed
▁W ashington
▁tit le
▁comm and
p ire
▁Ind ia
▁g rad
▁dist rict
▁ت ا
▁Dist rict
st on
▁s uff
▁em ploy
▁c ast
▁d iv
▁per forman
▁us ually
l i
▁m aking
▁W estern
▁f und
▁A lex
- M
ough t
اف ظ
c her
▁do es
h a
▁ph ot
ز ة
▁p ut
ر ات
▁S qu
▁a ver
m a
▁م ص
▁la un
eder al
▁Hist or
▁ع شر
▁stud ents
- g
▁g un
w .
▁h owever,
▁Bl ack
ض م
1 1
▁الم ص
▁2 9
▁ind epend
▁D ivision
ov iet
ar i
est ival
▁an im
و ى
▁س ن
al ,
.. .
- st
▁S l
x t
▁و ف
▁hel p
port s
▁r ange
on st
▁T ur
eth od
▁ ات
it te
▁work s
▁Gro up
▁S al
our s
fer ence
▁f ree
گ ر
▁Comp any
▁أك ثر
▁rec ogn
▁وي ب
id ing
▁أمريك ي
c ast
t o
▁sug gest
▁س ي
▁خ ود
▁to ur
ن م
▁أ غ
▁day s
▁Cent ral
▁w id
viron ment
▁B u
▁Hen ry
s erv
▁'' I
▁C he
ep h
. ''
▁( م
ent ial
▁يم كن
ج ة
▁K h
▁( N
▁s .
▁Ch inese
▁V ir
im ately
▁on ce
▁a way
▁ro und
▁C up
f ace
▁D em
ific ation
ag o
ب ت
▁w all
augh ter
ab ility
▁الب ح
▁p aint
0 s,
▁through out
ئ ة
▁ag re
▁produ ct
▁الد ول
ع ا
1 2
i ers
p ite
▁con dition
▁Sp anish
▁partic ip
▁form ed
it ing
▁s ay
d e
▁stud y
ir l
im ate
ce ed
ver t
▁M et
um p
8 %
▁م ی
▁cap t
▁Cent er
▁r ul
▁Wh ile
ict ion
▁م ش
ف ة
▁G r
▁h on
il ities
ث ة
ع م
▁rese arch
▁مد ينة
ري ط
A A
▁أ س
▁س كان
▁ra ce
▁wh ite
▁S en
▁ ill
▁ro om
▁b r
▁c he
▁d on
▁C ong
s :
▁Al though
6 0
lect ed
▁N o.
▁Con t
▁O ther
ure ,
▁ع مل
▁( ال
سل ام
at ory
▁e ither
uf act
▁c ivil
▁def e
▁Min ister
▁app oint
▁الل ه
و ة
y m
▁و لا
r d
ac es
قا ط
▁'' W
lev ision
ad ron
ct or
ant ed
ar ter
▁Is rael
▁M ad
ap er
▁t en
▁S am
▁2 .
▁Soc iety
ث ير
▁ت أ
o ch
4 0
▁ent ire
▁م م
▁f all
▁S oviet
▁found ed
us ,
ك وم
ot ed
▁ل ي
▁sp ace
. C
he ad
▁Lou is
- h
▁rem ained
▁P ri
▁Japan ese
▁Californ ia
▁ل أ
ic ated
▁f ig
as ing
▁h om
▁mar ried
. com
▁occ ur
or ies
▁In ter
▁M us
▁p ain
▁pro duc
ان د
▁pro blem
▁M er
▁M ark
▁ph ys
▁Cour t
ا ق
▁200 5
▁re b
rough t
▁cent ral
ag e,
▁co ast
▁le ast
▁b ody
▁Ital ian
m ar
خ ب
▁201 7
▁cour t
▁الو ط
u x
ب ية
du ction
▁A ward
▁p ur
▁bro ther
▁M ac
ه ة
جل س
▁S aint
▁المم لكة
▁bro ad
oc r
ou l
▁b ank
▁و لك
▁C ro
un n
- B
▁L aw
▁for ce
ا ك
▁st ri
8 0
را ق
ww w.
▁ی ک
▁res ident
b e
▁" C
ud e
ون ي
▁( d
it ch
▁الم س
▁col lection
▁l ittle
▁p ot
رب ي
if y
erg y
▁occ up
p ly
ا ش
▁Ac adem
▁t imes
▁T imes
ec k
و ط
▁t reat
ri ev
▁ab le
▁Cath olic
▁up on
▁success ful
▁w ood
ate g
▁writ ten
▁وه ي
▁و س
▁camp aign
▁for ces
▁de g
osp ital
▁G od
▁f ar
overn or
▁play er
▁ن سم
▁c ell
▁S im
▁con duct
ap s
ر ش
▁f ood
▁م ؤ
▁langu age
▁cl ose
▁س ت
▁g ave
:// www.
e ep
▁con nect
ograph y
ut es
▁ 0
▁s aw
pecial ly
▁Austral ian
it ive
▁B attle
و بر
ها .
▁( B
ap t
if f
▁4 0
▁ولك ن
ص د
▁ab ove
▁ac qu
▁Ch ina
▁Afric an
▁pol ic
▁C ast
o res
▁18 3
▁g et
▁an c
غ ة
▁st ory
▁L at
▁Austral ia
▁p ast
▁v eh
▁n ight
inc ip
▁d oc
en ces
▁King dom
er ous
ro ad
▁Part y
v ille
▁G reen
re l
c le
▁German y
▁" M
st and
▁" B
ا ير
ور د
▁B ook
▁serv ices
▁year s.
n es
ر ح
▁Ch ampionship
ol f
ri al
ec ut
l iam
▁r ather
as ,
▁he re
▁Americ a
o z
▁m ass
▁dest roy
▁tra in
▁e ight
▁comple ted
ام ل
▁un it
▁mov ement
▁work ing
i .
▁B as
▁includ es
b our
▁m other
▁ex hib
▁T own
▁S ir
omet imes
▁foot ball
▁أن ه
▁priv ate
▁l ive
▁prov ided
▁Wh ite
▁b i
ic ation
▁al most
el ,
▁ب ط
▁S k
at al
▁الم ست
liam ent
▁P et
mer cial
▁و كان
▁Rich ard
▁ty pe
or g
ell ing
at re
▁cons ist
▁en c
▁follow ed
▁st ar
▁Associ ation
▁Ang el
س ن
▁poss ible
را ف
ف اع
▁c ase
▁me an
▁n ov
▁se ction
▁ch ange
ow s
▁l iving
▁M ont
▁( in
▁Instit ute
ج ت
▁الج ز
▁aver age
سب ب
▁الم غ
ز ب
▁res pect
▁prov ide
ch ie
ي ه
▁b ur
ul a
▁3 1
▁Fran k
▁s il
r up
ran ch
▁I r
▁l ower
▁man ufact
re y
▁F ore
▁bec om
▁S ince
▁أ ح
▁work ed
ag ed
▁M od
ع ود
▁Par is
نا ك
▁G reek
az ine
▁C amp
A S
- in
▁L ake
▁M ost
▁lead ing
▁U K
as c
▁k m
▁ ري
▁me as
ur ity
▁D on
% D
ist ry
▁c ou
▁S ant
▁sub ject
o id
▁disc over
▁الم ج
ست ر
▁G old
▁s outhern
▁W il
▁tra vel
ign ed
v iew
▁ل ع
▁ad minist
▁'' O
▁J ack
er 's
ي ين
▁Pres s,
▁c ut
▁و ز
▁T er
▁ح ال
ی ش
▁exp ress
g en
▁n orthern
▁ «
is l
▁sit u
▁و إ
▁Y ear
-y ear
▁l ik
▁M iss
▁h ard
▁ال نا
▁k ing
▁الج م
ب ير
▁f oc
▁O ld
▁l iter
▁stud ent
ع ات
يل ة
▁resp ons
▁stand ard
med i
▁Cl ub
▁repl aced
▁b rought
▁ي تم
▁س ر
▁T ex
ی ز
▁( "
if t
▁he alth
ide o
▁n atural
▁L and
y r
▁ي ون
▁st reet
▁ت ص
y a
s el
eng th
و ح
- 0
e in
▁cap ital
▁201 8
▁b oard
▁b ord
م رجع
▁r iver
▁1 .
▁comple t
▁st yle
▁V ictor
▁Mich ael
▁es pecially
▁ال را
en a
h ood
▁P eter
▁g ra
▁trans port
un k
ي ان
ut ch
v ing
▁Em pire
▁d ou
را ض
b ur
▁ac cept
one y
▁C ons
ir th
▁fre qu
ا ث
ac y
▁eff ort
▁ter rit
▁rel ation
▁te xt
س ات
▁( the
▁ass ist
▁com e
وا ئ
▁M any
y p
و ه
ح اد
▁s er
▁الا ست
▁centur y,
▁v ict
2 5
▁appe ared
w are
7 0
▁( L
▁f arm
▁out side
c ript
▁O p
▁d aughter
▁v iol
▁D ay
▁f av
g l
ish op
ure .
u z
he st
▁m ethod
▁kill ed
▁f ight
▁(19 8
▁rem ov
▁c op
▁ال ض
ب ط
riev ed
▁" the
▁U p
▁though t
ك س
ب ال
▁cont ract
▁r ank
▁Sc ott
▁m iss
▁لل ت
an ces
▁st op
ص ول
oun ter
▁hig her
▁O per
▁c al
▁( R
▁و قت
▁pl ann
▁F ort
▁acc ount
▁ar g
▁Vir gin
▁Z e
▁T or
▁n etwork
▁2 ,
▁ف ت
et ic
▁. ..
ch an
▁add ed
ri a
▁off ice
▁part s
▁prot ect
at ors
خت لف
▁R et
▁t ax
ند ا
▁rail way
ي خ
▁jo ined
▁ال يم
ol k
▁B ur
▁ب ـ
▁equ ip
▁p red
▁requ ired
▁ob serv
▁ت عداد
▁G overnment
um n
▁O ff
▁أ حد
لا ح
1 4
ين ،
▁c y
▁ج ز
▁g old
▁o pt
▁its elf
▁st ated
▁tradition al
▁se ven
▁intro duced
▁crit ic
▁an al
را د
▁لل أ
▁A rab
▁incre ased
1 8
▁R ad
ab it
حص اء
l im
ج ر
▁ ظ
▁ين اير
am ous
▁p ay
1 5
▁reg ular
▁A ut
▁feat ures
▁بش كل
in i
ري ل
l am
▁g e
ity .
▁m unicip
▁ن فس
▁sur round
▁origin ally
▁pl aced
▁L ord
▁time .
ard en
▁record ed
▁event ually
▁m er
▁Sec ond
- P
▁( D
in ent
▁allow ed
وا ج
▁می‌ ک
▁p urch
ل ت
▁من ت
ity ,
r im
▁l ink
ين .
▁as k
▁ob ject
▁" T
▁y our
▁R ock
n 't
ك ي
▁ep is
▁( s
▁m us
▁A v
▁inst it
▁cent re
ly mp
o o
▁const ruct
r or
▁inst ead
l ant
▁a chie
ستخ دم
▁in j
▁M usic
ach ing
i res
▁ne igh
ar ily
▁in formation
▁a ction
ar ies
▁v ia
w est
b and
▁trans l
ic an
ط ف
▁performan ce
ها ،
اب ة
c er
w ell
▁n eg
ول وج
▁D u
op er
▁K ore
▁reg ard
▁أ د
is k
▁wh ose
av es
▁P ac
▁M y
▁bel ow
▁" W
▁pro te
ان ون
▁cent er
▁s ometimes
n ot
▁im m
▁it .
▁to wards
را ج
am er
ent h
▁beh ind
▁comple x
افظ ة
▁الع ربية
▁b all
em s
c ite
▁f le
r ich
▁W al
▁te levision
▁خ ط
▁ك م
▁Sm ith
is her
ate ,
▁T wo
ق ر
▁S ur
o ice
nd er
▁ک ن
ad es
all ed
▁acc ording
ار د
itte e
▁com mercial
as ion
▁trans fer
id a
b on
▁em b
▁ce leb
c .
لي ل
ear ch
ly ing
▁م جم
▁m ission
por ary
▁ed ition
▁art ist
am m
▁f a
▁tem per
▁mat ch
p ress
▁col on
▁for t
▁ل كرة
▁s ound
0, 000
▁ال ات
ض ل
▁Ar m
9 %
em ents
read y
▁p age
▁ ها
▁( I
▁P ublic
ut er
▁tra ining
▁ل عب
▁( E
▁appro x
▁D el
▁O lymp
▁gener ally
▁bl ock
▁c lear
و ير
▁to o
▁h or
) ،
▁ال ري
▁st ates
ق ية
▁l ay
- 3
p ing
▁G ra
fic ult
▁c it
ric ult
▁S ing
r as
▁200 3
s y
▁pol ice
▁sub sequ
▁indust ry
▁ع م
▁s ch
emor ial
▁Comm un
▁to day
ec ess
▁k eep
it an
▁د و
▁k ey
▁year s,
al a
▁econom ic
▁e ver
ur t
▁نسم ة
▁الم ؤ
▁Comm ission
▁الم ش
pl es
k n
▁M a
▁year ,
▁M os
▁d u
ب ه
▁p ers
▁م ارس
▁dif ficult
▁ش خص
▁B en
s ite
▁part y
ار ج
▁b ase
▁re ached
▁Brit ain
▁O b
▁d en
m ark
▁c ertain
▁s om
▁د ول
ac her
▁Canad ian
pos ition
▁Rail way
▁f ut
يا ً
▁en vironment
ak er
▁It s
قد ر
ند .
▁Academ y
▁perform ed
ro s
▁II I
▁Ch ic
▁J .
▁b omb
▁dis play
▁con v
▁Canad a
i ''
i os
▁L ist
▁An n
p an
▁dec ided
land s
▁o il
▁s ize
▁N avy
▁M il
▁B o
▁o ur
را ئ
▁ل ح
▁fun ction
▁cont ain
ف ع
▁L eg
▁الم نا
▁b att
ens us
لي ز
▁Sc ot
▁a ud
▁es c
▁so on
▁appoint ed
▁p ie
▁m ach
g round
▁ح د
▁I re
ic les
▁ح سب
▁B C
▁الأ س
r ate
ز ل
▁e le
▁build ings
ند ي
ه ل
▁P ost
▁" P
erv e
▁Car l
ور وب
ib ility
▁M ill
▁rad io
▁Jos eph
▁ب أن
▁G all
▁K ar
ust om
▁st age
▁h ot
▁month s
he t
▁b attle
▁pro b
▁L ibrary
▁s us
ens ion
▁با ش
▁الع لم
▁caus ed
▁O tt
▁ق ام
ic ro
▁se x
k a
▁Pro v
▁per cent
1 7
▁sur face
▁al ready
ما ء
al .
▁pr incip
▁(b orn
▁جم يع
وس ي
▁v ot
▁في ها
▁pop ul
▁'' K
8 4
▁conc ern
▁pass eng
▁W ork
▁th us
▁200 1
A R
▁beg inning
▁ex cept
ic ian
ح و
▁year .
ير ان
cl us
- G
▁sum mer
▁Jew ish
▁m ix
▁invol ved
▁other s
▁c reat
▁w estern
▁t ar
▁19 th
▁P enn
▁Sw ed
▁s at
▁( F
▁200 2
▁fore st
▁الإ سلام
et her
▁L ine
se c
كت وبر
ó n
▁ن ش
ض ع
▁وال تي
▁Fl or
▁الق رن
et ,
▁K n
▁الق دم
▁doc ument
▁( T
▁me ans
▁B ank
ol ar
▁وت وفي
ح ية
r ight
▁T om
▁ا ون
س ين
ation s.
▁Cl ass
▁وج ود
▁Car ol
in ct
ف ل
▁الأول ى
w er
▁أ خرى
▁l ack
▁ar my
▁l o
ribut ed
▁D r
air s
▁l ength
gy pt
▁م ركز
▁F in
▁relig ious
or .
▁centur y.
son ,
▁s af
▁M ass
- H
▁g ames
igh ter
▁الت ع
▁fem ale
s '
▁p ow
ant ry
▁lar ger
▁ك تاب
ن ان
▁ي كون
▁c as
ول يو
▁د ون
▁w ife
ل ی
an cial
▁م ر
▁ل كن
▁الق د
" )
▁l oss
▁e mer
▁1 st
▁bet ter
▁Serv ice
▁group s
ال ات
▁R os
▁ف قط
al and
ل ق
▁house hold
l ier
▁sign ed
▁ex c
m on
▁18 0
▁cour se
▁C ivil
▁p il
ن ج
صب ح
▁l ab
ry ing
im b
▁m useum
▁Ire land
▁Tex as
et te
▁act ive
N A
en ced
▁ex am
▁M el
▁J ust
▁ه ناك
اد ه
f it
p ut
ار ية
▁s em
▁det erm
▁De f
ation s,
▁g ive
▁N o
▁الع ديد
▁ما يو
ص ة
ل ط
▁J un
▁أ كتوبر
ay ,
▁ab s
- e
▁من ها
▁associ ated
▁exp and
an o
ic e,
▁pre vent
▁'' J
▁e y
▁compet ition
▁الع مل
وي ك
b ook
▁ا ين
ro wn
ir t
▁m ight
تم بر
▁الم لك
▁const it
▁Ed ward
on a
▁Pac ific
ري د
▁Te chn
▁ad op
ul f
ell ed
▁من طقة
▁v on
▁New s
2 2
ا ي
▁N orthern
ad ium
▁pro p
▁consid er
▁I f
x ford
يم ة
▁P ress
▁Geor g
غ م
▁Tur k
يا سي
1 3
ven ue
▁d raw
▁E r
▁ج امعة
▁ev ents
▁tr ade
▁L os
▁B i
▁" H
ip l
ut h
▁h ar
5 %
▁(19 7
u ge
▁prim ary
▁rev iew
▁fore ign
ق ع
he ast
▁P re
▁profess ional
▁qu est
عت بر
- D
- T
▁vis it
▁s al
at ives
1 6
▁educ ation
ir it
▁count ries
▁ش د
اص ة
▁Air port
▁ev idence
end s
che n
ul pt
▁" L
▁th ink
9 0
ian t
▁E duc
▁گ فت
▁من ذ
▁ر ئيس
ing u
▁b ridge
▁am ount
▁f amous
ad y
ret ary
▁ع ض
▁O l
re ater
ط ور
ت ش
▁incre ase
▁particular ly
▁ro ute
▁rem ains
▁approx imately
▁fl ow
▁E v
- L
▁W ood
ر وف
▁pl at
▁ن وف
▁addition al
▁F re
▁است خ
▁الت ق
ar ing
▁سب تمبر
kn own
is es
d en
r ig
▁F red
▁care er
h i
▁( G
▁pr ison
▁oper ated
▁point s
▁إ د
ام ج
▁ق ر
▁sc ient
▁E gypt
▁c ities
▁ب أ
▁Sp ain
▁bre ak
▁D irect
جت ما
il i
▁الت ح
▁l ived
▁b ene
▁chang ed
▁P an
▁j ournal
er em
▁D utch
ok e
ad a
▁clos ed
▁elect ed
u an
و ی
▁G o
▁Dem ocr
▁تق ع
ol a
▁6 0
ance ,
▁wh om
tern al
▁d ate
▁right s
▁hig hest
▁long er
قاط عة
ad o
A F
ت ها
▁t rib
▁struct ure
م بر
▁d om
▁v ideo
s )
z a
oc al
▁أ ش
c el
b oard
▁d '
▁relation ship
ه ورية
ra ck
▁direct or
سم بر
▁belie ved
m ing
a ction
سط س
ين ية
▁t aking
▁201 9
a ud
▁ف إن
▁الث اني
▁est im
ally ,
rib ution
▁R o
▁e as
an .
▁ind ic
▁A .
▁d ata
ine ,
▁p en
htt p
ail y
re me
▁spe ed
▁Cong ress
▁new s
al ed
▁w oman
ann el
▁R ob
ar ,
▁rel ated
▁S pe
▁ح ول
▁Que en
▁عند ما
▁T V
ئ ية
▁( )
▁qu ick
▁" D
▁B us
▁بد أ
and s
▁D en
▁award ed
▁s elf
▁ن ادي
▁G ar
▁'' V
- 4
برا ير
urb an
▁F er
▁د ور
▁( H
▁g rand
▁b ig
▁M iddle
▁car ried
▁At lant
▁contin u
▁ex pect
▁الذ ين
o ir
ob al
▁م وقع
▁feature d
▁go ing
▁d ivision
ذ ي
▁T em
▁F ound
▁Con st
▁Afric a
ly .
ا ة
▁d rop
it es
▁them sel
▁Al b
▁ي وم
und red
▁lim ited
▁fin ished
▁O ffic
▁se a
r ast
▁c and
▁examp le,
▁h app
id s
▁س ا
▁examp le
▁re ason
▁un iversity
▁b ird
it a
- R
▁tro ops
▁ي وليو
▁دي سمبر
yl van
▁ي ُ
▁S um
▁أب ريل
▁det ail
▁sour ce
2 3
▁(1 7
وم ات
▁Mart in
▁th reat
▁ف رن
▁ت د
خ ط
▁199 9
g ing
▁S outhern
▁H ow
us ''
▁19 20
▁201 0,
▁Sc ience
▁f if
▁Res earch
l or
سم ي
▁S ub
▁nov el
▁al ways
▁for ced
2 4
▁3 ,
▁pr int
▁im medi
end er
▁ ens
▁d ed
ill s
▁يون يو
▁n ar
h ar
▁'' '''
ran ce
um ents
▁e astern
▁sup er
▁3 .
ch ange
ur a
▁most ly
▁min or
▁j ud
▁ear lier
رج ة
▁fl ight
n ed
▁ف قد
▁ح ق
▁B est
و اب
▁rele ase
▁B re
▁ex ecut
▁de al
▁ب ع
▁Ze aland
ين ا
يد ة
▁In f
▁num erous
it age
▁Val ley
ple ment
س ون
▁نوف مبر
يا ء
▁activ ities
▁L ong
–1 8
▁ه ر
▁r ate
▁أغ سطس
z il
▁R h
▁ann ual
▁E astern
لا ف
or por
▁w ide
▁ب ج
▁refer red
▁L iber
▁de ep
▁N ot
▁comple te
▁Rec ord
▁ن سبة
▁anc ient
▁he avy
▁invest ig
▁establ ish
▁own ed
▁un its
▁Sup er
b ack
▁st re
c a
▁M ot
▁st ep
▁م و
A T
ار ه
▁O ver
▁ب ها
▁الب ي
e ction
▁Sy stem
▁histor ical
▁Port ug
▁m ention
▁17 9
ri age
in ary
▁web site
▁grad u
on n
▁ف براير
▁د ست
▁influ ence
▁Se a
▁person al
im um
▁Franc isc
▁الس كان
▁C amb
▁comm ission
▁n orm
▁ch ap
عد ة
▁" F
▁mov e
ل ه
ز م
▁D o
▁S il
▁6 5
▁pass ed
▁''' ال
▁F ield
قت ص
▁الح رب
را ك
▁en ergy
▁current ly
▁ب سبب
▁Pr ince
in ter
▁بال م
ot a
▁new sp
0 s.
▁F estival
▁col lege
▁inst r
▁tar get
A .
▁Bro wn
▁V er
h ouse
ut t
▁الع لا
▁incre asing
▁في ه
▁Pl ay
▁M ore
bur gh
ul ated
▁and ,
▁20 th
▁ad j
▁cont ains
▁A re
▁b irth
▁( J
i y
▁ra p
▁C ult
▁ا سم
an ced
iz ing
l a
▁''' S
▁cre ate
▁Is lam
il ed
▁independ ent
▁fl oor
▁sh own
كوم ة
ad d
h at
▁p arent
▁show s
▁mount ain
▁Ir ish
▁g as
▁cult ural
▁201 1,
▁L u
▁T im
▁l og
at ively
▁f ace
▁F ollow
on se
▁( U
m ission
ig r
▁loc ation
▁re ve
▁b od
▁let ter
ill a
وال يد
▁M ain
▁س م
▁200 9,
▁en ough
on ic
▁200 8,
▁p oor
▁ا خت
▁h it
ق ليم
▁D ou
▁requ ire
▁me chan
▁H aw
▁وال س
▁four th
t ained
▁G overnor
▁Ar ts
ing s,
▁g ot
▁con cept
led ge
▁laun ched
▁2 nd
ض افة
▁ذ ات
اد ر
▁acc om
a ult
ج ي
▁him .
▁ch ief
▁major ity
ell a
ط ي
▁199 8
▁و ش
▁oper ations
mit ted
▁G en
▁p al
ur d
▁B oard
▁run ning
ip le
▁Eng ine
per ial
▁d ire
se e
▁ت لك
▁م جلس
▁pri or
▁Th at
▁b ound
▁disc uss
▁ک ار
▁c ustom
st ra
▁support ed
▁n ecess
▁cre w
▁cit iz
ac ing
t ar
▁ph il
▁Mex ico
▁با سم
▁برا ی
▁go al
or al
ّ ة
▁آ خر
▁ف وق
▁Pol ish
▁d omin
4 5
وج د
▁non -
▁د ی
▁Off ice
ظ ر
▁ي ح
▁إ س
▁علي ه
▁ع مر
▁ ver
▁qu al
in et
▁separ ate
est s
▁d ig
▁S eries
▁أ لم
▁ل د
▁ل إ
▁Ber lin
▁d one
▁B ul
▁ت ج
▁Squ adron
ظ مة
ل س
g ar
▁ eth
ers ey
t .
▁An other
▁M at
▁H a
2 7
ك و
اب ات
ان ه
▁200 7,
3 5
▁st aff
▁col or
▁Cent re
▁Follow ing
▁school s
▁S pr
▁w alk
▁r an
▁them .
▁لل إ
▁n ature
ك ا
ش ف
▁Col umb
er o
▁c ause
e ch
ment ,
▁dec ision
▁(19 6
▁201 2,
▁J ournal
▁M o
fl ict
i ro
▁ت كون
▁c orn
‌ ها
ag n
▁Par liament
ill ed
▁لل س
ri ef
ast ic
r at
▁O xford
▁ث لا
ell s
▁play ers
ج ب
▁who le
▁أ ق
▁near ly
▁k ind
▁fut ure
▁play ing
▁" R
▁open ing
▁fin ancial
k en
ut en
ist ,
▁list ed
▁E st
▁cap ac
▁ال وق
▁L ife
▁spec ific
ab eth
▁W omen
▁St ar
و الي
ط ب
▁Rev olution
▁م ه
man ,
▁turn ed
▁var iety
را ً
▁H ung
و يل
on .
▁B ill
▁elect ric
▁F ilm
ist an
meric an
▁v an
▁Ch ief
i h
b l
▁G al
c ing
▁W ater
▁Russ ia
ug g
▁not ed
▁I ll
وا س
ور ت
▁Lat in
و ث
وا ء
▁sc ulpt
▁إ لي
▁b ring
▁J ac
▁claim ed
▁Bra zil
ق ب
erv ation
p ose
ian ce
ض اء
▁pract ice
▁م صر
▁C ross
▁ ri
▁( f
▁are a.
▁pre m
يد ي
▁D i
▁t ank
▁dem onst
e en
▁H el
د اد
▁ب ی
▁O f
▁we ap
▁se at
▁ا بن
ال ب
▁م ما
▁Soc ial
▁int eg
it ation
A C
غ ي
▁إ لا
l ight
a res
▁g reen
vent ion
▁aff ect
▁R om
▁S un
▁Ch ap
▁small er
▁R el
s ylvan
▁M ah
5 00
▁previous ly
▁وال ع
▁rec ent
لا ق
▁Scot land
▁pro posed
▁main ly
ar io
▁ي د
ط ق
▁أ ما
az z
▁lik ely
▁J ean
sy ch
augh t
▁st ay
▁sy mb
g .
▁Gu ard
▁offer ed
▁T our
▁g irl
▁chang es
▁sh ot
▁po et
m ir
▁organ ization
▁Pe ople
▁ل ها
▁T ri
▁R am
ment .
▁num b
h o
▁Chic ago
▁end ed
id er
k in
il s
ut y
2 6
▁201 3,
ام ي
▁inc ome
''' :
▁Ret rieved
u a
, "
▁الأ ع
▁foc us
c an
ه ي
▁J es
▁Or der
qu ar
▁an g
▁I ran
▁leg al
ات .
▁" G
▁grow th
ائ ية
رب ع
▁m iddle
▁J ul
▁n uc
per or
ent al
▁B ridge
▁Bel g
n am
▁st one
▁lead er
▁U k
▁c red
و ص
▁al tern
▁sp read
▁4 ,
▁Reg iment
▁construct ed
▁J o
اب ل
▁h um
ج ز
▁to ld
▁S er
ce an
▁ent ered
▁S ar
m ond
▁s ister
op ed
▁h all
▁200 4.
us band
od es
ح ل
▁l ines
▁B et
▁ar ran
▁hous es
g ent
B A
▁F oot
▁الخ ام
) :
ليز ية
▁B udd
▁H ot
▁أ ث
▁med ical
▁( O
▁The ir
▁p an
▁ب لد
▁ع لم
w in
▁h yd
▁V iet
▁M ajor
▁201 4,
▁الإ م
ائ زة
7 5
at hed
▁St ation
▁dis e
ou d
ien ces
v ement
▁W all
▁ب ار
حد ث
▁de ad
▁E lect
▁Comm ittee
2 8
▁Cor ps
ق م
ed y
▁cult ure
r ative
ig an
rop ol
em porary
▁M ur
▁Mus lim
▁ي قدر
▁" s
at o
نت اج
▁Co ast
▁p ric
▁col lect
▁produ ce
▁O h
▁later ,
a is
▁remain ing
k y
▁3 5
▁f ederal
▁c hem
▁ر س
▁run s
▁prov ides
b ury
▁الوط ني
%D 8%
▁Angel es
ن ين
▁ض من
▁h undred
▁Pro g
▁St ev
ra it
es h
▁s en
ron ic
▁وك انت
▁( 3
▁l atter
ك ة
سا س
▁199 7
▁الق ر
▁he art
▁aut om
▁ن ي
man n
e ff
ri er
ore ,
▁in h
▁Ear th
▁Phil ipp
▁( p
▁cand id
u e,
ظ ام
▁system s
▁Bu ild
▁De velop
s. "
▁ل ن
اب ق
▁M .
ع ر
▁c le
▁ag ricult
▁w or
▁prob ably
▁Alex ander
▁U nder
▁c ounter
▁الت ج
ود ة
▁ord ered
▁so ft
▁direct ly
▁S o
itt ing
▁ق ط
لا ً
▁ط ريق
▁sp ent
▁lar g
▁meet ing
2 1
▁T od
it ted
▁ £
▁L ater
▁Penn sylvan
E S
▁" ال
▁B ern
▁Br ig
cy cl
um ber
▁B ost
i as
▁Des pite
or ing
▁P ubl
▁p ath
▁ام ا
▁Ital y
▁init ially
ance .
م .
▁ش ما
▁qu arter
al le
▁200 6,
▁b ox
▁J ud
▁R out
▁B oth
▁P ers
▁199 6
ate .
▁ال انت
▁bel ong
ن ب
▁Al bert
▁pre c
▁m oney
▁ ess
و غ
كت ب
▁ب إ
▁resp onse
▁sub st
▁team s
ت ب
▁stat us
ro om
▁Virgin ia
▁arr ived
ad el
▁proper ty
▁becom ing
▁بال إ
▁الف ت
▁th ous
ظ هر
▁compan ies
▁J er
▁ق ائ
eb all
▁d yn
c es.
-b ased
ک ه
ال يا
▁Comm and
e es
▁الأ ف
▁manag ement
0 %
▁fac ilities
▁us es
▁المد ينة
د .
rup t
▁دا شت
▁201 5,
قي ق
▁appe ars
▁iss ue
ell ig
▁up per
▁C r
▁inc orpor
▁ins ide
▁U r
▁f ish
▁5 00
▁iss ued
▁whe ther
▁Mc C
▁term s
▁الأ د
▁l os
▁ب ير
▁H on
l es,
▁ask ed
▁h usband
▁''' C
or ation
▁he av
▁b oy
▁و د
ob ile
ys is
▁form s
stand ing
ir ing
▁dire ction
ion e
▁199 0
ab b
ed s
▁res ist
- up
▁m ill
▁sc ience
st ein
▁ل دي
يا ة
▁bl ood
▁ra ised
2 9
▁( or
ent y
▁الأ خ
▁deg ree
▁ar rest
ا ست
en .
▁أ خ
▁ال ان
ie uten
- se
▁و ر
l ike
- cent
▁S .
ul ly
▁El iz
▁L uc
ب ح
ق ال
ي .
emb ly
▁ant i-
▁O ut
▁con flict
▁ac adem
os oph
is ation
▁أيض ًا
ed om
▁art icle
en ing
▁mag azine
– 0
▁مجم وعة
ل ع
▁n ames
ac hes
ي ،
▁P en
▁r at
ol s
▁plat form
ست ان
▁In t
▁De v
▁B or
▁د را
▁الم و
n ic
▁famil ies
▁4 5
ing ham
▁un ivers
ائ ر
▁organ iz
▁med ia
▁mot or
ض ة
▁الث ام
ج ه
▁pe ace
ري ر
at ,
▁estim ated
ist ics
▁present ed
▁ب ريط
▁ل س
▁F ederal
▁Al so
▁dem and
st one
▁d iss
▁t alk
▁f irm
it ar
▁" ,
I S
▁s ail
▁The atre
▁h ours
le .
▁م سا
i ć
▁199 2
▁typ ically
c es,
ر ی
▁stre ng
ress ion
om a
▁mult iple
▁T ro
ل ية
▁c erem
res p
▁un c
c ul
▁ship s
▁con ver
ition s
▁c ard
▁بال ت
عي ش
▁ب خ
▁w ear
inn er
▁territ ory
y pe
▁en em
in ated
▁y et
▁themsel ves
6 5
▁broad cast
▁h ospital
▁indust rial
- F
▁B att
▁fl ag
▁con cent
.C .
s w
▁am b
▁vict ory
u ,
▁neigh bor
ieuten ant
▁ي ش
▁com pl
▁h our
▁in n
▁h tt
th ing
▁ 0.
▁ل أن
▁acqu ired
▁T re
▁le ague
▁ت س
▁إ ذا
▁نم ی‌
▁الر ئيس
▁defe ated
▁ف ل
du ce
▁C orn
لا ء
▁W ind
o is
▁co ach
ter ,
▁A venue
▁( a
▁dep ict
▁201 6,
▁S at
▁fin ally
roll ed
ive .
▁tra ffic
▁" N
▁F ar
▁mean ing
▁St an
v est
▁respons ible
ou ra
it ude
▁with d
▁tem ple
▁count y
▁sold iers
▁squ are
e z
y al
▁W ales
▁الد ين
athed ral
▁m akes
▁prom ot
▁cover ed
▁b rand
▁الج نوب
▁D is
▁high ly
a o
▁inter view
ub e
▁Pr ime
and on
▁pl ans
▁أب و
▁Du ke
▁n ative
▁B oy
▁199 4
-d ay
th ur
▁199 5
▁ded icated
ut s
ry ,
▁Pol and
▁الج ديد
ic ient
▁S ol
▁direct ed
▁m ale
▁H or
▁d ark
▁exper ience
▁C ur
ن ه
▁ ut
▁sc en
▁م ل
▁الث انية
ام ة
th let
▁le ave
▁w ant
▁s ens
▁الع م
▁mus ical
▁استخ دام
ائ رة
ي لي
▁Cor por
▁cons ists
▁St ep
▁cons um
E R
▁w anted
▁You ng
▁j ob
▁le aving
f ort
at ers
is ions
- 5
▁Pro t
▁( W
3 %
▁access ed
▁repl ace
htt ps
ut ed
▁n ine
▁البح ر
▁V an
▁ins p
▁الأ ح
اع ت
▁أيض ا
y ing
▁min ister
t a
and a
▁le arn
▁V en
age .
▁larg ely
▁ ult
▁c ouncil
▁camp us
▁الف رن
▁t akes
▁ت ر
▁pat tern
▁الث ال
▁bl ue
p re
▁وال د
▁the ory
▁part n
▁qu ality
▁sh op
▁الب لد
▁ن وع
▁" .
▁B ow
▁D ar
▁الأ ك
ian o
▁hel ped
v a
▁D r.
▁g am
ress ed
▁discover ed
▁( c
▁F our
لي ات
▁dep art
▁O '
▁des pite
et y
2 ),
ian a
f ect
▁serv e
▁Educ ation
▁201 7,
▁ج ان
▁s n
▁b ott
▁S pecial
▁S und
▁g reater
▁الس يا
ag on
n y
▁ج نوب
▁in form
ب يرة
▁الأ رض
▁S ever
▁imp act
▁bord er
ap ed
-t ime
▁J im
▁int ended
▁ra re
on om
▁typ es
▁Sec retary
stit ution
▁stud ies
▁m em
. M
▁cont act
▁s pl
▁چ ه
▁ا عت
ها د
▁dis p
ad or
▁''' M
ف ق
w ar
▁(19 5
▁S and
ث م
▁ص ح
ري ب
▁v ess
▁result s
ess ion
▁ش ده
▁oper ating
▁met al
▁w ild
▁J ersey
ü r
ن گ
▁D et
▁r ule
▁m ap
▁ext ended
▁الر سمي
▁leg isl
▁ج ون
ed d
- W
▁contin ue
▁epis ode
▁writ ing
▁prim arily
3 3
▁f uel
▁pot ential
i 's
▁R ome
▁ت ط
▁capt ured
▁ض د
▁sup pl
s ''
▁pres ence
▁Eliz abeth
ث ي
a it
ه ما
▁surround ing
▁أح مد
▁sec urity
▁sett lement
▁ urban
▁وا حد
er c
ra c
▁199 1
▁near by
8 5
▁I ra
▁sh are
port un
m .
▁الأمريك ية
ان ات
▁att ract
أ ة
on ent
▁" E
واس طة
ran ge
▁Flor ida
▁it ,
▁press ure
he im
▁common ly
▁dou ble
am ber
▁(b .
▁M ax
r ong
▁W ild
▁div ided
▁T w
▁5 ,
▁sus p
▁الي وم
▁201 1.
▁sub s
r ical
▁ch all
F A
er a
▁anim al
om ot
▁fe el
h ist
6 ),
▁re form
لي ون
▁sc reen
▁on line
▁reg ional
▁Col on
2 %
▁بود .
▁h ol
▁agre ement
▁لع ام
▁st ore
▁B al
▁M id
▁con ne
▁الس عود
▁season ,
▁H am
▁l ove
▁re ar
n s
▁decl ared
▁C .
▁M ilitary
▁ ir
▁ب واسطة
▁B ec
▁destroy ed
و را
▁Francisc o
▁prov ince
▁init ial
▁there fore
▁الش يخ
ograph ic
id e,
6 4
▁م ختلف
▁comp ared
▁ت سم
▁199 3
▁d ram
▁الم ر
▁P o
▁و خ
▁B ig
▁ج ديد
for ce
س ان
▁offic ially
▁ear th
7 %
طف ال
w an
▁fail ed
el y,
6 %
▁M en
▁occur red
▁b ad
▁U N
▁b illion
▁C reek
▁polic y
▁F orm
og ue
le m
- n
▁don 't
▁سكان ها
▁H ind
8 ),
▁se qu
▁t able
▁a im
▁P ak
▁الع ل
▁He ad
▁وم ع
▁over all
▁M u
▁att ended
▁( l
http ://www.
‌ های
▁و ذلك
á n
▁He alth
o ''
▁Con f
▁ك بير
▁s and
▁per man
▁start ing
▁f ell
▁rap id
▁ab andon
▁plann ed
9 9
▁And rew
▁ide a
▁P op
ر فت
▁الوق ت
▁res our
▁f ast
▁Comp an
▁Th ree
▁" a
▁يق ع
▁book s
▁wid ely
▁B BC
ري م
ous ly
i ated
ات ب
▁k ept
حد ى
▁''' م
▁ren amed
▁re ach
▁numb ers
وي ت
▁subsequ ently
▁rec over
em eter
▁mag n
▁ل ج
▁te acher
▁الش رق
w ide
▁الد ولة
▁b rief
▁'' U
قتص اد
▁w inning
▁Comm on
land ,
7 ),
ill ery
▁p ick
▁b ranch
▁ra in
ro g
eth ing
▁Pennsylvan ia
ic ations
1 %
▁الإ نس
l av
▁V ill
▁ن ا
▁p ict
▁L im
▁S erb
▁201 0.
ه ود
▁الش ر
▁Sant a
▁m aster
▁prom inent
▁L y
▁الات حاد
▁val ue
ن ى
▁conduct ed
▁Ant on
▁م غ
▁n omin
▁instr ument
ru it
at i
▁m ax
h t
ag ement
quar ters
▁لل د
4 %
▁temper ature
▁" O
▁j oint
▁se em
▁N az
▁sl ow
n ce
b re
▁l iber
▁dist inct
▁ال وا
▁pre p
ح م
▁Foot ball
ی ست
ش رة
le y,
▁N ap
ظ يم
g u
''' .
▁sup ply
▁sp irit
▁الط بي
is .
▁purch ased
t ing
ري ف
▁C ard
▁D an
▁الم ركز
▁مح افظة
▁Phil ip
▁201 8,
▁ ice
ig er
1 ),
resp ond
▁paint ing
▁spe ak
▁Ad am
est ic
▁N ether
▁fig ure
am in
▁M emorial
▁ك ار
' m
S A
▁p le
▁الن س
ers '
▁17 8
▁L ab
▁Fore st
▁E p
▁Pro fess
▁الع د
ay a
▁A z
▁main tain
ا ذ
▁f r
▁O s
▁Cast le
ح ق
▁الا جتما
ag ing
▁Ira q
oc ated
▁manag ed
ث ال
▁fe et
▁الم ق
ib ly
▁quick ly
che ster
▁ iron
▁Histor ic
▁com ment
▁Rad io
▁p ap
▁art ists
▁Char l
▁l ic
ب اب
res h
▁need ed
▁dep artment
▁أن ها
▁As ia
▁الأ ن
▁s uit
س ی
▁re -
▁ill ust
▁200 5,
▁att end
te en
ence ,
ت ل
▁Develop ment
▁op portun
▁remov ed
▁H ospital
ceed ed
▁و ص
▁g od
▁ق رية
▁K ong
▁Pol ice
▁Democr atic
وا ع
▁ch ampionship
▁s ports
▁M att
▁Min istry
▁re duced
▁3 rd
▁s port
▁im age
ه ور
ج وم
▁خ وا
▁r isk
if orm
h y
as ons
▁phys ical
▁resident s
▁re pe
▁adop ted
▁par ish
▁pe ak
ent ed
▁6 ,
▁C y
▁that ,
▁ح م
▁m erg
ا ية
▁ن ق
▁m icro
▁Te am
▁we ight
▁fl ood
▁E conom
▁K ent
ند ية
▁K enn
▁8 0
s "
ra k
▁ch air
▁commun ities
es c
▁ش ركة
▁Mount ain
▁م قاطعة
▁f elt
ut ions
▁rel atively
▁م ط
اب ع
▁transfer red
▁p ack
▁الري اض
▁ab ility
▁sc hed
ine .
▁B ell
d own
▁ح والي
▁U l
وري ا
▁c ab
▁''' A
▁Bro ad
ropol itan
▁cl imate
▁200 9.
▁season .
g g
▁( al
aw a
▁A tt
▁car s
▁دا خل
on 's
w ater
3 ),
▁compos ed
وي س
al ion
▁e lement
▁ro yal
▁result ed
▁م رة
▁res erv
ر و
▁e lev
▁Fred er
▁char ge
▁ا حت
▁for ward
▁الم جم
▁immedi ately
▁" c
▁Sy d
sk i
t ies
▁city .
▁As ian
خ رج
ت ين
▁coll abor
ani el
▁f estival
غ ل
▁198 9
adel ph
▁mar riage
▁g iving
og rap
▁ن ه
▁b urn
▁l ibrary
▁''' B
ans as
▁result ing
ig en
▁b al
ست ون
▁w ound
A N
▁ق ال
3 7
▁L ittle
ن امج
rop ical
▁E ll
ton ,
▁hor se
م س
C O
▁إ ي
▁t ree
ش ي
▁exp ans
▁Un ivers
گ ی
le vel
ز يز
▁Hol y
▁ون ادي
▁appro ach
o 's
i at
ped ition
▁g rew
▁st ra
ما عة
▁ت ُ
▁requ est
▁F all
▁quest ion
▁Ch ild
▁l abor
ا قة
▁Atlant ic
▁ro ll
3 9
▁agre ed
تم ع
ach us
▁A sh
▁ق ص
ov ers
▁N ic
▁Ch in
▁( أ
▁م ك
é e
▁Ar gent
ard ,
ول ي
▁win ter
▁ه ـ
▁200 8.
▁histor ic
▁4 .
▁hon or
▁Mod ern
▁dec or
▁represent ed
▁not able
▁D ie
▁old est
m et
▁C op
v ey
ک ر
▁Bro ok
▁L ar
ism ,
▁veh icle
▁beh av
y an
▁oper ation
▁الع راق
▁w ing
ج ن
▁201 2.
ع ادة
▁الأ ش
▁S om
ف ن
▁( t
4 ),
▁L ight
ul s
▁ش ر
▁C a
▁Sh ow
ف ض
▁sl ight
▁ه ست
▁عد ة
▁الت ص
- E
▁F e
ال ح
▁st ock
: '''
▁Rout e
▁Or gan
▁r id
▁3 00
▁municip ality
▁17 7
D .
▁ele ments
▁ج د
▁ext ra
▁F air
و ذ
▁offic ers
▁الم ه
▁المن طقة
▁" d
▁m iles
▁ent er
▁m om
n el
ب اد
▁Le e
▁(d .
▁song s
▁stud ied
▁appear ance
he w
▁Pro ject
y 's
▁sh oot
▁c ateg
▁act ually
▁Que ens
▁M ov
▁Ab b
um ed
er al
▁7 0
▁Bl ue
▁e c
▁1 2,
▁im plement
▁وال إ
▁الط ب
▁أك بر
et ball
▁L ady
▁Camb ridge
▁H ong
▁H uman
) ;
▁suff ered
m as
al i
▁s u
▁الأ خرى
▁th r
k i
▁ن ها
▁نظ ام
▁p et
▁Ear ly
▁ident ified
▁Scott ish
▁B ob
▁الت ش
▁E nd
▁ولا ية
n o
▁ت رك
or a
▁p it
ع رف
▁un s
▁John son
ro vers
▁ser ious
▁f ully
ي ار
ز ا
▁Bost on
B S
▁Oh io
▁الت ن
ض ر
▁Al f
t ,
op her
دم ة
ه‌ ای
▁ x
▁7 ,
9 5
▁الع ربي
v is
▁Con ference
▁Ind ust
▁K e
ou red
▁stud io
كت ش
▁C ub
ين غ
▁se lected
▁Olymp ic
▁G ood
ري قة
un te
▁201 3.
ن ع
b it
▁writ er
▁ب ق
▁ent rance
▁Ind epend
▁ro of
▁الث ق
ز ر
▁world .
▁p oll
▁level s
il a
▁Carol ina
▁الش مال
▁" f
▁وال ذي
▁Victor ia
▁ro t
▁Bec ause
▁W .
▁condition s
ra wn
ic ed
▁F ord
▁I V
a ft
▁d og
orn ing
' ,
M S
▁ب ب
▁individual s
▁Republic an
F L
▁200 7.
▁أ ل
▁o vers
C C
▁S ev
s en
▁complet ely
گ اه
▁co al
z ,
▁m al
▁bur ied
▁S a
▁أ صل
▁إ قليم
ip s
▁capac ity
▁pro pos
▁day ,
▁ي بلغ
▁necess ary
▁St e
g rad
ر ام
▁sch olar
▁Island s
ie val
▁o x
▁h y
▁prote ction
▁194 5
▁200 6.
▁p aid
▁suggest ed
▁م ار
ها ز
ق ى
ور ك
▁Op en
▁الب ل
▁F ire
▁col umn
▁sc ored
▁squ adron
▁E ach
▁J eff
▁grow ing
" ،
▁serv ing
▁Rep ort
▁vis ited
▁Cap tain
▁أ ص
▁18 th
r m
▁p aper
▁sy n
▁الت اريخ
▁198 0
▁Or ig
▁can not
طل ق
ipl om
in em
▁f ix
▁ح ين
▁expect ed
-1 8
ض ا
hen s
▁op pos
▁S ong
▁act or
▁ح زب
f all
▁الثام نة
el a
6 6
y t
▁me ant
▁(19 4
▁R .
▁mention ed
ش ار
▁mov ing
ک ن
▁الص ح
j a
▁W eb
▁اليم ن
▁connect ed
▁ad ult
▁Vol ume
re ct
▁offic er
ستخ دام
▁ل ب
'' '''
▁إ حدى
3 4
▁الح دي
' re
▁sc ore
▁ ‘
▁Trans port
▁M ir
▁prov iding
ent ,
▁n ation
-cent ury
▁c ases
▁P oint
in .
▁C E
▁se ek
▁allow ing
▁H .
ast y
▁ع بر
▁Mass achus
▁إ م
▁Mich igan
l es.
سل سل
▁عض و
▁وال ح
▁som ething
▁Be ach
▁ب يت
▁Phil adelph
▁198 8
▁201 4.
ant ,
ان ،
▁mark ed
▁R og
▁5 .
iss ance
▁g ar
▁L ew
ive ,
u v
▁Stat es.
▁t ried
▁W ay
ing er
▁se arch
▁sp ring
▁occup ied
▁exper iment
▁V i
▁h owever
▁H ome
▁sil ver
h ich
▁علي ها
▁G er
▁show ed
▁R od
ك ار
▁C oll
▁P ier
- N
▁P ower
▁و تم
▁reg ister
▁Mar ia
▁min utes
▁Lond on,
ات ،
▁acc ident
▁الخ ط
al ing
S t
▁ ارت
av a
▁exist ing
amil y
▁p ra
▁comb ined
▁dr ug
▁19 00
▁Histor ical
en z
▁دی گر
ش م
▁م وا
▁18 ,
▁M r.
▁J on
و ما
▁Ang l
▁Prog ram
ol n
▁air port
ri z
▁Cl ark
▁exhib ition
▁author ities
▁citiz ens
i ents
▁D am
▁cor respond
▁19 19
▁الأ ص
وج ه
▁Tem ple
▁n ob
a ug
▁to urn
ed ing
يف ة
3 8
p et
ri e
▁Pol it
عل ومات
▁P u
un ction
▁st ations
ال د
▁nuc lear
u ct
▁rec ently
▁High way
▁pro f
▁ب ني
▁و لي
▁b ul
k o
▁he ight
▁show ing
▁gl ass
▁fle et
▁بين ما
▁occ asion
▁municip al
ic ,
▁ب ول
▁comb at
▁Ear l
ac he
▁ك أس
▁arm s
C A
on na
▁dist ance
▁Am ong
▁A k
▁say ing
▁9 0
▁E .
▁A ff
▁( K
is ''
▁fac ility
▁instit ution
6 7
im al
on ia
▁h abit
▁Sever al
▁8 ,
▁rest aur
▁techn ology
جم ع
▁conc ert
▁ي ست
▁Rev iew
يل م
▁organ ized
▁201 5.
▁m m
▁ب ما
h an
▁de ploy
▁1 1,
▁are a,
ess ed
▁Em peror
▁iss ues
▁pur pose
▁old er
▁10 ,
▁mod els
ie ,
▁g arden
▁بل غ
▁pl aces
▁liter ature
▁Ar thur
▁record s
▁mach ine
▁gu itar
ا هد
▁Jew s
▁" w
▁200 4,
▁A ge
را ب
▁H an
▁rec omm
ث افة
clud ing
▁f air
▁st or
▁him ,
▁equip ment
▁ear li
olog y,
▁p sych
ان ا
▁N ations
▁effort s
▁l oad
▁al t
a ver
▁expand ed
▁B ang
▁B and
▁m ess
▁fav or
il ing
olog ist
▁ext ensive
ز ام
▁D un
▁هم ه
▁الم وا
▁law s
k er
▁العالم ية
▁laun ch
▁الأ لم
▁Har ris
▁t ask
▁effect s
▁fig ures
▁appl ied
ل ات
▁Direct or
▁د اد
▁cont ribut
h r
▁ت ضم
▁treat ment
▁polit ician
رب عة
ak a
▁mat ter
av en
▁الأ سر
▁الح م
▁M as
itz er
▁p urs
▁ق سم
▁Squ are
R A
i i
▁comp uter
▁Mar sh
ي ادة
▁problem s
▁W ell
▁dec re
ain ing
▁know ledge
▁off ers
▁ل مد
ست ه
اب ت
▁symb ol
ش د
▁Ott oman
6 8
pl ace
▁197 0
▁ح جم
h ing
▁inc ident
l an
l ines
▁addition ,
▁dam age
▁D .
▁Viet nam
خ وا
▁sh all
▁لل ح
p ass
▁conver ted
ز ال
▁gr anted
▁فرن سا
ren ce
▁ا ح
ic s,
▁Jack son
or b
▁deb ut
▁Inf antry
▁sec ret
ow nt
▁العلم ي
▁ش مال
▁p un
w orth
I A
▁s ac
▁St and
u ilt
▁C as
r um
ag u
ir med
▁''C h
▁Vol .
ی ت
ab les
▁cont rovers
re c
▁( for
▁S her
▁الج ن
▁E s
▁allow s
▁ass igned
or ph
os a
▁R ay
▁ص ف
▁un ique
▁com ing
▁William s
▁med ian
▁می‌ک رد
ol ved
▁product s
▁ك ون
▁ع لا
▁3 4
گ ه
ic y
غ ر
▁tra ins
ony m
▁meas ure
▁spe ct
▁H al
▁c art
▁program s
i able
ist ed
▁ل ق
out heast
▁T ay
▁g ained
رك ات
in es,
j oy
- sh
od ox
بد أ
▁( n
▁چ یز
ac c
▁الدول ية
et ts
▁cont emporary
▁b ill
▁B ab
▁15 ,
▁T op
▁com es
- J
▁new ly
▁sim ply
▁B ishop
▁الخام سة
▁198 6
ar p
▁l ot
i ot
▁to uch
we b
ز د
ar ia
▁ste el
▁15 0
ers e
▁ش ب
ش اء
i pe
▁ro ut
▁B ol
▁charact ers
▁tr ue
in ity
it ness
ze ch
6 9
▁F le
▁ب ك
l o
▁198 5
▁dist ribution
▁g all
▁m is
▁198 7
5 5
▁اله ند
iction ary
▁أ هم
E C
▁T reat
▁Commun ity
.com /
▁ع الم
are t
▁st orm
▁201 9,
لع اب
d am
▁B ad
I n
om er
▁day .
▁G i
▁" b
▁bo at
7 8
oh n
▁Ind ones
▁الش خص
▁lead ers
▁U s
▁hyd ro
▁M un
▁r ang
▁rece ive
il ly
▁T ime
▁Franc is
▁sing er
. B
▁sen ior
▁ال لا
▁be y
▁port ion
▁War s
▁C ape
▁أ ستر
▁av oid
i ate
▁activ ity
▁sour ces
▁( m
▁. "
O S
ian ,
us ion
▁الب ريط
▁Sp ace
▁B h
ول د
▁accept ed
▁design ated
▁B a
ويك بات
ث لة
▁passeng er
▁In st
▁''S t
▁becom es
▁N aval
▁m ind
▁v oice
خ ذ
▁K ir
sc ape
▁2 4,
▁v en
▁منت خب
▁Ar men
▁الح كومة
ات ه
cl ass
▁ق ب
▁pil ot
▁العام ة
z y
▁1 4,
▁bas ic
w rit
▁Pal ace
- pro
▁" m
ار ب
ak h
▁Her itage
ib b
im a
▁loc omot
▁sh ape
og en
iv ity
▁وا حدة
'' ),
▁y ellow
ence .
c ol
▁با ز
▁soc iety
▁frequ ently
▁be aut
ـ ـ
▁الج يش
▁lif e.
▁bey ond
ن ف
▁inst all
▁P ass
▁J ones
▁scient ific
شر ين
▁s un
▁''' P
▁situ ated
▁to w
▁T enn
- 8
وروب ا
▁T est
as .
h ol
▁Columb ia
▁198 4
▁ع ب
▁nar row
▁hand s
▁Im perial
▁inter ior
▁ع ل
▁Pal est
▁خ ان
▁ن حو
ify ing
يا ه
▁jo in
▁G ame
– 200
▁count ri
ol ished
p ri
▁fif th
▁do or
▁عام اً
tern et
che stra
▁4 th
▁F eder
ah n
▁dise ase
▁surv ey
▁B alt
▁وف ق
▁إ يران
▁Sup reme
- 201
▁word s
re te
▁خ وب
▁3 2
▁recogn ized
▁lead ership
شر وع
▁ed itor
▁ذ كر
بر ت
inc oln
▁h ill
i el
▁sex ual
ون ية
iz es
▁C D
▁ret ired
▁Bar b
m outh
▁Step hen
▁Ab out
ري ت
▁T ai
▁Mar g
▁adv ant
▁administ ration
ure au
▁Corpor ation
▁S us
ار ی
cl aim
▁و غير
an cy
▁ه ن
▁Mar ine
▁L es
eg et
ج ات
▁pres erv
▁d a
▁H u
▁P ope
▁ر وز
▁H ay
▁sim ple
▁D ec
os ,
▁بط ولة
▁b ow
▁d ial
▁a st
c ow
▁أ بي
▁est ate
ens ity
id ae
▁b or
▁b atter
on e,
▁Found ation
▁عمل ية
s ch
▁ت ف
3 6
▁Just ice
▁reve aled
▁لل ع
▁along side
os h
▁9 ,
▁c ensus
▁P ap
▁g overn
▁cre ation
▁newsp aper
in ate
▁system .
▁ألم انيا
▁St adium
▁ب و
I N
▁( and
y e
▁dr ive
▁Tor ont
▁week s
▁B .
▁re in
▁to wer
cl es
قي قة
▁1 3,
▁B rad
▁inh abit
▁ح صل
▁L t
▁Georg ia
ock ey
▁b ought
I C
g n
▁م ُ
i ar
▁neg ot
▁و ط
w ick
▁d ie
w a
ag er
ograp her
ress ive
r é
▁(w ith
▁أع مال
9 ),
ub b
▁Ad minist
▁add ress
ig ration
▁ل كل
ir a
▁ش ي
ان ی
in er
ind er
▁we ather
un a
▁الم نت
▁M r
▁cr im
-s pe
قا ً
us al
▁def in
▁del iver
4 4
▁se g
▁An th
▁mon ument
pt on
▁Con c
emeter y
▁t end
▁con clud
▁pie ce
▁n am
▁t or
▁201 6.
▁cont rast
▁K en
-1 0
▁ك بيرة
▁power ful
و ء
h aps
ز يل
▁Build ing
▁ح ل
▁mem ory
▁د م
▁people ,
▁Syd ney
▁فت رة
l ig
▁C zech
7 7
ra v
لي ف
▁In c
▁ش هر
▁ro ugh
▁الع ائل
th odox
▁Fore ign
▁O k
▁Mag azine
u ese
▁Th rough
▁dou b
▁ن شر
▁وب عد
▁T ar
ه‌ ی
▁2000 ,
▁s ense
▁st ream
▁whe el
▁car ry
ائ ي
▁Stat es,
▁bas is
el le
▁I d
org /
▁ن ت
ع يد
ile ,
▁گفت :
▁Arch itect
▁S av
ph as
▁T al
▁4 00
▁الد را
▁Ill ino
▁L ieutenant
ut her
▁أث ناء
ون د
▁gu ard
▁qu ite
▁fight ing
3 2
▁al one
''' )
▁D or
▁op position
▁wind ow
▁Prov ince
T V
▁et c.
▁work ers
▁الثال ث
ul ate
row d
▁soc iet
it e,
▁bas k
▁f ellow
▁M aster
▁ع ز
▁as pect
▁المغ ربية
ron ze
ellig ence
in es.
▁Pl an
▁m ur
ownt own
▁ش ارك
▁الك تاب
▁tw enty
▁الع رب
ro t
▁Freder ick
▁الا حت
T A
▁2 5,
▁V is
ام ا
▁( now
ett ing
▁أمريك ية
▁sp ot
ه يم
▁I S
▁the atre
▁Swed ish
▁Conf eder
▁الح د
▁s ays
▁الح ر
▁Count y,
igh th
▁con g
▁s le
▁att ention
عل ام
▁سن وات
ور ن
▁form ation
k ins
▁sit es
▁en joy
▁ف ما
▁feat uring
▁( ت
▁this ,
▁الآ ن
▁k il
▁ج هة
u ild
سي س
▁pl ants
▁E ven
▁Are a
cept ion
▁c ru
▁crit ical
▁إ سب
▁y outh
▁Bar on
▁Gold en
▁( V
h is
▁N av
▁creat ing
▁الإ حصاء
▁F ree
▁الد م
▁Ass embly
▁d ang
▁ون سبة
▁rev olution
▁pol y
▁pre par
▁A D
▁dis m
▁expans ion
▁pain ted
au x
▁tourn ament
▁Be fore
▁head quarters
▁ط ب
A r
▁m ut
▁H o
ض ي
▁D aniel
▁ch annel
▁Mar c
▁c at
▁dist ingu
ert o
in burgh
▁( 4
3 1
▁ج ائزة
ri p
▁max imum
▁198 2
▁196 8
▁dom estic
▁r ise
▁wh y
رف ة
▁t ail
▁refer ence
▁ع رض
▁con vers
▁في ما
▁attempt ed
▁veh icles
▁film s
▁L ev
با ط
an 's
رائ يل
ه ـ
▁ك ال
ge ,
▁con qu
▁vict im
ا ول
▁For ces
▁sett led
غ ط
ary ,
▁Spr ing
▁W in
▁re ject
▁W alk
▁we alth
▁g ives
ق را
ا سم
▁on to
ها ب
اب عة
▁ي وجد
▁adv anced
▁ext rem
it ter
) '''
▁comp ar
▁Massachus etts
ly n
ید .
▁198 3
▁3 6
g a
▁G h
▁J r.
▁ro b
▁Col or
z en
▁C irc
▁D ue
▁them ,
▁الفت رة
ور ج
و .
ant e
▁streng th
▁L incoln
ري ا
▁resp ond
os en
▁dr um
حد يد
▁academ ic
▁conne ction
▁Bet ween
▁16 ,
ذ كر
▁l ake
▁dr ink
unn el
v in
▁196 0
▁l ies
om s
▁d im
▁manag er
▁الق ط
▁people .
w ich
▁Dou gl
▁B all
cycl oped
▁attack ed
▁perman ent
il le,
فا ق
▁gl obal
T C
j e
▁emer g
▁الن م
غ يرة
▁app arent
▁to ward
▁لس نة
▁أ جل
▁vol ume
▁anal ysis
ov en
▁fact ory
ري س
▁A h
▁c amer
▁ط ول
▁197 9
▁appl ication
▁200 3,
▁a id
ia ''
▁sp ons
▁198 1
▁P rem
▁العلا قات
▁B at
▁ولد ت
▁N ative
ac ent
▁ex change
▁v ent
▁mer ch
cl os
▁Stud ies
1 00
▁op posed
%D 9%
▁lim it
▁ste am
▁record ing
▁sy m
▁196 7
▁Sen ate
▁ref used
▁O nt
▁197 2
▁Mos cow
▁Aut hor
ين ات
II I
▁''N ew
ht m
▁الع سك
▁مت وسط
▁Le on
▁(19 0
▁cont ent
كتش اف
▁mix ed
▁3 8
▁str ugg
▁197 5
▁ال وسط
▁techn iqu
anc ing
▁Jac ob
▁St ock
▁الل غة
▁ال ولوج
▁دول ار
▁second ary
▁n ort
▁G ree
ر سة
▁d iplom
ن ی
▁back ground
▁7 .
▁K al
9 8
▁p air
▁Record s
▁ref lect
on ents
▁s an
ص ور
ra ction
▁un known
▁York ,
m ad
is hes
▁ه ی
▁A wards
on ald
or gan
qu es
▁وا ست
▁ح ر
▁ن يو
▁Mex ican
▁Portug uese
▁N Y
▁struct ures
▁(w hich
▁الأ ز
▁الب ط
▁ت ون
▁" t
▁V ar
▁Pri ze
▁th ick
▁prot est
▁d raft
▁ا فت
▁reg ions
▁194 4
▁F ront
▁ب ات
ید ه
▁g overnor
▁Med ical
م ي
▁neighbor hood
ic ine
ism .
▁country .
▁S ix
▁stra ight
I D
هم .
▁Kore an
ant ine
▁A st
▁و ضع
▁N ight
▁Con stitution
▁attack s
▁ق در
▁ال وز
▁G il
▁بال أ
▁" ''
▁E th
▁بالإ ضافة
▁women 's
▁Bus iness
▁eth nic
▁beg in
▁in ternal
▁re duce
▁C ab
ch ar
c ar
▁d iam
ry st
▁أ وروبا
ov a
en h
ظم ات
▁v irt
▁cast le
▁F urther
▁م يل
▁17 th
▁الخ ارج
▁hous ing
▁US A
ل ين
▁الأ وروب
▁d ry
n et
4 8
▁Rep resent
رب ة
▁ك ه
▁f er
l oad
or s,
▁serv ic
▁Tr ust
▁r ural
- K
▁ad vert
▁th ings
▁det ect
▁M ic
alle l
▁d ance
%D8% A
▁con d
ol as
▁earli est
– 2
▁pre fer
▁belie ve
▁Sum mer
▁Techn ology
ell er
▁الم سي
▁a er
▁197 4
▁bro ke
▁chem ical
▁ ere
▁ب گ
▁ر فت
ز يد
▁(م واليد
▁17 ,
▁G ames
▁18 1
▁str ateg
▁hold ing
az a
▁l aid
▁في لم
▁dig ital
▁claim s
▁M P
▁spe ech
▁el im
▁contin ues
▁exper ien
▁she ll
ud get
ك ال
▁الر غم
▁L .
▁pos itive
▁respect ively
▁res c
o at
وب ة
ul ed
▁20 ,
- 7
▁مع ظم
▁أ ر
▁س ط
▁pur pos
اه رة
▁material s
▁الد وري
ش ق
▁em phas
▁architect ure
erv ative
í a
▁B on
لي ا
ح ف
▁B ureau
▁6 .
ند ،
if ically
▁f ought
pt ion
▁Brig ade
ج ال
▁wall s
▁Lt d
en ge
▁آ ل
▁ent ry
▁ch o
ت ون
4 7
p ret
▁197 3
▁constit ution
▁insp ired
b ro
▁influ enced
▁slight ly
▁subsequ ent
▁T s
h u
▁Wil son
▁ac id
ol t
▁G arden
▁خ ی
r ade
▁val ley
b an
▁play s
▁الم رك
▁S u
▁ eld
▁effect ive
- old
▁conf irmed
ash ion
▁a x
ivers ary
ag es.
▁v ote
▁phot ograph
▁Ont ario
▁war ,
▁Gree ce
▁r u
am ic
▁الوط نية
▁النا س
▁بريط اني
▁N AS
O R
▁Sh ort
▁sc ene
▁الس ن
▁من ه
▁serv es
▁الي اب
j i
▁c old
▁" p
ult y
▁f lying
▁l '
▁saf ety
▁197 6
▁G reg
omm od
▁norm al
▁hot el
P S
r ations
▁rel ations
▁We ek
▁particip ated
▁D er
ري ات
▁appro ved
▁s ought
▁found er
▁3 7
▁رو ی
▁الت رك
ri k
▁ex clus
▁الق انون
▁ن د
P A
▁L ove
▁con ference
▁الق وات
ag en
s /
it led
▁con vent
▁manufact ur
▁التع ليم
▁R aj
▁L ike
▁س ياسي
▁car bon
at ures
bour ne
▁def ense
▁he at
ill ing
▁defe at
▁histor ian
▁cont est
▁agricult ural
▁phil osoph
▁O cean
us .
▁Le ad
▁B os
▁contain ing
▁ل لا
▁Philadelph ia
▁و ما
9 7
op ter
▁cor por
▁Des ign
▁C athedral
▁ج ن
▁الع مر
اص مة
d a
▁است .
▁N etwork
▁T ok
▁h arm
▁الن بات
act er
▁par liament
▁T rib
▁W el
▁ar med
▁he ro
▁N ich
▁t all
▁''' أ
▁وال ن
▁للس كان
▁un able
عض اء
و ين
ã o
▁F ox
ag es,
i ary
%D8%A 7
▁l ives
ني سة
▁الس ل
▁197 8
▁ت ب
▁report s
u ate
▁الم خ
▁201 7.
▁Har ry
▁18 2
▁2 2,
ann ing
▁2 1,
os aur
▁er a
▁d aily
▁Turk ish
▁L o
ant ly
- 6
▁w a
▁( بال
▁official s
▁l iv
▁الم ل
▁se vent
cript ion
▁Wal ter
▁s ales
▁D al
▁L et
▁fl at
▁prom oted
▁R em
▁Alex and
ain e
▁n aval
▁host ed
▁Nor way
▁mov ie
▁ك ر
▁s ust
▁الم وقع
▁port ray
▁كان وا
▁الح زب
▁inst alled
▁mur der
▁196 9
mir al
▁tra v
▁194 2
/ 0
▁م ليون
▁s ides
▁fl u
es ter
▁York :
M A
▁P ot
ه ن
▁tra il
▁Ad dition
▁Sec urity
▁Americ ans
د ف
ph y
▁G ard
▁p ull
▁20 20
▁F .
▁former ly
▁م ان
▁ذلك ،
▁ch art
ع ى
▁ي ؤ
as e,
▁prov in
ad ed
ik h
I T
ly wood
▁f resh
sec ut
▁N ow
▁S ports
▁he ard
▁L ind
▁Joh ann
ir ty
▁ا گر
▁prov ed
se ct
▁و لم
▁ad apt
enn a
▁author ity
▁cou ple
▁''' D
▁h air
▁الإنس ان
▁196 5
▁not hing
▁anim als
O N
▁un ion
▁P .
▁ب غ
r ine
▁comm ander
u ing
▁spl it
▁H ou
▁st adium
p ool
▁res idence
▁السعود ية
ru ce
▁فر ان
▁الن ق
▁الش عب
ian g
▁v eget
▁On ly
تم د
▁بال ن
▁ch ur
– 201
▁ان ضم
▁196 4
▁re ally
▁ch ain
▁p ed
▁p ages
▁ح س
▁Islam ic
▁bott om
▁م بار
▁194 8
se y
▁ل و
ograph ical
c ient
▁" J
▁أ لف
▁خ ارج
▁m emorial
ي ون
e enth
an th
▁أف ضل
▁ch ampion
if ul
▁194 0
we g
j o
▁e gg
▁17 5
▁Wh at
20 19
▁Kore a
▁197 1
م يم
▁مت ر
ا هر
ص ار
▁Sing ap
in cess
يا س
▁town s
▁princip al
ell ,
▁Sw iss
▁col our
▁w atch
ict ed
▁K er
▁C am
▁G irl
▁sign al
- 200
خ ي
▁الإ نج
▁mom ent
▁achie ved
▁P it
ون ت
▁f olk
▁corn er
▁Reg ister
▁intro duction
in ian
▁m il
-A merican
▁heav ily
▁Ex press
in th
▁19 ,
sk y
r ant
▁ed ge
▁sh ared
▁acc ommod
▁S em
ou ri
▁ال ظ
▁L ow
▁3 0,
▁H y
▁s we
▁c ool
▁consist ed
▁U t
▁d at
ريق يا
▁الد ا
▁Col lection
▁profess or
▁be at
▁tre es
▁enem y
ag an
▁ear ned
▁ph ase
ُ و
▁L abor
ap pe
ur ric
▁so il
▁Ed inburgh
▁Israel i
لم ة
▁ا س
gh an
▁environment al
ط ار
▁re ign
▁s now
▁M oh
▁200 1,
▁well .
▁ت عد
▁main tained
in son
▁م يد
▁oper ate
▁194 3
و ست
▁2 3,
▁c ris
▁system ,
▁dr iver
▁Nether lands
▁وال ش
▁ي ک
un c
▁typ ical
▁Or thodox
▁C o.
▁H ans
▁pain ter
ing s.
▁associ ation
us hed
▁16 th
▁د رجة
رح لة
▁ex erc
▁al le
ي ج
8 2
ح ات
▁200 2,
▁look ing
ated .
▁200 5.
▁''I n
ap h
▁و بلغ
▁form al
in us
m ,
▁H art
▁g raph
▁م رت
▁ب ناء
▁B ou
▁sc ript
▁project s
ot ic
▁Rail road
um in
▁rest ored
▁الش ع
▁195 0
صب حت
an ia
▁poss ibly
▁period ,
▁un iform
▁Gall ery
▁it 's
▁S on
▁197 7
وق ف
▁ر م
▁caus ing
▁high way
▁7 5
▁( The
▁co -
st ream
▁there .
▁land s
ئي سي
▁ren ov
▁r ich
▁employ ed
▁B ase
▁att ached
▁J oe
▁ob tained
▁3 3
▁subst ant
ug by
n ,
▁Oper ation
▁أ صبح
▁parent s
m s
▁cy cl
if e,
i ón
▁techn ical
▁econom y
▁ف ع
iv ered
▁cont rolled
▁ت ل
▁S S
▁196 6
re al
▁R en
كن ى
▁C ensus
▁d ivers
s et
▁def ined
▁c rown
ant s,
▁qu ant
▁Illino is
▁م رد
inal s
▁M inn
▁5 th
und er
or f
ر ز
▁ي جب
▁comp ris
▁إ يط
ون ه
▁arch ae
ك ور
اف ت
▁kill ing
ra ine
▁ere ct
وك ب
w h
▁h yp
▁''' N
▁( 5
▁(1 5
▁desc ript
im ents
▁193 9
▁sol id
▁gun s
▁re action
ا غ
وج ود
▁f ly
▁ل يس
▁Profess or
▁Bro ther
و اد
▁administ rative
▁pro s
▁L i
▁ل بن
ح افظة
▁st y
▁م هم
b ec
▁adj acent
▁2 8,
▁Med al
el ve
ra ce
I V
▁reg iment
م ،
▁te le
k ing
l ers
▁anc est
- th
▁c rowd
▁O d
▁express ed
ش ن
in y
▁G .
ri f
▁قائ مة
el er
ني ف
ض ط
▁reg ion.
▁cont ained
▁inv asion
▁ش كل
▁T y
ot o
aval ry
se x
▁n or
▁''' T
▁do ing
ح ا
: 00
▁m ort
▁Gu ide
▁Washington ,
▁''' ج
▁ح الة
▁م وس
igen ous
▁l ov
b a
▁( as
▁situ ation
▁establish ment
▁اليم نية
▁altern ative
re ll
▁St aff
ag h
usal em
الت الي
جا ز
ِ ّ
▁N ob
▁h ors
▁''A n
▁(19 3
" ),
وم ة
▁An ne
▁Th ough
▁chall eng
▁im pl
▁O ak
▁194 1
▁الخ اصة
▁''' R
▁tri al
▁ex act
▁الرا ب
▁p up
▁st ories
▁cl imb
▁Man agement
▁fa ith
▁L eb
▁suc ceeded
▁cle an
▁وأ ن
▁comm emor
ful ly
▁لل ش
▁الن ها
▁پ س
▁Queens land
▁H amil
▁Sam uel
E D
▁الدول ي
▁colon ial
is er
▁ت رت
p ir
لي ين
▁b ed
▁ag g
▁2 6,
▁إ ذ
▁cap tain
▁vers ions
▁الح يو
▁R oss
▁Kar l
▁G ulf
▁R ena
▁Man chester
▁enc oura
▁St ory
▁الت أ
▁D a
نا ة
▁s ed
▁ت ك
▁H ard
▁الك ويكبات
▁ن ب
▁En ter
▁Jes us
اب قة
▁Sund ay
9 6
▁impro ved
▁والس كنى
▁مج ال
▁Dougl as
▁الإ د
▁op in
اف ي
▁f ear
▁ ed.
▁2 7,
▁incorpor ated
" ).
▁accom pan
l ar
▁cl oth
▁regard ed
▁aud ience
pr int
ز ن
▁observ ed
▁let ters
ث ار
▁مؤ س
or s.
▁ق انون
▁N ik
▁r ival
و يد
▁other s.
- of
▁co oper
▁'' "
▁med al
it ors
▁الن ظام
▁B ah
ang el
▁الر ح
▁impro ve
▁gen us
▁develop ing
ق ه
at ur
▁not es
▁''L a
▁execut ive
ct ic
U S
▁201 8.
▁لدي ها
▁abandon ed
▁D C
ille g
▁G ord
▁Christ mas
▁نها ية
▁drop ped
ک ی
وس يا
▁d oll
ent ially
▁Town ship
▁D omin
▁H un
▁gener ation
ائ لة
▁Ju an
▁der ived
▁H and
▁K el
▁commission ed
▁الأمريك يين
ق ص
▁own er
▁T rad
▁ثلا ث
5 ),
▁Def ense
▁D ig
▁Count ry
os is
ac u
▁Mal ays
▁rail road
▁pie ces
▁B erg
▁Er n
▁4 4
g ement
9 4
▁الم سا
▁Reg ional
) ''
▁adv ance
ad e,
▁c atal
▁bel ief
▁الك ثير
▁del ivered
▁bask etball
▁city ,
▁''' L
▁le aves
▁m ilit
▁جز ء
▁ref uge
جا ه
▁ch osen
▁N ar
▁س ال
y er
▁O reg
لي د
▁Pe ace
▁ش ار
d ate
ه ب
▁t aught
▁deg re
ol i
ج ار
▁t ell
▁c ert
▁short ly
▁regard ing
▁med ium
دم ات
▁t urb
it ud
ائ ق
ound s
▁4 8
▁ex pedition
▁clos ely
E .
▁friend s
▁work ,
ي ام
▁fre edom
▁b rick
ro it
▁ref ers
duc ing
▁person nel
▁city 's
▁m outh
ط لاق
▁pass ing
▁determ ined
▁France ,
▁con sequ
▁الإ س
r un
▁ف کر
▁import ance
▁D isc
▁sp ok
▁E c
i ations
k ,
▁السكان ية
اف ية
▁K l
ج راء
▁ب ص
▁ro w
▁bird s
▁f ine
am i
▁Aust ria
ويك ب
▁soft ware
us cript
▁Toront o
▁world 's
▁par allel
ارك ة
▁" h
cycloped ia
▁def end
▁أيض اً
▁Hot el
n ew
ated ,
▁t al
▁ع اد
het ic
▁acc ur
▁Lew is
▁إد ارة
▁thous ands
▁Met ropolitan
▁equ al
▁f ruit
را ع
▁reg ul
' .
▁Treat y
▁m ole
c ome
▁الن و
▁م خ
' ve
▁الت د
l ow
▁said ,
▁l at
▁entire ly
z z
▁paint ings
-year -old
▁St one
ruct ure
▁نظ ر
T S
ad ing
▁v o
▁تم ام
▁med ieval
▁196 3
▁mat hem
▁m ist
▁ ic
▁ت ي
▁G re
و ام
▁z one
▁go als
av ed
▁Ch ris
اري س
ا ،
▁h op
▁م را
▁passeng ers
▁ا ع
is f
-l ike
▁196 2
َّ ة
▁Pl ace
▁M ap
▁act ress
▁rul es
▁fin ish
▁M ike
▁prep ared
▁young er
ces s.
▁(al so
يف ية
▁eas ily
▁n av
وي ورك
تي جة
iv a
▁imm igr
6 2
▁الا سم
ير ل
ur ation
خ اص
▁F amily
▁arg ued
▁j ur
▁oppos ite
▁St r
-t o-
▁Street ,
▁ي س
ag a
▁F ried
▁v ary
▁تو في
ene z
an z
▁. مرجع
▁work .
-s c
نت ر
▁L iter
s ;
▁وع لى
▁Cro at
▁م شت
▁ت ست
▁tr uck
▁إ نتاج
▁T urn
▁cont ributed
▁d ates
▁ت قد
▁l iqu
p o
▁c ore
▁Pak istan
▁se ctor
▁arr ival
▁ف از
▁stri p
▁ ار
ak ers
▁stat ement
▁r ing
وض وع
▁fe ed
▁B urn
▁coast al
▁h unt
▁S ab
▁wood en
▁C atal
a un
▁N atural
rick et
l ife
ail ed
▁d ut
▁Wh it
▁king dom
▁ك يل
▁po em
▁D om
▁vol unte
ov ak
k h
▁- -
▁htt p
▁F ame
l as
enn is
▁م لك
▁En vironment
▁م واليد
om y
نا ث
A M
▁tw ice
it o
▁tr ust
p a
. )
▁1 20
▁class ical
b ar
▁الف ل
▁de pos
ord er
▁Jan e
▁Th ird
▁2 9,
▁bas eball
y st
w ise
▁st ret
▁م ف
enc ies
▁pl ate
▁الح ياة
▁الر وم
9 2
▁cerem on
▁method s
▁position s
▁attempt s
g ers
l ock
▁f il
on ian
▁my th
m osp
▁can c
▁ك ول
ي ح
▁Sw itzer
▁M and
▁Ch air
▁8 .
▁الف لك
cher s
▁كل ية
ح ن
▁lif e,
▁ف ن
▁history .
اع ر
▁she l
ض من
▁الم ُ
▁sup por
▁stat ue
▁و يم
▁Tay lor
▁W ing
▁act ual
▁affect ed
▁vess el
▁car rying
▁و يت
iter ran
يم قرا
▁Women 's
e qu
ر خ
▁v ir
j an
▁m orning
rag on
▁vis ible
وس ف
▁N ev
▁ع دم
▁ز ند
ان ة
▁pric e
ج ام
س ام
ant s.
b ra
uc cess
راض ي
ه ام
▁Singap ore
▁الب عض
▁trans form
▁independ ence
▁comb ination
▁great est
al o
▁م ال
r ating
ز ار
ou s,
l ad
▁engine ering
▁leg end
▁land ing
▁In s
▁lab el
▁Af ghan
ask a
ag le
▁Hind u
▁exam ples
▁Jer usalem
▁م خت
▁s ort
▁ illeg
or ter
▁'' s
com /
▁se ems
ون ة
▁b an
▁Prot est
▁som ew
▁per haps
m ith
um es
▁Sc iences
▁t rying
▁che ck
▁weap on
ost er
▁re act
▁الخ اص
غ ال
▁In formation
▁res emb
▁Br un
é s
▁B omb
▁sy nt
▁te aching
▁B rand
▁return ing
▁Ab d
▁support ing
▁sc ale
▁cell s
▁I l
it i
ur ance
▁perform ing
e ''
▁vis ual
as hed
▁Am b
▁esc ape
▁D ictionary
▁W at
iv er,
▁N C
▁K r
▁M unicip
▁subs id
▁ vert
▁الد فاع
▁tit led
▁w ave
▁relig ion
▁recogn ition
▁ط بي
res s,
we alth
▁inf antry
w estern
▁R id
▁g ain
▁her self
▁ É
▁dev ice
ann a
or i
▁death ,
▁stand ing
ap ol
▁ult imately
▁الف ر
▁sw im
▁J ord
▁b udget
▁خ اصة
ق بل
▁b ond
▁los ing
▁ك تب
▁195 8
▁f ram
m ore
▁W olf
▁rank ed
6 3
- I
▁successful ly
▁bro wn
▁ق ا
an es
▁196 1
▁compos ition
▁Mor ris
▁im ages
m at
▁produc er
▁195 6
▁الإسلام ية
▁Pu erto
▁و حدة
▁الف ن
لف زي
é t
▁produc ing
is e,
▁D own
ائ د
اد يم
▁H it
▁H ug
▁ ign
em an
▁ر قم
▁le ct
▁under t
– 4
▁plann ing
خ راج
ro v
▁ا شت
▁hold s
▁Offic ial
▁Ter rit
▁ك ري
ac hel
▁ob tain
ان .
▁ثلا ثة
ot ype
5, 000
▁did n't
▁16 0
os lav
وا ية
▁191 8
▁س ل
ol ars
▁On ce
as y
▁liter ary
▁rem ark
▁a thlet
▁194 6
re tt
▁s ell
▁do ctor
▁resist ance
▁tri p
با ً
▁Haw ai
▁engine er
ill er
▁م كتب
َّ ار
▁prog ress
▁rese ar
ie ge
▁dep end
▁weap ons
▁spec ifically
▁Swed en
▁کرد ه
آ ن
ond er
▁cor rect
▁f rag
ك مة
▁w inner
▁some one
▁F I
▁الا قتصاد
▁Up per
سم ى
▁l y
▁Kh an
▁sem i-
▁بال ق
▁الس نة
▁Engine ering
ج يل
les s,
▁newsp ap
وف ر
▁وز ارة
▁is ol
ت وان
▁م ض
ins ula
are n
▁سكان ه
▁D aily
ئ ا
▁ret ire
▁10 .
كت ور
id el
▁" K
▁al ter
▁لل ن
v o
▁consist ing
▁I ron
▁Anton io
▁s on,
▁L ang
ف ظ
▁prem i
▁war .
▁P age
▁الأم ير
▁death .
ist a
C h
▁B eng
هم ،
▁oper ates
ز مة
▁p ione
وار د
▁ي ج
▁K ansas
▁ز وج
▁وال ستون
▁w orth
▁circ um
▁educ ational
▁بدأ ت
▁ra cing
▁الح ق
▁Cro wn
▁high -
▁del ay
▁occ urs
- O
▁Dav is
▁c ook
iv ated
▁op p
▁rel ief
iv es,
▁go es
▁People 's
▁v ocal
▁أ ج
▁A ud
▁پ یش
our ney
st e
▁F arm
▁beg ins
▁sol o
ون غ
▁Mot or
ol ph
خ ابات
▁M ission
o oth
- and
▁Pl ant
▁F a
▁se lect
et .
▁و فا
چ ه
▁rul ed
با س
▁part ies
ath an
v ard
▁v oc
▁K im
h ou
R .
▁Mount ains
ik a
▁sett ing
▁c ode
▁ک م
▁president ial
ant on
▁resident ial
- on
▁rece iving
▁وا س
▁sh ift
int on
▁alle ged
▁ord ers
▁repe ated
r ates
ival ent
ط لب
ro c
▁''' H
ع مل
htm l
7 4
▁Alf red
▁البل اد
▁in aug
▁d ies
▁P ed
▁D ick
▁advant age
c oh
▁م عد
▁( see
▁مم ثل
▁over l
' ll
▁5 5
P .
▁194 7
▁kn ew
▁Com ple
▁Minn es
▁( ),
▁d ated
▁Miss iss
ad ow
R C
▁Den mark
▁Pr im
▁f ighter
▁ap art
▁199 9,
▁result ,
r in
8 8
v ille,
▁''' G
▁mon aster
ult an
▁( '''
9 3
▁publ isher
h ard
خ ة
▁بر نامج
▁behav ior
▁cap able
ri ent
▁Sim on
▁A riz
▁dep th
▁extrem ely
▁ش رق
▁A er
6 1
▁ass ault
▁City ,
m es
▁م لا
▁dam aged
▁6 4
▁''' 19
غي ير
▁m and
▁د ُو
▁$ 1
p art
▁S in
▁need s
– 5
▁equip ped
▁T en
▁P ow
▁gu est
▁eng aged
▁vill ages
▁Ch annel
▁t ry
el and
▁دُو َّار
▁b es
▁Sil ver
▁F und
▁ag ent
▁c rop
rom e
ام ت
▁f an
هد ف
▁stri ke
▁الحدي ث
▁ey es
weg ian
▁و سط
▁se lection
or ial
▁st ood
ant ic
▁ی ا
▁bro ken
▁R eb
▁R ang
▁fem al
▁elect ronic
- the
▁J am
able ,
▁inj ur
▁م كان
▁co ord
▁resour ces
▁m ir
ain ts
▁sched uled
▁الأ طفال
▁R AF
o es
▁L is
▁K ey
▁fail ure
▁F ac
ال ف
▁''' F
▁stand s
st ate
angu age
idd en
م ت
▁W y
ic it
oc ese
▁Naz i
▁l es
▁للإ حصاء
bor ough
ه‌ های
▁195 2
r ator
▁الس لط
▁le ar
▁Tenn es
سل حة
▁art illery
ع ار
▁inter pret
o om
▁D yn
▁protect ed
▁Re al
ym n
▁Med ia
▁class es
▁الم ك
▁a ctions
▁W rit
'' ).
▁well -
▁K at
را في
o a
▁w aters
▁أن واع
▁comp ut
▁br ig
▁her .
▁ar ts
ج ان
ically ,
▁Med iterran
▁pri est
es ign
ول ى
▁ظ هر
▁الع ثم
o en
▁6 th
▁expl os
▁p ray
▁c raft
لا يا
ز وج
▁L anc
▁Gl obal
▁وال ف
U n
▁ent itled
▁195 9
▁Con nect
يت ي
▁وه ذا
▁trans ition
▁گ رفت
▁ال لي
ام لة
▁Aust rian
l ah
https ://
▁sur re
- ter
▁ب لا
▁S af
se ,
▁Colon el
▁partn ership
uck y
▁م ث
▁ev olution
▁eng ines
▁arrest ed
9 1
▁Uk rain
▁Championship s
ما ع
ار نة
▁t ick
▁foc used
▁الأ رد
p son
▁ass emb
▁ب اب
▁t ur
▁D ur
▁under stand
▁T ower
مد ينة
▁h ang
▁b it
▁Ph ys
▁purch ase
▁ج ي
ist s,
m un
▁period .
▁How ard
لم ان
ًا ،
▁In ternet
▁هی چ
▁k ick
▁thous and
▁وك ذلك
▁الص غير
▁land scape
▁R ights
▁س ين
v ious
▁transl ated
ig ation
▁un us
▁الأ سا
▁mod ified
▁الم در
▁V I
▁neg ative
▁A F
س يا
ith uan
▁بد ور
▁ rom
ص ال
▁comm ittee
he astern
E N
▁M it
▁neigh bour
▁world ,
op ol
hib ition
▁world wide
f are
▁W inter
able .
▁آن ‌ها
▁R a
▁Miss ouri
ش ل
ag g
▁government .
▁Common wealth
▁M aur
▁ح كم
▁B an
▁Ch amp
▁describ es
ند ن
▁b ra
▁ي ل
t ra
▁Jos é
▁m el
▁end ing
▁C ru
▁الق ص
L A
▁Pr uss
ot he
▁193 0
▁ra ces
ش ان
▁act ing
ie ce
▁celeb rated
▁pal ace
▁Ar k
- V
▁ت خ
▁ح رف
at es,
▁rel ative
ر ى
▁ro utes
▁st amp
لس لة
▁R and
▁Hamil ton
▁Can al
▁191 4
برا هيم
▁الم يل
▁S ri
▁A M
▁المنا طق
▁significant ly
حد اث
O C
▁a head
p x
▁Olymp ics
d in
▁وال ق
é n
▁2000 .
▁7 th
▁Europe ,
own ed
▁( e.
▁195 7
ric ts
▁Ch ile
- off
▁B uck
i er,
ج رة
غ ا
isc ons
▁n ick
▁sever e
ه تم
▁ن س
ار ا
▁المس لم
▁track s
▁ل ش
ann ed
▁Hung arian
▁water .
▁لد ى
▁s olution
▁. .
▁ع ادة
▁manufact uring
رش يف
سر ح
▁d ating
▁Pet ers
ak i
▁Mc G
▁d owntown
▁Det roit
▁pat ron
▁to mb
عت قد
▁M ach
▁Pat rick
▁l it
▁f urn
ولوج يا
▁st ores
ود .
▁الم ط
t ime
k es
▁a ware
▁y ard
▁''A r
▁4 2
▁gr ass
um ,
▁س ف
▁conclud ed
ير ية
▁ent ertain
▁experien ced
k ey
▁Col omb
V D
▁A C
▁C ost
▁caus es
▁ret ail
ell ite
y o
▁الج هاز
حد ات
▁L iver
ce ived
▁F il
▁fix ed
▁Pri x
▁A le
▁mid -19
▁b ran
في ذ
▁Reg ion
▁w ine
▁R oy
▁re pro
S P
▁M ong
▁do ct
▁II ,
▁cour s
▁S el
▁ch oice
▁rec onst
▁P ur
▁r ivers
▁ز ی
▁194 9
▁island s
u j
▁desc end
▁د ولة
▁ح يات
▁خ اص
▁rest rict
▁prom ote
▁الث لا
pos s
برا ط
▁p ool
ities .
ob e
▁accompan ied
▁P ict
ol id
▁England ,
▁: :
▁15 th
▁'' )
ar c
▁Mississ ipp
h ab
▁col lected
▁W he
▁د خل
▁Ed ition
▁bene fit
n old
▁199 8,
▁N i
▁ext ension
▁ ـ
▁جم هورية
▁ann iversary
▁O ur
▁increasing ly
▁الم علومات
▁series ,
▁withd raw
ع ين
▁Stev e
ص وص
m m
u i
▁غ ر
▁195 5
ard o
▁G ab
▁الأ مر
▁f illed
ئ ات
▁writ e
▁Belg ium
▁In n
c ies
▁(in cluding
▁cy cle
▁act s
https ://www.
▁'' (
oy d
7 9
▁By z
▁fav our
b ach
▁at mosp
▁س يا
تم ر
▁main ten
▁Hol lywood
▁P a
p en
ح مد
▁V ice
▁Un it
▁famil y.
▁register ed
- ch
▁می‌ گ
▁dyn asty
▁be ar
▁لل ق
è re
▁ren ew
▁mount ed
▁cross ing
▁m ent
▁B ush
▁s ale
▁ ur
▁195 4
▁found ation
▁201 9.
▁port rait
▁ك ت
▁س ان
E T
p oint
▁organiz ations
i ac
▁found ing
▁capt ure
- class
▁b rain
od ge
ord s
▁loc ations
▁و صل
▁Res erve
▁F inal
▁conc rete
pr ise
▁ح رب
▁الجز ء
▁ف ريق
▁ن ف
▁T el
▁tro op
▁vol .
▁ز م
ch ing
▁init i
▁re aching
▁Batt alion
B I
▁17 0
▁design s
▁set s
▁f ashion
▁f ired
ل و
ی ک
▁be ach
▁G ran
س يم
e or
▁cerem ony
▁consider able
▁E le
▁indic ate
▁Feder ation
▁تسم ية
▁out put
▁opportun ity
go ing
▁c overs
▁9 .
▁F ighter
▁d ensity
ot hes
▁bod ies
ec ution
▁sett le
▁الإ ن
▁B eg
▁Tra il
ities ,
▁Nor wegian
▁t ram
▁so le
▁Mel bourne
▁separ ated
▁rough ly
we ight
▁F ern
– 3
▁S ound
▁gr ant
ic ut
u .
وم ي
▁Law rence
▁cr ime
▁min ut
▁appro pri
▁Commun ist
▁Philipp ines
▁civil ian
▁D NA
▁langu ages
▁D anish
t ure
in 's
▁p hen
▁man uscript
▁Hon or
b ell
abl ed
▁May or
▁ي عيش
▁ex pos
▁fund ing
▁fact or
▁cons ult
/ 201
ط ن
▁ro se
▁ا ف
ط اق
ran k
▁surround ed
لك تر
oc a
▁t ropical
▁R oll
▁we ak
▁ret rieved
▁dem olished
ط ية
▁يق وم
y ard
▁النس اء
▁أ قل
en burg
▁Nap ole
▁elect ron
D F
▁oper ational
▁oper a
b ox
▁dr iving
لا عب
▁Child ren
ro ke
▁transl ation
▁ب ان
ی ا
▁kil omet
▁الع ق
▁m ine
▁S port
▁st ating
▁comp onent
▁b ass
▁popul ation.
كن ية
che s,
▁pro ced
▁six th
7 6
ig g
▁h am
b rid
▁look ed
▁election s
▁مو سم
بر ى
at ically
▁pass es
▁B art
▁l ap
▁ص دا
▁Color ado
▁d rawn
▁P C
D A
▁Fl ore
▁ide as
H L
▁S ign
▁them e
▁R est
oc c
▁L as
▁غ رب
▁inv ited
▁الس ود
▁سط ح
▁M ans
▁prote in
▁ف أ
يل ات
▁P ear
▁Cent ury
▁R ose
با ح
▁stop ped
د ت
▁merg ed
نا ئ
▁may or
▁Cult ure
▁bu y
udd en
▁candid ate
▁ut il
▁N ort
▁Tod ay
ه و
ia 's
▁تم ت
▁Fl ight
▁''' (
▁F al
▁" g
▁13 th
▁view s
▁ens ure
▁inj ured
ك ليزية
▁R ic
ما ية
▁Mary land
▁Soc iet
▁ب س
▁public ation
ت را
▁qu ar
▁قر ار
▁v oted
▁Com b
▁S ax
نا عة
▁htt ps
▁وال ج
▁crim inal
▁H ere
▁سب يل
▁Met ro
▁T a
ry .
ًا .
▁Mark et
Q u
▁و ين
▁الش م
يد ر
▁المج تمع
ph one
olog y.
▁w itness
▁Mediterran ean
as ure
▁W iscons
l ay
▁Anth ony
▁Pier re
al y
▁Aff airs
▁الفرن سي
▁وال ص
▁ل ك
▁b ishop
▁tw elve
▁chair man
▁her itage
▁visit ors
▁195 3
▁f aced
he red
▁A S
▁B ible
▁ex port
▁L ib
▁195 1
▁suggest s
▁T .
▁cas ual
ث ق
▁pl ot
اد ات
ig e
▁الجم هورية
▁Se e
▁town .
og le
▁sle ep
▁M ember
▁f oss
▁C ook
at .
ö r
▁الف يلم
▁mechan ism
ra ge
ك ية
▁min ing
▁inv ent
▁ast ron
▁H op
▁M icro
▁y ards
▁str uck
▁L am
▁differ ence
8 7
▁Orig in
▁architect ural
▁suff icient
▁in her
▁g etting
▁V enez
▁200 3.
ant .
▁ول ی
▁Lab our
▁ag ed
as s,
▁الأ غ
▁193 6
▁gro wn
▁field s
8 6
▁t act
▁good s
▁12 th
▁He art
▁ !
bre ak
ر ه
ون ،
▁link ed
▁t on
▁fr ame
▁L ocal
▁من هم
p read
▁B ird
▁الس ابق
ور غ
▁L og
0 )
▁الم جلس
را ث
▁call s
▁Up on
▁d ress
▁de leg
h ai
▁D eb
▁h uge
▁An cient
▁ج ورج
▁bene f
▁inn ov
▁E nt
ol es
▁Prem ier
▁Turk ey
le ts
J .
▁الإ سب
w all
▁الق ب
▁الأس رة
▁Ex ecut
▁tra ined
▁ne ut
▁instit utions
▁بد ون
ro d
▁Bow l
ic ate
ro ve
▁إسب انيا
▁N FL
▁lear ning
▁history ,
hel m
▁g ear
n ight
▁ني ويورك
▁se ctions
▁لمد ة
▁Administ ration
▁Sh ah
▁cont ext
t hen
▁term inal
▁circ uit
▁occ as
▁can n
▁s am
▁Hou ston
▁H om
▁met res
▁ب ف
▁H ell
f e
▁trans mission
ف ية
ather ine
ar .
▁ter ror
▁The n
ter y
▁Serv ices
▁exist ence
▁s ave
▁V in
D P
▁respectively .
اد ية
▁191 7
c rib
▁famil y,
▁rem ember
▁All ied
▁inf rast
▁بج ماعة
ی ه
ري بة
▁fund s
▁S ac
u ous
▁الفل سط
act ive
í n
▁إ ل
ی ل
▁en h
▁Y ug
ke ep
▁sh ore
▁dis appe
▁not ably
وع ات
ؤ ول
f eld
ز و
▁B ack
▁represent ing
al u
▁س لط
▁c aught
▁Oreg on
▁E ric
▁M es
el ine
▁Sc ient
لي ب
▁3 1,
▁انضم ام
▁T ony
z er
ust er
▁state .
▁A thlet
ar o
ak ed
▁road s
▁''L e
▁L ud
▁lead s
▁rep ut
ad i
▁mot ion
▁196 0s
▁And re
▁any thing
▁aff ili
▁Ukrain ian
el lect
▁rec re
ه ات
clus ion
▁F inn
▁s iz
▁offic es
▁centur ies
▁Pers ian
ig ious
▁R un
▁Switzer land
ic ien
▁tem porary
▁pow ers
▁All en
▁العل وم
ra cy
▁ed ited
▁و ظ
▁Econom ic
▁المص ري
▁later .
▁(بال إن
ens ions
▁الآ خر
ch ,
am ,
iv es.
ch ang
/ 19
▁من صب
▁L ower
▁is ,
ما ً
▁St ew
▁German y,
▁Ag ricult
▁fem ales
▁wor ship
▁''' J
اض ي
ولا ية
▁بود ،
▁Die go
▁ه ول
urric ane
7 2
▁exc av
▁w ays
▁14 th
▁Mad rid
▁بد اية
▁inst ruction
▁stor age
▁C re
c ious
▁Sy m
▁199 7,
ob b
▁را ه
ides pread
▁ي حت
ic he
نا ئية
▁K u
▁im ag
عد د
▁T ib
▁Pr incess
▁hom es
an ian
▁k it
▁C are
▁الر ئيسي
▁B ry
▁it ems
▁except ion
ري دة
▁De ath
▁Egypt ian
▁الط اقة
▁inhabit ants
▁spirit ual
▁Al i
▁H ud
▁G oth
pect ed
▁place .
'' :
▁pro ceed
▁الجز يرة
▁جان ب
▁compos er
▁با ید
▁line .
▁ass umed
▁200 1.
▁En ergy
▁أف ريقيا
▁ي ا
▁reject ed
ian ts
▁Liber al
ran g
▁t unnel
▁cl ock
▁انت خب
هد اف
▁nort heast
▁الك ه
▁dep ending
p ur
▁rep air
▁acc used
▁197 0s
▁ad ap
ect or
▁C rit
▁ch ose
▁not e
▁N ick
▁reb uilt
▁D ubl
▁th ing
▁الد يمقرا
▁Uk raine
▁ص د
▁ک نم
▁و ان
▁t ill
▁pict ure
st an
b urn
ب ان
▁Kn ight
▁6 00
▁meas ures
▁s alt
▁c .
ish ment
▁الت م
▁193 8
لي ج
▁b ronze
▁f ans
▁الف رد
ic ide
▁Sur vey
▁spec im
▁Bas eball
▁1 000
▁great ly
▁al coh
▁poss ess
اط ر
▁detail s
▁ground s
ض ح
▁F ather
▁الم رض
▁پ ر
▁requ ires
e 's
ل اب
▁ن یست
▁car ri
▁respons ibility
▁D iv
▁j un
4 2
▁O w
▁opt ion
▁g ather
▁Cult ural
▁L l
▁الأ لعاب
▁areas .
▁se ats
i op
▁s ight
▁ام ر
ab ric
▁ ×
▁erect ed
S R
▁w ire
▁Par is,
▁comm itted
os m
4 1
▁N .
▁L ock
▁Tra ining
7 1
▁L ive
▁Ag ency
▁F ive
▁sp r
i est
▁read ing
▁tour ist
▁Liver pool
▁ع ق
▁وز ير
▁C it
▁الي ون
خص ص
▁ret ained
▁P as
▁end s
▁B rian
ch t
▁N ag
▁F act
▁ح ركة
▁C hem
▁commun ication
▁Compan y,
▁to ol
O M
7 3
▁الأع مال
▁Nor man
▁S ud
ar th
a ctions
▁C ra
▁proper ties
▁object s
▁Work s
g or
▁La ure
▁B ed
▁المغ رب
▁own ership
▁مد رسة
▁chap el
▁tim es,
فا قية
level and
▁س عود
▁cl in
em en
▁pro port
ces s,
l ie
▁Sen ator
▁Americ a,
▁الب يان
▁ي عتبر
▁al leg
شت ه
ow a
▁chur ches
▁surv iving
▁ex ternal
st ad
▁ا ي
▁school ,
ما س
ist ical
▁mar ine
▁الم ب
▁w ife,
▁German s
▁الر س
▁Budd hist
ot te
▁Ad miral
▁On line
▁خ م
▁father ,
▁equ ivalent
is d
▁Europe .
▁char ged
▁م با
▁per fect
▁H unt
▁game ,
o j
ent .
▁ •
▁Tr ump
▁pan el
ass ador
▁Hill s
ق اء
▁He b
▁f ishing
▁C emetery
▁st ars
res ents
▁Minnes ota
▁أ صبحت
▁mat ches
▁Ph ill
▁H av
og y
ific ations
عل ق
-y ard
ass y
▁north west
▁m obile
m und
▁rec ip
up t
▁re nt
▁att ributed
▁مح م
mer ce
ها ء
ay an
▁sur f
▁impro v
id ay
▁Con vention
ا .
▁f ranch
▁R ow
▁ع قد
▁'' ''
▁Tr ade
▁الراب عة
p at
▁hel ic
▁أف راد
▁ش ريك
▁cal c
▁sup erv
▁sup posed
▁Fle et
▁liqu id
ه رة
▁R ace
▁الج ام
▁learn ed
▁''A l
▁4 1
▁''H ist
▁call ing
re ck
▁se ed
f ish
▁Ok lah
▁الس وفي
▁أش هر
▁c m
▁الشمال ية
▁w idespread
▁e at
s er
▁th row
▁m ob
che ll
▁Independ ent
mar ine
▁''' E
▁art istic
ell o
▁النبات ات
▁بال ل
ed ia
▁b rid
ط بي
▁L uther
▁200 2.
▁F ood
▁R io
▁sh ut
▁mon arch
. H
▁3 9
▁grad ually
▁ك ات
▁Bern ard
▁viol ence
▁chap ter
▁ن قل
▁mass ive
▁c od
▁p over
▁Tennes see
ا خ
▁L ithuan
ع اد
▁R ey
▁الس ف
oc he
w ig
▁حق وق
▁Wh o
▁مست وى
▁em ot
▁می‌ د
▁المرك زي
ater n
▁proper t
▁C at
og ether
int end
▁ch amber
▁somew hat
a )
▁cr ash
▁L ast
▁ح سن
us es
▁val u
وي ات
▁Comm ander
b ishop
▁ °
ب و
يم يا
▁G ram
apt ist
▁12 .
▁Air lines
um ph
▁seem ed
▁head ed
▁Av iation
▁الص ف
▁And erson
▁ل ندن
▁ت تم
g ow
▁categ ory
▁sub urb
▁w et
▁dest ruction
▁re nd
▁enc ounter
▁ك ويكب
▁big gest
▁offer ing
▁g ate
ic s.
▁ا ی
▁س انت
▁Matt hew
▁M ethod
▁co ff
in ction
h us
ew ay
ran e
▁T it
▁چ ون
ently ,
▁. ''
▁Hung ary
▁Gl as
▁الح كم
▁Marg aret
▁represent ative
d i
-d ate
▁sch olars
▁c ited
▁Gord on
▁form ing
▁surv ived
▁Connect icut
▁د وري
▁ح دي
▁P y
- re
▁N on
▁می‌ ش
▁r it
▁determ ine
▁لم حافظة
اني .
and o
▁'' Y
▁ف ال
▁إس رائيل
▁199 6,
▁لل ج
▁surv iv
▁v ast
▁Venez uel
▁can cer
▁الك وكب
▁performan ces
▁193 7
-ter m
▁ا ش
ع مال
▁rep resents
▁أ هل
▁ن ور
▁Leb an
▁ident ity
▁iss u
▁on es
▁ک ش
▁v eter
if er
ind ing
k .
▁خی لی
▁(1 6
▁B ull
▁v ice
▁الن ف
▁M oon
▁print ed
▁Oper a
ter ior
▁beg un
ه ار
▁Ph ot
وسي قى
▁خ وش
▁emerg ency
b ridge
▁199 9.
es ''
l ass
▁An na
▁198 0s
at us
▁الم رت
▁Mod el
▁dism iss
ور ات
▁children .
%D9% 84
rel ated
▁hundred s
is ition
▁Mex ic
▁الك ثافة
▁vot es
▁m o
▁ك ندا
8 9
v ant
▁Co oper
▁res erve
h ,
▁10 th
▁Author ity
▁class ified
▁Indian a
▁Balt im
و خ
er ts
▁ع ين
▁1 :
▁ly ric
▁الس ي
▁preserv ed
▁ل ص
▁Don ald
c i
▁M em
▁document ary
▁regular ly
▁الم وج
▁ي كن
ot ton
ont in
▁s elling
▁de ck
يد ات
c ular
ض ية
out s
▁H amp
h att
ق دم
▁مس ير
D S
▁الك ويت
▁sol ar
▁K ings
▁un f
el ess
▁د وار
ot an
▁ind igenous
▁Const ruction
▁أم ام
est one
in a,
▁part ner
ر وي
it ime
▁الم ث
▁پ ی
▁the rm
▁أع لى
▁الأ من
n ik
▁س ك
▁الغ ربية
▁ق وات
▁Vi enna
eg a
▁inc om
▁V ik
▁يع مل
▁v ide
▁ج ا
▁Mov ement
▁الدا خل
irm ingham
▁Vill age
▁ي ف
or ia
▁the ater
▁192 9
▁'' c
▁pre ced
▁cover ing
▁''' W
ac re
يت ه
▁Ap p
▁Pat ri
▁ey e
▁الب ن
▁C amer
▁Mon te
▁K az
▁D .C.
▁E very
▁techniqu es
▁game .
ament al
▁gr ade
▁v ic
▁r ates
▁الع ليا
▁الح كوم
▁ع هد
▁s ter
a ire
▁adv oc
a fter
▁المص رية
▁قام ت
▁l as
▁tim ber
er ted
▁1 ,000
▁4 3
▁e .
ri x
▁B urg
▁pl us
▁Mar ie
▁Yug oslav
▁مع ل
▁draw ing
▁C leveland
▁fl o
▁ri f
▁express ion
ab il
▁Pri or
▁M iam
▁الب شر
▁service .
▁العسك رية
▁و يل
▁الق اهرة
▁S n
▁M aj
▁Cur rent
A l
و ،
▁w orn
▁ف ا
▁ط رف
▁read y
▁ي لي
4 6
▁aut h
ت ا
an ch
▁in ner
ate ur
▁ر أس
▁ل ذلك
▁under standing
4 3
A L
-1 5
▁f itted
ts burgh
▁N el
▁ind icated
▁res ign
pr ison
▁Ariz ona
▁ا ب
▁School ,
▁N ever
▁'' m
ج ين
▁hand ,
▁pat ient
▁جم ع
▁h ired
▁cost s
▁8 th
▁Park ,
▁L in
▁form ally
▁build ing,
▁government ,
▁ass ass
▁Execut ive
▁فل سط
▁street s
▁Frank lin
or ney
▁Re form
▁min imum
▁achie ve
r us
▁Kenn edy
▁ra ise
▁Har vard
▁درا سة
▁Church ,
▁الجنوب ية
pect ive
▁sk in
▁bound ary
ant in
▁south west
▁con secut
▁Al an
▁ام ت
▁مج لة
▁إ حصاء
over e
▁Mer c
▁N ord
▁4 9
ol o
▁193 3
▁int elligence
▁ann ually
وض ع
▁F el
▁R ud
▁ad vent
▁P il
is che
▁M aced
▁ان د
▁pl ane
▁ج ام
▁use ful
▁A T
▁under ground
▁L yn
▁" l
▁ل من
▁م حد
▁الأمريك ي
▁v ision
ند ه
8 1
▁invol ving
ö n
ast e
▁music ian
un ch
▁o w
ar l
am s
▁arran ged
▁in sect
▁A y
▁ن گاه
▁tim es.
▁bus ines
oe ing
▁Stand ard
▁occup ation
قت ل
4 9
▁tit les
▁gradu ated
▁M ond
▁Christ opher
▁ي ستخدم
▁other wise
▁dis pl
▁إ براهيم
▁p or
ul es
▁Ch ron
at es.
▁Ch amber
▁mult i-
▁چ ند
▁إيط اليا
▁H orn
s burg
▁s udden
▁G a
▁Wel sh
▁w rest
iss ions
oc ol
▁Re f
▁Jun ior
▁Comm unic
▁s outheast
▁له ذا
▁countri es.
ط ان
▁E U
▁pr ime
▁A R
u y
▁strong ly
▁D all
▁char ter
il st
▁m art
▁elect rical
▁أ ُ
▁His pan
- 20
▁الي هود
▁العائل ات
▁B ruce
▁d uty
ear s
▁193 5
▁L ate
▁آ قا
▁effect ively
▁hon our
▁أ ند
▁bring ing
▁Gr ant
▁P av
▁Def ence
▁Cont rol
▁f al
▁again .
▁Elect ric
▁ ؛
▁name .
▁199 5,
oc racy
▁country ,
on c
▁St ra
▁نفس ه
▁add ing
▁د ائ
at ics
' d
▁Rog er
a ired
n i
▁وال خ
▁"I n
▁res olution
▁cop per
j amin
ك ات
▁ro les
▁art icles
▁scen es
▁ك ي
▁W W
▁S ultan
ا كم
▁ر سم
b us
▁million .
ak e,
en berg
سا عد
▁album ,
iv als
-1 2
qu arter
▁rat io
▁invest ment
▁E ver
▁V iew
▁accom pl
-d e
er ''
▁191 0
عل ن
▁norm ally
▁brief ly
▁cris is
▁n eck
ه ير
▁ك ذلك
▁الا كتشاف
▁F rid
▁مختلف ة
▁dist ricts
▁M ean
▁cred it
8 3
▁T erm
▁const ant
▁G az
▁Budd h
▁character istic
▁الع زيز
http ://
▁مع هم
▁ك ثير
اع ات
▁الو صول
عا ية
▁Al ab
▁im perial
▁الأول م
▁Addition ally,
▁J ay
▁doc uments
▁س با
▁College ,
▁children ,
▁met ers
▁من ظمة
▁jud ge
ew here
▁Tai wan
▁Wiscons in
▁E qu
▁journal ist
▁11 th
c ott
os ph
▁k id
▁name ,
▁sculpt ure
e as
▁dist ributed
P )
▁p ip
▁England .
وس ية
▁adop t
ill ,
ric e
b b
u is
▁Abb ey
▁decl ine
▁U nt
▁الق رية
▁deploy ed
ri ff
▁الج غ
▁K y
▁C ow
▁جديد ة
ach t
▁off ensive
▁assist ant
▁W right
▁ح زام
▁brother s
nes s,
claim ed
▁Protest ant
▁propos al
▁where as
▁p iano
▁M ess
▁9 th
ne x
iv ate
▁Que bec
▁( 6
▁" V
▁differ ences
▁temper atures
▁Or chestra
che s.
▁الم شت
▁For mer
all ,
▁الك برى
▁build ing.
▁B eck
re hens
ic ians
res s.
oun ced
▁c yl
▁dec ade
ست اذ
▁Un like
▁m urd
▁الم اء
▁الن وع
▁var iant
▁hor iz
▁cont roll
▁rest oration
▁aspect s
▁dr iven
ش ا
▁o cean
» .
ig a
▁members hip
▁M i
▁school .
▁c atch
اب ه
▁G ib
▁S uch
▁عام ة
▁Portug al
▁F riend
▁Te levision
S C
▁س لسلة
▁م وج
▁Mor gan
▁Mississipp i
▁25 0
▁199 4,
▁الت اس
▁Leg isl
▁influ ential
▁القد يمة
ف يل
▁ج دا
▁P ad
▁R ub
▁room s
che st
-C h
▁Sat ur
▁display ed
▁الفلك ي
'' ;
▁الم ثال
▁S che
▁تن ظيم
▁الك بير
▁s end
▁أستر اليا
▁B irmingham
▁earth qu
▁وال ك
▁plan et
▁1 1.
▁re ality
▁club s
▁nomin ated
▁Ex per
▁Stew art
▁B enn
▁w rong
▁" م
جم هورية
▁p y
وائ ل
▁G ener
ail and
aw are
ين يا
''' ،
▁192 2
▁ش ع
▁t ells
▁Do ctor
▁touch down
ot ten
um a
▁there ,
▁( ب
ک ار
▁N orm
▁ات حاد
▁critic ized
▁الفرن سية
▁( ,
▁re ct
▁te ach
ي ق
ک ت
▁منها :
▁16 5
l ack
ود ي
▁Mc K
A n
▁l oyal
▁concent ration
▁consecut ive
ellect ual
غ ان
▁ch ance
▁C all
یم .
▁ب رد
en 's
▁الجز ائر
z o
▁pers ons
▁Satur day
براط ورية
د اء
▁المؤ س
▁part ly
ou ver
ات ي
▁G un
▁چیز ی
▁Rober ts
▁a u
▁y ield
▁im prison
are st
▁E ug
▁P ont
▁mechan ical
min ister
▁ج يم
▁Americ a.
▁$ 3
▁p itch
sh op
▁compan y,
▁A round
ov ić
▁manufact ured
l ington
▁integ rated
▁ن هر
▁mainten ance
▁critic ism
ذ ار
▁ id
▁up d
▁بال ا
▁193 4
▁م رجع
▁191 2
ak s
ces ter
▁n est
olog ies
ap es
▁sw itch
▁با ستخدام
▁ط ور
▁R abb
ster dam
▁الج امعة
leg raph
▁''' ك
▁(2 000
▁s ons
▁المر أة
▁rapid ly
▁prom pt
ش ارة
▁K am
▁الا خت
▁investig ation
or ic
▁s id
ile y
▁film ,
ك د
▁dial ect
▁Mo ore
يد ا
▁last ed
▁detail ed
▁def ensive
▁b at
m ore,
▁Mc D
▁pat rol
▁F C
▁substant ial
ط يع
m ont
حت ى
▁In vest
▁الجديد ة
in s,
▁s oul
h aus
rib ute
▁الح ل
? "
▁N a
os .
▁sh r
ع ام
▁fact ors
▁بالن سبة
▁Mill er
▁stand ards
▁بح ث
▁nick n
▁Ex t
ور م
ie g
▁prison ers
▁ش ا
▁Stan ley
▁val ues
▁B es
▁Ag ain
▁pl ain
▁5 2
▁eas y
ford ,
▁up grad
▁fun ctions
▁adap ted
▁آ مد
▁Fran ces
▁pat ients
our ce
ير ات
▁عز لة
ص لاح
▁م ب
ar on
▁war m
B M
▁n om
▁dec ades
▁T un
▁199 2,
ذه ب
▁With in
▁ass ess
▁own ers
▁don ated
rist ol
app ing
▁mod er
▁و انت
▁wear ing
as p
n ia
ush ing
عي ين
▁chang ing
ان و
f ather
inent al
▁ن سب
▁مق ارنة
▁sec ure
▁Argent ina
▁199 0,
ip h
▁م شروع
▁البريط انية
▁'' Z
te enth
au ge
▁a wards
▁آ ب
▁Or d
▁popular ity
▁n ut
▁$ 2
d ale
S T
▁ت ؤ
▁'' d
▁site .
ق ف
▁Arch ae
▁b ab
▁الج ُ
oc ation
▁f it
▁particip ate
▁access -date
▁interest ed
▁دو ست
▁A ld
ie v
▁beaut iful
▁س ابق
▁Fre edom
▁p ure
ك ثر
▁Armen ian
▁الع اصمة
▁س اب
اح ب
ob i
▁air line
▁الشرق ية
▁London .
▁الأك ثر
G B
ol ly
▁V ic
▁(f rom
▁ر جل
▁access date
ang a
▁Ap ple
iet h
▁m amm
a uc
1 /
ck now
▁exp ensive
▁frequ ency
as a
ري ض
▁vert ical
▁البح رية
▁degre es
▁م يت
▁ت ستخدم
▁Mic hel
را عة
▁I 'm
▁form at
▁Nich olas
▁الش ركة
▁Ad vent
▁House ,
را ح
▁techn ique
را ز
▁d anc
▁every thing
▁Lim ited
ad s
▁test ing
▁co at
▁view ed
▁line ,
ر دم
▁Hit ler
▁wind ows
▁fle w
▁ad mitted
▁opin ion
▁gra v
▁descript ion
▁4 7
▁ret reat
▁The od
▁ urg
p ent
com ing
▁Polit ical
l er,
▁En cyclopedia
▁S ig
▁إ ب
▁14 0
▁T u
L e
oy s
▁old er.
I L
▁res ort
▁O m
▁الو ح
▁'' t
ون ات
▁he ar
▁tre ated
لا ع
▁out er
-t o
▁( وي
▁I ,
o il
▁193 1
▁Ind ia,
▁المع روف
▁N ear
▁J ose
▁Be at
▁ح ض
▁F ut
▁t ub
▁ج بل
▁long est
▁N eg
▁st yl
- 9
▁ن تيجة
ew ork
م ار
▁exc ell
▁Or le
ش أ
▁sat isf
ذ ر
▁ex cess
طل ح
▁w at
ur i
▁assist ance
▁ك ا
ائ ج
ens es
is e.
▁Rena issance
▁an th
ان س
▁batt les
▁199 3,
▁192 8
▁te x
▁fac ing
i ast
▁m igr
▁193 2
▁ف رد
os y
▁ج نس
▁pe op
ين ما
anc ell
▁suit able
▁Y our
ur st
▁H as
▁ت عتبر
▁I N
▁عن ه
▁Se attle
ؤ س
▁loc k
▁then ,
▁b en
▁مس ار
▁team .
▁distingu ished
enn ial
▁192 1
igh ters
▁rit ual
▁Confeder ate
▁exist ed
نا س
▁Z h
▁b ay
▁'' p
ri el
▁A N
▁w inn
كت بة
▁or n
ist .
b al
ab ase
ام ية
▁v ac
▁I ss
▁Broad way
▁occasion ally
▁stay ed
▁Austral ia,
▁Sk y
▁" أ
▁Sal v
as s.
man 's
▁Al t
▁vess els
▁B ud
▁int ention
▁mount ains
▁p p
ell i
▁mon itor
ocr atic
f ire
ore t
▁r ub
▁Pl aces
▁(l ater
▁c inem
et on
▁199 8.
▁Th ailand
▁Ben jamin
▁ent ering
over ,
▁M ack
ث يل
▁super ior
▁B ris
com m
▁ا د
▁Publ ishing
ك يل
جه زة
▁192 4
▁band s
▁P le
▁وقت ی
غ يل
▁self -
▁ال رب
▁" Y
▁comp onents
▁(1 0
▁B our
ید ،
ol ition
y gen
▁http ://www.
▁trad ing
ot ,
▁ك اتب
▁Times '',
▁a cknow
▁replace ment
▁d rew
▁sim pl
▁Sup port
▁Byz antine
▁الرا بع
▁re asons
▁out .
نتر نت
▁د ه
ائ ف
field ,
ان ب
▁Ch ang
ev in
▁إ عادة
bor ne
ح اء
▁الت س
ill es
ph a
▁Angl o-
▁F ine
▁sp oke
▁unus ual
▁attract ed
▁comm it
ع لم
▁Louis iana
▁water ,
▁follow s
▁D ream
▁arran gement
▁d iver
▁وق ال
عا ون
▁Brook lyn
▁I van
ro up
▁h at
▁part ially
ib l
▁P A
▁Pro f
g rim
▁Dis ney
▁level .
▁c up
et ime
▁الس اد
▁day s.
▁organ is
▁الم ال
▁p ron
▁an ch
▁res id
▁S ite
▁fl ank
▁ا قت
▁col leg
وا ز
ف اء
▁Russ ell
ac le
اد رة
▁به ذه
▁mar ri
▁series .
▁L an
▁g ard
▁g one
▁community .
م ين
▁br ight
▁liber al
ق لال
▁t iss
▁'' k
▁France .
▁191 5
▁ن ام
▁men 's
L .
▁In it
▁p ul
ab ad
▁In c.
▁W ol
▁''' K
▁Organ ization
▁الح ركة
▁B uff
▁N ation
▁domin ated
em ic
▁10 ,000
ح ول
▁host s
▁fl ights
▁m os
▁con vert
▁even ing
▁21 st
▁j ourney
ship s
▁L ank
▁G am
t own
▁الأم م
▁عبد ال
▁se asons
▁turn ing
▁reg ion,
▁constit u
▁Book s
▁Bul gar
▁g ene
▁compet e
▁Cap ital
▁ال ـ
▁Chap ter
fl u
اب ي
▁Victor ian
▁من ا
ك ام
M C
▁c ryst
▁الث ورة
▁الم ياه
▁الإ يط
▁القد يم
▁pl astic
▁h al
رج ان
▁جز يرة
▁program me
▁B oeing
▁الس لام
▁f ict
g ate
▁ال اعت
▁م يش
▁employ ees
▁''' د
▁country 's
▁بلد ة
ra ham
▁miss ile
▁C ad
▁O range
▁us ers
▁j azz
▁Ind ia.
▁ل ـ
▁bank s
را ه
▁Mun ich
poss ible
▁transport ation
▁Trad ition
▁199 1,
▁Ind ians
▁ext reme
▁4 6
▁sur g
▁س وريا
▁car go
▁immedi ate
▁us er
▁present ,
▁N ature
▁di agn
▁أمريك ا
▁Hud son
▁King 's
▁conf ig
▁ك ن
ris on
▁Mu ham
▁cred ited
h om
▁ق تل
▁st ages
▁Mar s
▁Wil helm
ش ة
or 's
▁D ark
▁pro fit
بر ز
▁com ic
d ie
▁ à
را قي
▁الص ين
▁pred omin
ust ed
▁veh ic
/ s
F C
▁H yd
▁Oklah oma
▁decl ined
▁jur isd
▁و صف
▁ب زر
▁h ope
▁B ak
im ir
▁د ل
▁fl ed
▁batt alion
▁ل ف
▁expl ained
2 ).
▁ز ي
▁(for mer
P C
ac on
▁وال ب
▁describ e
▁citiz en
▁can al
▁abs orb
▁191 6
▁poss ibility
▁ق ل
▁reput ation
▁f ur
us ing
▁لل ف
▁وت ت
▁Roman ian
▁today .
ü n
▁ب ور
▁out d
▁aff air
▁star ring
▁C ass
▁Ant ar
▁The ater
د ،
▁192 3
يك ا
▁191 1
▁Glas gow
▁R ick
▁G reater
▁aut onom
le ton
force ment
و حة
1 st
▁A BC
▁threat ened
▁f old
ّ ل
▁C art
▁Carl os
j ection
▁ت حديد
▁السيا سية
▁R y
▁den ied
▁g ent
▁execut ed
ج نة
m el
▁تأ ثير
▁وت ش
▁was te
▁sign s
end ar
▁(وي عرف
▁Am sterdam
▁sat ellite
is p
▁ر ب
▁الاجتما عية
-c alled
▁US $
▁appro val
▁resc ue
▁encoura ged
S S
ures .
▁Inst ead
-1 7
▁portray ed
▁popul ations
بر ة
▁pro l
▁الم ف
▁192 5
▁bur ial
▁M alt
ؤ لاء
▁Sim ilar
ab ilities
▁Bi ography
▁Brazil ian
▁Stud y
om ber
▁dr ivers
ِ ي
▁S aud
▁و إن
ik i
▁Pro te
▁B ristol
▁( لاعب
▁em pire
▁apparent ly
▁girl s
اط ق
▁fl ower
▁circum st
▁dev ices
▁ك ام
▁الجُ رم
▁Ex pl
▁sc oring
▁8 00
L C
▁cont ribution
▁بغ داد
▁Fried rich
▁E mer
▁father 's
▁R ap
▁لل ك
ش هاد
I M
▁ne ither
▁الس ك
▁T am
▁together ,
ric ted
جم يع
ane ous
▁الن فس
▁Road ,
وا ف
▁''E n
▁Mong ol
▁T ype
▁S i
▁ي ص
▁class ic
▁n one
▁comp ound
▁des ire
▁Go ogle
b o
▁reg ime
▁( الم
▁S R
▁pro hib
st ic
▁C le
▁connect ing
E M
▁Gra ham
▁lab our
ول يك
▁O t
هم ة
▁H end
▁rad ar
▁exhib it
▁Peters burg
عب د
, ''
▁ص غيرة
▁polic ies
خ ول
▁B av
▁i 'm
سي ط
▁اله ي
▁ce ased
▁Jord an
th m
▁ا ث
u h
▁CE O
▁R acing
▁13 .
▁D ak
▁Baltim ore
▁re duction
▁E ss
▁( 7
ose vel
▁continu ing
ot es
▁Sp irit
بن ى
▁areas ,
▁sequ ence
▁ح سين
▁ra id
▁أ سا
▁sec retary
▁N ep
▁B orn
▁rem ove
▁Sh ang
▁ويم كن
جا ح
▁j u
▁Man hatt
ount ain
id al
ond on
ق ی
▁happ ened
▁R ain
▁en clos
▁prop ag
qu ir
▁Year s
▁alcoh ol
▁Tib et
▁De ad
▁ب اريس
▁clear ly
▁بير وت
▁C N
▁st rict
▁c ous
▁epis odes
land .
▁oper ator
ه ت
▁N iger
ri ft
▁ج عل
▁st ick
▁complet ion
ill iam
▁چ را
▁L ad
▁192 7
▁إ خراج
▁C ou
▁W ard
ph ony
▁و غ
▁com edy
▁T ang
" ;
op es
▁M ann
▁إ ف
▁191 3
▁لبن ان
▁inst ruct
t i
▁ش عب
▁M ort
▁ex posed
▁n inet
▁an nex
▁d ream
▁S ic
▁c avalry
ro ck
ند ر
اف ع
▁ن و
▁Indust rial
▁أ مر
ail s
▁T ol
▁حال ا
▁انت قل
▁recomm ended
▁tem por
ch i
ap se
م م
▁195 0s
▁بعض هم
▁cop y
/ or
▁w edd
▁prov ision
▁discover y
▁K un
ro ph
▁habit at
▁Pit tsburgh
▁camer a
apol is
–1 5
▁Rich mond
▁m ac
صد ار
W .
ers ed
▁convent ional
▁U C
se ud
▁o d
▁B ranch
uild ing
a wn
▁Sh ip
red ited
P R
ch a
▁الس ياسي
▁decor ated
▁ت غ
▁(N ew
▁تط وير
▁Sev en
aw ay
وز يع
▁ه ار
O T
▁p ian
▁غ ال
شر ون
c ont
▁Air craft
▁long ,
▁Pen insula
. cite
h ite
▁إن شاء
س ،
▁tre nd
▁again ,
▁pra ised
ir k
▁Art illery
ه ند
▁V lad
▁من اطق
▁cons ervation
▁f ert
▁r ising
-G eneral
▁ق ناة
ائ ب
▁cross ed
▁Wind ows
▁wound ed
▁include :
h ill
or us
▁ت أس
▁out break
▁class ification
▁) ،
ی ی
▁F ellow
▁الص نا
▁defin ition
te g
as ant
▁cop ies
▁الع صر
od a
▁b ath
▁All iance
▁ر وسيا
ج ليزية
▁G ate
▁''D e
▁sum mit
▁ els
l ades
ov o
▁tradition ally
▁D VD
on i
▁head s
ell ion
▁مع ركة
▁K a
amb urg
▁(بالإن كليزية
▁ي وسف
▁repl acing
▁Dubl in
▁phen omen
▁ro ot
لب ية
▁synt hes
▁Offic er
▁depict ed
▁Fran ç
▁H old
it ic
▁w el
▁ext ens
حي ان
▁ک و
arch ive.
z i
ث ى
▁th irty
▁192 6
he me
▁children 's
▁Sm all
▁lo an
▁frequ ent
le tt
▁which ,
▁"I t
▁cours es
▁pass age
l ik
ol y
▁(s uch
▁ide al
▁المو سم
▁bran ches
▁و ض
▁Hen ri
amp le
بي ض
▁ا ول
anc ouver
ج ع
نا صر
▁ا ص
▁الد رجة
▁fl ows
ن وان
▁deb ate
▁link s
▁L ane
▁ob lig
re ,
ش ب
▁in g
▁Also ,
▁m ile
▁يل عب
▁فوق .
▁P rom
▁المو اد
▁https ://
▁بأن ه
▁s ure
▁Muham mad
▁invol vement
▁house ,
▁exper t
ar ation
▁Y outh
▁c able
reg ation
ح ب
▁15 5
ar r
er y,
akes pe
▁character ized
▁War ,
al m
▁الب د
▁def ence
▁travel ed
ز ين
▁collabor ation
▁17 6
if ted
▁polit ics
▁ل ين
▁company 's
ra ,
▁J enn
▁الت ابعة
b ound
▁Canad a,
▁الم ختلف
at hered
▁Camp aign
os opher
▁val id
– 6
▁Dig ital
il ation
▁بت اريخ
▁C old
▁find s
▁account s
اص ر
ach ment
▁le af
▁interest s
▁sk ill
e ed
▁provin cial
▁المدر سة
▁serv ice,
ur rent
▁الس ري
▁out ,
كت اب
om ic
▁m emor
▁ل ما
عل وم
▁الدرا سات
f olk
▁among st
▁so -called
▁Ur ban
▁els ewhere
▁M all
ip ped
▁Th us,
▁col ony
▁music ,
▁concern s
ر ر
▁Is a
رج نت
وائ ز
▁tra p
d al
▁(بالإنكليزية )
▁ت نا
▁الأ ر
▁ر وم
▁appear ances
▁أ ور
▁N ad
▁ج اء
▁Indones ia
▁conf irm
▁M ult
وذ ج
▁هم ین
▁M other
l ag
▁spec ies,
▁p ill
▁team ,
▁و ث
▁H ab
▁state ,
i. e.
tain ment
▁بال ف
▁Ro osevel
▁Pr incip
ح اب
er k
▁fin ishing
ah ,
▁d rag
▁r ig
▁Heb rew
▁ext end
▁Ph oen
▁الف ريق
▁ess ential
▁start s
▁pover ty
▁بل اد
▁شي ء
▁German y.
▁Iran ian
▁and /or
▁us e.
▁gu ide
▁ar c
▁ك لا
▁Flore nce
وب ي
E L
▁L iving
▁Her ald
wh ile,
▁pow ered
▁Unt il
▁و حتى
▁strateg ic
نا طق
▁"W e
ن ،
▁f abric
▁ل هم
▁ت جمع
▁K .
▁cond em
▁ب ري
▁و آ
ي طة
▁cl oud
it arian
▁hous ed
▁He in
▁تت بع
ک رد
▁sl ave
d on
▁يق ول
▁m it
▁ext ent
a '',
▁diplom atic
▁re cept
▁C A
▁pract ical
▁T amil
▁emer ged
▁ه دف
▁الإ ناث
▁for g
▁car rier
▁C ond
▁الب را
▁Tod ay,
رج مة
▁( 8
▁د رب
▁K os
▁g iant
جز اء
▁controvers ial
▁seg ment
- level
▁saf e
ic ip
▁Se ction
▁P un
▁الس ب
ُ ّ
▁الرئيس ية
▁suppl ies
▁chall enge
▁res igned
▁find ing
er r
▁البي ض
▁NAS A
▁الخارج ية
ia h
u art
▁8 5
▁الل بن
▁writ ers
f urt
▁b acter
▁batter y
▁الغ رب
▁199 0s
▁F itz
ch o
▁illeg al
▁uns uccess
▁sup press
ro gen
h arm
▁أي ام
▁Street .
▁expl o
▁V ers
▁r hy
ore n
▁sy nd
▁you 're
▁الأولم بية
▁Marsh all
▁keep ing
▁O cc
▁العالم ي
▁fac ilit
▁It 's
g .,
akespe are
▁أ عضاء
▁m or
▁d ock
▁w ings
ون .
O L
▁miss ions
▁N am
▁مسير ته
ro se
▁us ed.
▁هم ان
▁ال ام
▁v .
▁الس ا
▁عب ارة
▁promot ion
and al
▁Austral ia.
▁d ual
▁F A
▁Chap el
E A
le y.
▁bor ough
▁H ig
▁الكه رب
▁الم ض
onna issance
▁ز يادة
▁المح يط
▁sust ain
1 ).
▁ap artment
▁L en
▁الج د
▁continu ous
▁jun ior
▁produc es
▁ي ك
▁د ن
é l
▁Tok yo
▁spec ies.
▁s ession
se ction
▁appl ications
crib ed
▁G ust
▁b ell
▁T ow
E ,
▁t ons
or ig
ؤ ون
▁t ied
▁ال يد
▁n ations
▁Kent ucky
▁م وضوع
▁r ice
▁V as
▁territ ories
▁sing ing
▁H ad
▁ح ي
▁opp onent
▁H ous
eng er
▁Bar cel
▁acc eler
▁الم بار
▁art ic
▁D og
▁S T
▁ad minister
▁gen etic
▁c athedral
. G
▁F if
▁ل قد
ع ال
p resent
4 00
ibb ean
▁gradu ate
▁candid ates
– 7
▁م ين
▁Californ ia,
▁bo ats
l ast
▁tr uth
nes s.
▁nob le
▁household s
▁حد ث
▁اله جوم
m ill
▁sc heme
▁prefer red
с т
▁الع ظم
▁men ,
ann i
▁indic ates
▁adv is
▁دم شق
▁st ress
▁Guard ian
▁ب سی
▁her ,
▁البح ث
▁198 9,
emb ers
▁v ul
▁تق وم
▁com ed
-w est
▁day s,
▁ت وجد
ag re
▁trib es
▁play off
▁mess age
▁m ales
ap pro
▁dis aster
▁Chin a,
res ident
▁De an
▁تق دم
ou s.
يا ،
ص ابة
▁g ran
olog ists
▁clos er
▁مع روف
▁London :
▁الط ريق
ab et
▁Sec ret
▁" in
▁م رض
▁S id
▁W oman
▁atmosp here
▁G or
▁R yan
▁190 8
-sc ale
▁side .
▁Mag n
- k
▁Bang lades
om p
▁الأ ب
ن ات
web .
▁sh ock
▁مق ابل
▁sevent h
▁w ins
ب طة
og a
▁shoot ing
▁الأ صل
▁ab road
▁em pt
▁F M
- fl
▁prof ile
▁mal es.
in ations
▁بن فس
▁ ‌
▁W or
l on
ó w
▁G on
▁c ul
▁Oper ations
▁B ath
▁التاس ع
▁يع رف
▁Spe ed
اب ن
شر ف
▁remain der
b orn
▁div or
▁ر أ
▁البريط اني
▁Nel son
▁ح مل
▁ما ي
s '',
▁r ide
▁الغ ربي
b ow
▁mov ements
▁Mon ument
▁Philipp ine
▁R ot
▁د ين
▁York shire
▁book ,
b r
▁ev acu
▁13 0
▁Hamp shire
a que
▁int ellectual
▁T an
و يم
▁H erman
▁Ch and
" ''
▁P ast
▁الك لي
▁است مر
▁man ner
▁A qu
▁B ox
▁النق طة
▁الج وية
▁Later ,
▁D ub
▁Arab ic
▁hunt ing
▁199 7.
▁ف ان
را سة
▁ف هم
▁contribut ions
▁aim ed
▁Mil an
▁pen al
ens is
. P
▁D od
لي ام
▁H owever
▁K an
▁div isions
ah l
▁sub t
▁any one
▁بخ بر
ific ial
▁T ig
▁المن ظمات
▁5 6
▁comp ens
n er,
▁treat y
▁dom ain
▁poet ry
▁C elt
▁الن ظ
▁streng then
▁C her
▁j ump
ank s
▁command ed
▁Al ong
▁Ser ge
▁victim s
iv ely,
▁18 00
3 00
▁other s,
▁rad ical
▁sug ar
▁ش ن
▁V ancouver
▁g al
▁الجم عية
▁des cent
لي زي
▁me at
▁ins cription
‬ ‬
▁under st
خ اب
ی ،
▁char ges
ier ra
▁Wars aw
▁C atherine
ع ه
▁t ort
▁ag ency
▁des ert
▁Med icine
▁S now
اديم ية
▁g ender
al ia
▁instr uments
so ft
▁aud io
▁إلي ه
ون ا
▁el se
it ary
se a
▁philosoph y
▁Sl av
▁ت نت
▁domin ant
▁المح يطة
▁5 4
▁ass embly
▁190 5
فا ظ
▁Her bert
▁M S
▁Belg ian
لا ك
-c ont
▁F isher
▁در ست
ق ام
سب اب
▁recomm end
ne y,
ol ith
▁lay er
ز ه
ect ed
▁190 6
▁i .
▁القر آن
h il
▁م اد
▁ident ify
ab out
▁(19 2
▁demonst rated
▁character istics
if fer
▁تع مل
ang ular
▁univers ities
▁crit ics
ل فت
وا صل
▁Bul g
P ,
▁f iled
▁p ig
if est
▁K evin
▁d iet
▁im possible
▁v ictor
ول ات
t op
▁vis iting
archive. org/
▁business es
av id
▁Municip al
▁با ست
▁incre ases
ib li
▁Gil bert
/ S
▁A ren
▁concern ed
rupt ion
ار ض
يو ان
▁restaur ant
▁الش مس
▁auth ors
▁P ra
ائ رات
▁Instit ut
▁ارت فاع
▁G round
▁(18 5
ud a
م ع
▁dif f
▁ط لب
▁reported ly
▁rec ru
▁eff icient
▁عن وان
▁E vent
▁r ating
▁well ,
at in
اث وليك
▁S eb
▁hy brid
▁sh ares
▁Cons ervation
▁M uch
▁R u
▁تح قيق
b ane
▁infrast ructure
▁all iance
▁الإسلام ي
. D
▁I C
▁h ockey
▁ك ندي
▁c attle
en os
▁'' b
▁Har bor
▁Dep uty
▁إ ضافة
▁Play er
▁student s.
-sh aped
▁Fer r
▁hum ans
▁ه ؤلاء
▁الألم انية
▁hors es
▁Ped ro
▁ص وت
b s
▁B ey
را ئي
▁( i.e.
▁or chestra
▁Gu ine
▁ب قي
▁sum m
▁ل غ
▁مم ثلة
▁per mission
▁B aptist
▁town ,
▁require ments
جا ج
يا .
▁eld er
▁Serb ian
▁sim ult
يز ة
▁ox ygen
▁پ ای
▁s overe
ند وق
▁م سلسل
▁Th or
▁Ch ampion
▁tor ped
▁countri es,
or ous
▁د ائرة
▁m oral
ت وسط
▁inj ury
▁Lu is
▁rep ublic
▁m ental
▁بلد ية
▁epis od
▁F em
m aster
о в
▁Camp bell
▁str ing
▁spok en
▁beh alf
▁N BA
▁poss ession
وم تر
▁C ole
▁disc ip
▁Chair man
▁D elt
▁Mont real
- v
▁أول اد
▁legisl ation
▁ي عد
▁shop ping
d .
▁18 50
ist ance
▁ven ue
▁Nob el
▁archae ological
ow ed
▁و يو
e u
▁wh ilst
ع ليم
▁U E
▁1 4.
▁nuc le
▁تون س
▁وب التالي
ro duction
▁ح كومة
▁أن حاء
ج ري
▁C e
▁De uts
▁dram a
▁gl ac
▁ا جتما
at ar
▁fl our
▁Mur ray
▁re ducing
▁D ave
ت ان
▁الك نيسة
-1 6
▁pred ecess
3 ).
▁أد ى
▁N eb
▁se ct
▁K ath
ص اب
ن ین
▁f est
▁ste ep
is ch
▁ز ن
▁B uch
▁ant i
▁L C
▁ح ياة
▁Be ij
▁H ugh
اح ية
▁loss es
rehens ive
ic on
▁announ ce
▁الأخ يرة
▁س ه
▁ك ث
E )
▁الح ض
▁Ch all
▁War ren
aj a
ett y
art ing
▁disc ontin
▁Arch bishop
▁Par ish
▁g ift
▁المجم وع
▁Fer din
▁behav i
▁Miam i
▁( و.
▁الوز راء
▁قا عدة
▁B ron
▁V el
▁W es
ug u
▁tank s
د ية
▁percent age
▁v el
▁sh ield
ra f
▁ ذا
▁الت الية
▁expl ain
▁on ,
z ig
▁thr one
ill o
▁Eth iop
▁Roosevel t
ing ly
▁المجم وعة
R T
▁ي و
▁د خت
am an
R S
ign ment
▁st ation.
دا شت
▁land ed
▁Hor se
َ ل
▁S alt
▁وع ند
▁c ave
و يلة
up er
ot al
▁ع سك
▁pract ices
▁acc ord
▁h orn
▁Jeff erson
av an
▁ ؟
▁block s
▁( re
ro id
▁it em
▁There fore
h l
▁194 5,
▁الحد ود
سب وع
▁n it
-l aw
▁pl ac
v ar
▁turn s
H S
▁الاجتما عي
عل ان
فت ه
ظ ة
▁st im
▁Car ter
▁meas ured
7 ).
▁dut ies
op al
▁12 5
هتم ام
▁Further more,
▁مح ا
▁pr ince
▁ج ر
AT O
w here
lect ric
▁B M
▁gra ve
6 ).
▁و ی
▁Trans it
at ra
▁''' إ
▁L ov
I .
▁العلا ج
▁( 9
▁P ic
▁S P
▁susp ended
es :
وم ب
4 ).
▁Car ibbean
▁cho ose
▁pro cess.
▁الو حدات
web. archive.org/
▁neut ral
▁gu ilt
ans k
f ront
▁foss il
▁sett lers
▁تقد يم
web.archive.org/ web
▁Territ ory
ig rated
▁199 6.
▁I mp
▁Goth ic
▁F ull
id ad
عد دة
حي ح
d s
▁( س
▁bar rel
▁Liter ature
▁C ase
▁jo ining
▁لج نة
H .
▁establ ishing
▁Form ula
تم اد
▁monaster y
ح لة
▁ra c
▁lic ense
b ird
▁X V
▁as c
et a
it ure
▁( th
▁الإ علام
ه‌ ها
▁St ein
▁esc ort
▁sold ier
▁N S
▁cas e,
▁cons ervative
▁ش اه
rap y
d y
▁group ,
▁gam es.
▁ش ک
▁الش يو
▁البيان ات
ست م
▁G riff
! "
▁G T
▁الب اب
▁الإ لكتر
en ''
▁en erg
▁compan y.
▁seek ing
▁s iege
▁under w
▁miss ing
▁suppl ied
▁P in
▁Hall ,
book s
▁step s
l aw
▁K now
▁B od
▁com fort
▁gener ated
if ies
فاع ل
ook ing
▁Nor folk
▁low est
بد و
ro st
ack ed
▁t orn
. R
– 9
جل ترا
▁eff icien
▁B ert
r t
es is
▁الم ستخدم
▁str ate
▁Champ ions
▁Sen ior
▁Gi ov
z ing
▁S A
em ed
▁Bar n
▁a qu
ro b
▁j unction
for mer
سي ك
▁g ets
▁gen re
ي ري
ل ز
ار قة
▁strate gy
▁init iated
g ie
ion s,
▁Brother s
▁T oy
▁M A
▁t ube
▁he ir
▁Christian ity
▁U nd
▁E sp
▁عم ليات
ent ieth
writ er
▁آ دم
▁death s
▁وح يد
▁Alab ama
ue z
▁V II
▁te eth
▁sur pr
يرل ندا
▁ن ص
▁''' ت
▁الإ نترنت
▁الرح من
th ,
▁: ''
ن .
▁س لة
▁sk ills
▁ad m
ظ اهر
▁I owa
ن ام
نم ية
▁و مد
▁th in
▁support s
iv ation
▁الس يد
▁bre eding
▁the at
▁appropri ate
▁Sh akespeare
▁School s
شت ر
▁H em
▁P el
▁st ead
▁1 /
▁f at
▁ex ha
أ مة
▁Ll oyd
ock et
ار يو
▁B rew
▁public ly
▁g ang
وان ين
lev ard
▁D oc
▁em peror
▁الد كتور
▁بال ع
▁merch ant
▁con vention
u ''
ul ating
▁servic es.
▁Am az
▁الوسط ى
▁Adam s
▁ rib
ش يد
▁بال ح
▁برا ي
▁ear n
▁الياب ان
▁second s
▁enjoy ed
▁rare ly
حت ها
▁T ax
▁و .
و '''
▁11 0
od ern
ض اف
▁Japan ,
▁child hood
▁cou p
▁suff ering
▁م ون
ائ ع
▁ele ven
▁pri ze
▁Ven ice
▁fall s
▁5 3
▁month s.
ose x
▁vol t
▁الش باب
▁198 0s,
ens ed
▁Ut ah
▁O il
▁M ak
▁n urs
▁Ap oll
▁P sych
▁پ ا
▁Sar ah
▁Represent atives
p ine
▁compet ed
for ced
▁tw in
▁in put
▁Mit chell
▁ن صف
▁FI FA
▁2 :
لم ات
▁land ,
▁(e. g.
c ell
6 00
▁K on
▁sym pt
▁require ment
i )
▁ر د
▁9 5
راف ية
▁Re ich
▁P ir
ag s
▁access ible
▁الل عب
▁Sing h
8 ).
▁R ou
▁Ab raham
▁ab und
▁T ob
ذ ب
▁app ly
▁Independ ence
▁are :
▁kn ock
▁(ال اسم
▁(w ho
▁الح س
▁key board
ist s.
▁p ole
k ov
ish n
▁University ,
▁( ف
uz z
▁د ورة
▁particip ation
▁Rob inson
▁design ,
▁Ste el
▁م ات
▁آ سيا
▁5 1
▁P rad
▁H amburg
▁N ash
يف يد
▁dang erous
▁al .
▁med icine
▁att raction
▁با يد
▁Co al
▁و ادي
▁Afric a,
▁aircraft .
▁الح ديد
ou rag
▁n et
ُ م
▁الم قد
ad er
▁fall ing
▁Palest inian
▁''' The
ne ur
▁ل ويس
▁rel ocated
ئا سة
▁س يدي
▁electric ity
ی ب
▁س و
▁Man uel
▁B rid
▁X X
▁qual ified
l ic
▁Saud i
▁d ra
▁not ice
our se
▁حد ود
▁البر ت
قتص ادي
▁convers ion
▁ا كت
pl ed
▁co in
▁الغ ذ
▁locomot ive
▁respond ed
▁Christ ians
▁می‌ خوا
▁S C
▁acknow led
it als
▁ي أ
▁ج ل
▁quest ions
▁ob st
▁Transport ation
▁I .
▁week end
h al
▁Pol icy
▁ك ثافة
▁un p
▁ل ر
▁الج سم
▁phys ician
▁prot otype
▁تأ سيس
▁re venue
▁أ ربعة
▁F ig
▁Thom pson
▁horiz ont
au ,
ت ج
▁pict ures
he nt
ها دة
▁suppor ters
sc ar
▁هي ئة
ry pt
▁f ill
▁E lement
▁" n
▁j et
شف ى
▁fem in
& d
h and
at ely,
▁Hispan ic
▁E ston
uro pe
▁do ors
▁fre ight
-b orn
▁belong ed
▁st em
▁collection s
▁آ م
▁ph one
▁appe al
▁rest ricted
▁origin ated
or er
▁UE FA
–1 0
ic es,
ist ant
–1 7
▁Te le
▁s av
os c
▁Malays ia
▁per mitted
▁voc als
in ating
▁t ribut
▁خ لف
al g
▁5 7
▁dies el
▁Vin cent
▁G rad
▁pre gn
خ م
كن ولوجيا
تم ي
d ess
▁Th ose
▁190 7
▁present -day
▁7 00
▁Phil osoph
▁cr uc
osex ual
oth y
▁b ull
ول ت
▁C hel
▁المم ت
r ation,
▁bal ance
▁بزر گ
▁re ven
▁Mean while,
▁Ital y,
▁home .
▁burn ed
▁t ip
▁man ual
▁rock et
▁ع رق
▁Al aska
▁St orm
▁phil osopher
▁st ation,
▁v oy
ul u
our ces
es ch
▁well- known
▁ch rom
ط وير
▁un like
ص اص
▁p ump
ub le
▁subject s
▁آ يت
▁a ired
▁belong ing
act s
▁recover ed
▁الخ لايا
▁و ات
▁أ رشيف
▁شخص ية
ag ram
▁تع رض
▁earthqu ake
▁pers u
▁S outheast
ست ين
▁abs ol
ames e
▁Ob ama
▁دوار .
▁deb t
▁loc ally
/ 200
▁س عيد
‌ تر
نا ئي
▁event s.
▁just ice
▁لأ ول
▁wid er
▁boy s
▁190 9
▁T H
▁ev olved
▁يؤ دي
▁ex ecution
ك ين
▁exhib ited
▁M L
▁ع مان
▁magn etic
▁Bulg arian
▁t ight
ry s
▁Walk er
د يو
ري ح
▁invol ves
▁ag ree
▁organ ised
N ew
▁R if
uc he
- le
▁Cl are
▁جم عية
▁کرد .
▁ف ض
▁Cl inton
▁دول ية
▁con ven
▁shel ter
▁Kel ly
▁س ير
▁المسلم ين
▁Cons ervative
▁Fran z
▁ان ه
aw k
ic ular
▁us ual
– 8
▁F ab
N e
the less,
▁Sl ovak
E E
▁i. e.
▁6 6
ط ا
▁° C
▁الم فت
▁claim ing
ول ه
▁t ap
▁c am
▁Cr ime
▁sc hem
▁t u
▁Ann ual
cel and
▁ج وان
▁sub stit
ي بة
he el
esign ated
▁Environment al
▁f aster
il er
. F
▁place ,
▁point ed
R I
l ain
-h our
h in
وا ة
▁لا ح
l s
ان وية
-1 1
▁fac ulty
▁I an
▁F ace
o que
▁bre ast
▁ب ی‌
▁rev ol
▁R ange
▁p ist
re ction
▁مؤس سة
▁publ ishing
▁T ak
▁Finn ish
n ers
▁197 0s,
▁divers e
le te
ور و
▁week ly
▁الج نس
▁for ces.
ł aw
▁H ond
▁trans it
▁الم كان
▁el abor
▁تح مل
▁O ri
▁V erm
▁الم عيش
▁I ce
▁Ferdin and
▁f lex
▁gold en
▁retire ment
▁198 8,
▁co ins
▁process ing
▁Roman ia
▁August ,
خي ص
▁ident ical
l u
▁198 7,
وك س
▁15 .
- out
▁K il
on so
ge on
▁min eral
▁م رحلة
▁F r
▁impro vement
al ph
▁vers us
▁بالل غة
▁ز د
▁to t
▁immigr ants
▁Art icle
ت هم
▁educ ated
ator ,
iv an
▁I v
▁والأ ربع
رج عية
خت ه
iv ic
▁Therefore ,
▁'' n
▁p od
G C
mun ition
▁ه نا
▁Ark ansas
▁الس لة
▁An al
▁199 0s,
um ''
▁pat ent
▁Ob serv
▁R ugby
▁fl av
im m
uc lear
▁Prote ction
▁l ose
▁sm ok
▁R us
▁no .
ر وس
▁high light
▁G ur
▁process es
▁الأد ب
▁چ يز
▁see ing
▁G as
▁c ash
▁var iet
▁su icide
▁يق صد
▁as h
es s,
b ody
▁gam es,
▁rev ised
▁sp end
▁C O
em e
ك لة
oc ene
▁ev alu
▁Atlant a
▁S ah
▁cas es,
▁dec ad
▁inter pre
▁withd rew
▁N umber
▁happ en
▁B ened
ك ب
▁M ind
ع رض
▁swe et
ش اط
▁ge omet
▁Sy ria
لا ج
am ics
▁B und
▁autom atic
وت ا
▁s or
▁c ant
▁th or
▁sec ured
▁NC AA
▁198 6,
▁sh arp
▁Orle ans
ه ان
اف ر
▁" to
▁Fin land
н и
▁C hen
▁distinct ive
▁rang ing
▁الر سم
▁ab oard
▁l ie
▁gu ar
▁franch ise
forman ce
▁squ ad
▁Chin a.
▁تق ري
وائ ية
▁Inter state
um .
▁P ut
▁te en
▁K o
io ,
▁Ad d
▁hol iday
ائ مة
▁5 8
▁س جل
▁w ish
▁Con n
▁f ib
é m
▁l ad
▁الص وت
▁exclus ively
▁B og
р а
▁g auge
▁Stud ents
▁الأز واج
▁b one
ward s,
▁چ ي
غ و
ark ed
as ters
▁s ide,
a qu
▁organ isation
▁here .
▁ +
▁f ile
▁help ing
▁R ing
▁Y e
▁rul ing
ق ق
▁other .
وت ين
▁con j
خ لي
▁د ع
▁Afghan istan
▁ph r
ss on
▁ent hus
▁C er
▁was ,
▁cab inet
. مرجع
is en
▁h un
н а
o ffic
▁الس ر
▁ne uro
ob by
▁S z
▁R av
▁لل ط
at on
▁ex ceed
▁war fare
h um
с к
it able
▁She l
▁discuss ed
▁الب ار
▁A P
▁period s
▁199 5.
▁themsel v
▁qu e
▁experiment al
▁d eter
▁(1 4
▁concern ing
و امل
▁أ ط
▁c ricket
▁person ality
p ower
▁K it
▁R ight
and y
▁represent atives
er ia
▁B ir
▁bre ed
▁الح ب
▁Ar med
▁ب يل
▁reconst ruction
▁محم ود
▁ن ج
▁b id
et ch
▁spe aking
▁c ens
t ains
▁re un
▁Bar ry
▁Enter tainment
▁تع ليم
▁العد د
el i
▁elev ation
▁Ap pl
▁in tern
▁ج ای
▁D ata
▁Mr s.
▁S old
▁و و
▁cou ples
▁f iction
▁on e,
ar g
▁L ag
▁ي ه
▁س لام
▁park ing
▁col le
▁care er.
ing en
th a
▁strugg le
▁V o
▁مبا شرة
▁g ay
▁Mar qu
▁الح صول
سل وب
▁insp ir
▁dev oted
ag ues
▁first ,
▁Arch ive
▁struct ural
▁design er
-spe ed
س ه
▁الجغ رافي
▁Fall s
▁مشت ركة
▁A ber
▁y e
-st yle
▁phot o
▁helic opter
▁N BC
▁al tar
▁forest s
▁b on
▁فرن سي
▁الح اج
▁mod e
ot yp
▁199 2.
▁test s
▁C P
▁چ شم
▁P rag
ar us
▁M ol
▁V ideo
ink ing
▁st able
az e
ic .
s a
▁acqu isition
▁fact ,
▁مت ن
▁ه ير
▁Ern est
é g
▁الر قم
-e ast
سر حية
▁194 4,
▁الق اط
our t
▁ا غ
▁scient ists
▁R on
▁ن بات
▁7 2
▁Im m
▁س وف
▁Techn ical
▁Architect ure
▁P ack
▁walk ing
▁a w
▁May ,
▁k ne
▁لت ح
ص يلة
▁g rey
▁(C h
▁Times ''
▁( ).
ar is
اح ل
▁کرد ن
▁أ رض
▁d rain
▁وال ث
ه وم
▁W ik
ي اب
▁memb ers.
▁accommod ate
▁initi ative
c at
▁'' f
el .
▁an sw
it is
▁Z one
▁ر فض
▁g athered
v et
▁D ance
qu est
.. ..
▁organ ic
▁amount s
▁Barb ara
▁peop les
end ment
▁Nov a
▁و "
over ed
▁coll apse
▁Through out
▁الس ينما
▁Sh aw
ty pe
▁وت ح
▁success or
▁benef its
▁he aring
▁E t
ograph y,
▁med ic
▁الت الي
▁mark s
د ين
is on,
▁bus es
▁199 4.
▁أن ثى
- min
▁M ason
▁الز من
ip er
▁up ,
▁( g
▁" st
▁Rid ge
▁B ald
▁190 4
▁Ul t
▁corpor ate
▁Beng al
om on
▁Cons erv
▁r um
▁H ockey
▁یک ی
▁Ol iver
▁sw ord
cast le
▁م حت
▁M end
▁w ait
▁G rey
▁I b
c o.
▁ext ract
▁Arch ives
▁L ion
▁land .
▁Ro om
▁ch ann
▁الق لب
qu er
▁أ ت
p ers
ancell or
▁Cont emporary
▁Bor ough
▁h ub
▁وال ا
يت ها
app oint
▁"S t
▁Social ist
/ A
▁s ick
▁qu ad
▁sc atter
▁bre aking
▁''' O
▁Qu arter
▁G ray
▁ش به
▁190 1
▁P erson
▁الداخل ية
▁remov al
ip per
▁بسی ار
▁f ür
ur as
▁fund ed
▁Kir k
▁St uart
▁dis char
▁to x
▁Ex pedition
I R
▁b anned
▁ش م
وف ير
▁discuss ion
▁الس م
▁pro x
▁c ow
▁س ري
▁الخام س
▁Museum ,
▁Stud ios
▁var iation
▁شب كة
▁l iver
▁sail ed
▁one .
ين ت
▁صف حة
▁(former ly
▁ص الح
▁Gu y
▁program m
▁car ved
e le
▁B ask
est y
▁گ وش
▁Dall as
▁N at
▁power .
▁industry .
▁In g
abl ished
▁ب ذلك
▁L ux
ow ski
▁vol can
▁تع لم
medi ate
▁L or
ay er
▁م لي
enc ing
▁Ex hibition
et ary
▁الوا قع
is an
▁Short ly
▁cent ers
▁b rew
▁egg s
▁198 5,
▁represent ation
▁خان م
▁expl an
▁er ror
v ia
▁cr ashed
▁un less
سر ،
▁E lection
▁agricult ure
▁g rid
▁ن طاق
▁b read
▁p ushed
▁W rest
▁sup plement
▁تن ها
▁g ram
▁celeb ration
▁coll aps
▁minor ity
▁isol ated
▁locomot ives
▁س يد
▁ق وة
▁ان دا
▁trav elled
▁لا حق
▁H ann
▁Bris bane
▁199 1.
▁الا شت
▁Sy rian
▁V eg
▁الملك ية
▁man s
▁ex ists
▁ه ام
▁ret ain
▁vis itor
b ul
▁every one
▁request ed
▁int ent
▁S ister
▁princip les
-h and
ود ،
▁art ificial
▁act ed
▁ذ و
ال ا
im e,
وا خر
▁abs ence
g ov
▁المد ن
ط اء
▁الع شرين
▁A x
▁P ant
▁r ugby
▁الأوروب ي
▁p g.
▁rem ote
را س
▁م ز
▁he nce
? id
▁Pro duction
▁sw it
▁ب ز
▁slow ly
m i
▁circ le
▁Mot ors
▁R ico
▁settle ments
re z
row s
▁ang le
▁T ag
▁2 ,000
▁"C h
▁to ll
▁Al ice
▁ان جام
▁ac res
▁follow s:
▁princip le
▁Card inal
T .
▁g rain
work s
a :
▁د ان
▁الك تب
▁bord ers
▁A ction
▁العل ماء
ant asy
ic es.
d f
▁fal se
c ase
▁لل ص
▁Sc out
▁J azz
▁dis put
▁ص احب
▁الف نان
▁Shang hai
▁بود ند
▁العلم ية
▁194 5.
▁Const antin
▁الص يفية
▁C urt
▁Gl en
فس ير
▁الع ب
▁Is ab
▁Y ank
▁196 0s,
” ,
▁l amp
▁bi ological
▁C BS
▁Phoen ix
▁re organ
ir i
ذ ك
ات ها
▁ر ؤ
▁C S
▁D ra
▁System s
▁resear chers
▁st ored
س كر
▁الت ف
ium ,
▁ق لب
▁tex ts
▁cons erv
▁N ATO
ect ive
▁g ap
راء ة
▁land mark
▁web s
▁flu id
▁Napole on
▁أ ساس
▁این که
▁Init ially
▁sub d
e velop
▁histor ians
▁cover age
▁السل طة
▁f isher
▁viol ent
▁development .
I P
om ing
▁cons olid
ash i
▁Manhatt an
▁Delt a
▁الم رحلة
ag ar
▁197 0,
▁الم حت
▁sy mp
▁می‌ توان
▁L anguage
9 ).
▁cut ting
op y
▁ع صر
y. "
elf are
▁to ols
▁Canad a.
▁Univers al
▁الأ راضي
دم ت
▁س لي
▁sm ooth
▁program .
re pre
▁وا قع
ير و
inc inn
g i
▁City .
▁م ورد
▁الإنج ليزية
ّ ر
▁6 3
▁ص ور
▁point ,
▁har vest
▁sc al
▁الخ م
▁قدر ه
▁c er
▁الجز ائ
▁Bl ock
▁ث ق
he v
eng u
▁col ors
▁Der by
بح ث
ory ,
s wer
▁Br ight
▁Batt al
ق لة
▁B illy
▁T on
▁د ید
▁mil k
▁music .
▁S ull
▁j ack
▁الش ب
▁ف هو
▁ج اك
▁P iet
am o
▁أ لب
▁film ed
▁الميل اد
▁p ale
▁الثق افة
▁d ict
ann y
▁ک ردم
▁hom e,
▁outd oor
▁m ask
▁I celand
▁الم عد
▁آقا ی
D )
▁expos ure
un es
▁over t
▁M eg
ard ment
iam ond
▁199 0.
▁brother ,
il ian
▁ab ov
▁Mar x
▁head quarter
▁وج ه
ri fic
اع ي
▁H um
▁J oint
▁orig ins
b ed
▁الس كنية
▁الد ست
▁church ,
▁ي خ
▁group .
▁الل غ
▁د عم
▁prot ests
▁خود ش
▁( ed
▁qu iet
▁189 0
an j
ult ure
▁st air
-in ch
▁T as
▁be am
وا عد
▁flow ers
ف ين
▁Jac ques
' A
▁m one
▁al umin
ark s
▁می‌ آ
▁September ,
▁diam eter
▁R ound
▁recogn ised
onym ous
▁3 D
o ft
▁الت ون
▁up .
▁house .
▁underst ood
▁الس وري
▁min ute
انية .
اب لة
▁199 3.
▁E sc
▁profess ion
▁بال ك
تم ل
▁school s,
▁م قد
▁t ennis
▁V ict
▁star red
▁level ,
▁''E l
▁16 .
▁الشر قي
r ity
ett a
ro us
ز ية
p ol
▁ل ط
▁clos ing
▁inher ited
▁Never theless,
▁che st
ab ul
▁con fer
ح ر
▁to ler
▁يع ني
▁bl ow
▁g olf
G A
▁Mah ar
hol m
▁am ph
▁W inn
▁Way ne
ص لة
p it
▁educ ation,
/ h
▁inst ance,
▁adj ust
5 ).
▁إلي ها
ِ ن
▁د وا
▁Jon athan
an ne
▁ess entially
▁October ,
لي س
قر ار
▁( ex
▁فلسط ين
▁Serb ia
▁provin ces
▁والأربع ون
or p
▁appl ic
▁Flor id
▁se al
▁193 0s
▁eng ra
y ll
ش طة
▁ي حدث
▁Y ellow
▁bomb ing
n ut
▁Cl ay
▁S ad
▁الثلا ث
▁وال ر
us c
▁الل جنة
▁law ,
▁G and
▁Fac ulty
▁conv in
▁ق صة
▁Viet n
i ability
▁b icy
▁Class ic
▁July ,
▁أ ربع
we et
l ist
▁ج ين
ما غ
▁190 3
▁ch ick
▁sub mitted
▁North west
د اب
▁P S
▁sing les
por ter
▁Bas il
▁Ch art
▁Muslim s
em ploy
at z
▁swim ming
–19 9
▁pattern s
▁brig ade
▁وع شرون
▁II .
erb ai
▁employ ment
▁ت بلغ
▁ra cial
▁حزب ياً
▁ق ض
▁ر وب
▁''U n
▁assist ed
▁B ond
ون م
▁الخ ليج
▁''' «
▁arr iving
▁البي ضاء
▁c ad
▁lif t
▁M ik
▁tour ism
▁م قا
▁ع ائلة
▁M é
u ly
▁(19 1
▁می‌ شد
نت ي
enc es.
▁l ieutenant
اد م
. K
▁c rack
og ical
▁ج يش
▁can 't
▁Ap pro
▁E ld
▁ك وم
▁الأ حداث
▁ف عل
▁مبار اة
r ation.
ev a
▁wealth y
▁Pr inc
ela ide
▁sl aves
ج اب
اني ،
▁controvers y
▁appear ing
▁ا ط
▁prec ip
▁''S h
” .
ann er
▁تو أمة
▁government s
ber ry
▁وب ال
▁am munition
. org
/ C
▁in duct
وك ي
▁inh ab
▁لي ست
▁fa ult
▁Publ isher
▁study ing
▁mother ,
▁F lying
▁j ew
way ,
▁190 2
▁M ig
▁Del hi
▁Jun e,
▁الآ سي
ن ش
▁W here
▁en lar
▁f iring
▁Chic ag
▁m ines
▁6 2
▁الأش خاص
grad uate
است شهاد
▁f ran
▁Harris on
- a
▁Gr ade
ic ial
ac o
▁part ial
▁Tre as
▁Cent er,
▁ج و
▁pull ed
it ol
▁ت غيير
▁appoint ment
ز لة
or ship
▁end ,
▁Tr inity
▁wind s
-w ar
» '''
ّ ا
▁h ung
▁E ight
▁Ott o
▁rain fall
▁conqu est
▁l ists
over y
▁care er,
▁she et
▁( إ
▁ex terior
▁s ess
▁S ut
ل ول
▁م راك
ington ,
/ M
▁S aints
▁الر جال
▁Revolution ary
▁S ão
▁opportun ities
▁d rove
▁lo op
وا ي
il ,
▁( 20
▁program ming
▁implement ed
▁Pol y
▁mov es
id o
▁ج مال
▁pap ers
▁ab b
▁Inter ior
d o
é r
▁ف بلغ
▁ك يف
▁reg ulation
▁کو چ
▁M oz
▁H urricane
▁آ ر
▁Ar c
▁feel ing
▁م ارت
▁Charl otte
▁pric es
▁rock s
h n
▁V III
▁I M
▁elim inated
▁Rail ways
iven ess
▁أك س
▁Stev ens
▁C ant
▁am ateur
َ ة
▁S yn
▁f ra
▁Har old
▁correspond ing
▁hyp othes
▁re op
▁Ant i-
▁He avy
نا ه
ضا يا
▁Med ic
a'' )
▁Del aware
▁north ,
▁c emetery
▁manufactur er
▁مسا حة
&d q
▁D at
▁بر م
ع يم
ow ered
▁Book s,
▁رو برت
-w ing
▁wa iting
▁وال ده
▁C H
▁hydro gen
ق ول
B .
▁c ock
▁K ap
▁gall ery
▁م رك
▁L ear
▁music ians
ز '''
اهد ة
▁coal ition
▁ص نع
▁be aring
es s.
▁disc rim
اني ين
u its
▁re aches
▁sp ir
▁s itting
▁V illa
am ine
▁وه ناك
▁ب یر
▁long -term
▁ي صل
▁inf ection
▁arg ument
▁الثال ثة
▁المعيش ية
▁القاط نين
▁ا ضط
▁cooper ation
▁F ish
est rian
▁aff ord
▁acc um
▁J ama
▁farm ers
▁excell ent
▁position .
▁Y ale
ound ed
8 00
▁Aust in
وم ية
بار ات
▁S ierra
▁d in
▁الص غيرة
▁he 's
▁د ب
iz z
▁hy per
▁ترت بط
ه‌ اش
▁C ann
ound er
▁reserv oir
▁ات فاق
▁tick et
▁qu oted
am ation
av ia
▁f asc
▁P ul
▁تحت وي
▁Origin ally
▁من زل
▁بريط انيا
▁subsid iary
▁Banglades h
▁ط ريقة
▁mer c
▁من ظمات
▁Ev ans
▁Frid ay
▁" th
▁ش و
▁Hun ter
ت ال
▁system s.
▁sk i
▁or bit
▁cour ts
▁on going
▁دار م
c ia
▁تأ ليف
▁https:// web.archive.org/web
▁exact ly
ang le
▁t el
▁Cra ig
▁l ux
▁ي اب
ham ,
▁pre st
▁G ary
▁building s,
and om
▁الإم ام
M .
▁concent rated
▁Jud ge
ing "
▁non -f
▁aer ial
▁lim its
▁po ison
▁ال ول
▁الم خت
▁compet ing
▁deliver y
▁مؤ لف
▁torped o
▁إ جراء
▁ref lected
▁C ode
▁م ير
▁P ay
▁pros per
▁inv ented
▁مع هد
▁Bra h
▁إن جلترا
▁there after
augh ters
▁l ingu
كو ين
anc es,
▁sit e,
j ar
▁M ust
▁vol umes
c z
▁من ف
▁198 0,
▁compet itive
▁Rob in
▁R alph
▁F u
▁surre nd
▁5 9
▁Se ason
▁per m
▁L oc
▁الأ وسط
▁196 8,
▁inter change
min ster
▁الحر ارة
▁ذ وي
▁advert is
o an
▁C ris
▁Sym phony
▁ال ها
v i
▁الاقتصاد ية
▁women ,
▁عض وية
▁cong ress
▁adapt ation
▁attempt ing
اد ت
▁pat ri
▁l ibr
▁م اري
▁Port land
▁w ore
▁appro ached
▁B aker
in '
ر ال
▁cl ay
▁الأح مر
▁L ess
▁! !
▁ن یز
ct uary
▁الانت خابات
▁tradition s
▁few er
▁تص ميم
sequ ently,
▁Jim my
▁r amp
▁الشر طة
▁A A
▁G ill
▁exerc ise
ت خب
▁100 ,000
▁respect ive
▁Cor p
ant a
▁kit chen
▁log o
▁ €
▁الأك بر
خ فض
▁L amb
▁6 7
ف ات
▁ع ُ
▁c ards
▁بالق رب
▁العائل ات.
B ,
ib ilities
▁Ab u
-in -law
▁met ropolitan
ir ts
▁Ar nold
▁rad iation
▁Wild life
▁ع شرة
▁ph osph
▁suc ceed
▁ف ار
▁Nether land
ين و
▁spons ored
▁f t
ca /
on ''
▁P oll
▁mark ets
▁العمل ية
▁ch oir
▁exper iences
▁depict ing
▁ ib
▁الك اثوليك
▁م .
▁E agle
▁organ ism
▁194 1,
▁C incinn
ري ،
▁sub marine
▁والأ ربعة
▁pil ots
▁down .
▁she ep
▁sold i
س د
▁ي ب
▁prepar ation
▁للأ سر،
▁W ang
▁ت ور
▁ش ه
▁sp ending
▁Corn wall
▁Stud ent
▁Ill ust
l en
▁depart ure
ust ral
▁special ized
ک نم
▁ك امل
▁تط بي
▁بح يث
▁inter action
▁war ning
▁e ighth
▁s ew
▁صح يفة
▁young est
▁aircraft ,
▁194 2,
▁surv ive
ك ول
▁كيل ومتر
out heastern
o ire
ى ،
▁f ulf
▁المش اركة
ar an
▁tr im
▁sty les
▁Az erbai
▁res ol
▁circ ular
▁disp ute
▁Broad cast
▁الساد س
▁Hawai i
D C
▁شد .
▁but ter
اب ط
▁event s,
▁خ الد
á s
▁Al bum
cul es
▁proport ion
ن ها
س و
▁Trans l
▁rif le
z h
▁team 's
▁c otton
▁ر ود
▁''' ,
os l
▁وفا ة
ri a,
ack s
▁17 4
▁s aint
▁الم ادة
▁الذ ه
▁Giov anni
▁men .
▁وي ليام
D ,
▁Hol land
اب ر
▁Afric a.
▁Des ert
▁entertain ment
▁الش عر
ري .
▁return s
▁R ivers
av ian
an s,
▁Bou levard
▁dis band
ar in
au er
▁''' ب
▁describ ing
▁ser ial
▁''J ournal
▁At hen
▁lyric s
▁inter cept
▁h az
▁connect s
▁m ail
▁( ed.
▁emb assy
▁sign ing
▁in ,
▁م ارك
▁prevent ed
▁C C
ight ing
▁Gon z
▁198 4,
▁الإم ارات
وب ات
▁بر گ
▁E ff
▁pow er,
▁ل ان
▁sk ull
ج لة
▁أخ ذ
▁ra ising
p any
▁Th ai
ص الات
▁dist inction
▁advert ising
▁ Á
▁Instit ution
▁cal cul
▁Br uss
ar ies,
▁Jos h
▁Pak ist
▁الق ا
▁الن ادي
ad ian
▁act ors
▁ل قب
ا وية
▁meet ings
▁inter section
▁dram atic
▁بع نوان
is chen
▁مع ت
▁un ve
▁G ay
▁penal ty
▁fund amental
▁Iraq i
▁o rient
وض يح
▁(U n
▁histor ically
j ab
rup ted
▁fict ional
▁dist urb
▁Rel ig
▁Vietn amese
om o
s. ''
▁ض ع
▁باش ا
▁الإم براطورية
▁E y
▁ن ما
▁full -time
▁ن ز
▁خ دا
▁الف ق
at ical
▁و ير
▁photograph s
ig ible
▁conne ctions
▁fer ry
وسي قي
▁P ent
ار ،
's ,
▁Car r
▁الأوروب ية
▁G w
ult ural
▁الس ويد
▁Fil ip
▁oper ations.
ok ed
▁than ks
um er
▁wor st
▁or ange
ماع يل
▁Gard ens
▁Ag es
▁enc ourag
▁inform ed
▁student s,
▁197 5,
▁emphas is
▁ا بت
our g
▁daughter ,
▁189 8
▁t ie
▁( ع
▁S or
▁April ,
▁الش كل
▁Jun ction
ac co
▁Ad elaide
m id
rit ish
em pl
uc c
يف ورن
▁negot iations
▁bene ath
ur er
▁وت ن
▁nav ig
r ise
▁fl ash
▁ter rain
ت و
ن يات
▁لكن ه
w right
pl an
▁ت طور
5 6
▁on .
-c ol
▁السلط ان
▁عن ها
est ed
▁16 4
▁البرا زيل
he rent
▁به تر
▁p av
▁له ذه
▁Is le
▁W ald
▁port ra
▁B ach
▁print ing
▁Som ers
▁أستر الي
F .
▁s aved
▁N ote
▁وج د
▁K ur
▁Stev en
g on
▁St al
▁bl ind
▁month s,
▁المع هد
▁Stat istics
▁itself .
▁built .
ا يت
▁(م قاطعة
/ l
i ya
▁D rag
▁خ ص
عة ،
▁sent enced
▁ex it
▁الج ما
▁teacher s
im on
▁pil grim
et he
َ ر
▁آ ش
▁196 7,
▁constitution al
▁W a
▁K le
ually ,
▁lat est
▁there by
▁بال س
▁شريك ،
▁Be h
o ons
ف ضل
▁مق ر
▁مع يلات
uss ian
▁S oon
▁6 8
▁W as
▁pres erve
▁b le
▁that 's
▁Acc essed
▁Hel en
▁post ed
▁بیر ون
▁style .
▁am pl
▁popul ation,
▁ف هي
▁commun ications
▁he m
▁Ad v
I )
g es,
▁B alk
▁( ;
▁Frank furt
▁ch ron
ال ك
▁d ish
▁church .
isc her
▁cor ps
▁te a
ng lish
▁198 2,
▁sh orter
▁س ی
▁pick ed
▁ag o
m ate
▁av iation
berg ,
▁ك التالي
▁Y ang
▁Isa ac
▁war ri
▁maintain ing
▁لل غ
▁jurisd iction
▁bod y.
▁ر وا
▁W ed
▁Res erv
▁Element ary
▁الع مال
▁المت وسط
يط رة
iz er
▁per ceived
▁Em b
- related
ال ج
▁all ,
▁المج ال
▁work s,
▁town ship
ه وري
▁الع راقي
▁H amm
▁اح ساس
▁ث اني
p el
▁J ason
▁h ip
▁جز ر
▁عام ي
▁improv ements
▁بم توسط
▁install ation
▁ن احية
▁ک سی
▁event .
▁She p
et ers
▁7 6
e al
▁gard ens
▁think ing
▁defe ating
▁H erm
▁ان گ
▁المح لية
▁h ills
▁custom ers
▁ro ots
n oon
▁الح الات
▁(d ied
▁an swer
جم الي
t rack
▁illust rated
▁H aving
▁h ole
▁memb ers,
orig inal
▁العثم انية
▁production .
▁Al ger
▁famil iar
▁honor ary
▁الن بي
▁design ation
▁po ems
▁particip ants
َ م
p ath
ري قي
g un
▁189 9
▁Charl ie
▁198 3,
H z
pro fit
▁rev ival
▁test ed
ct ober
ار ف
▁H us
▁وي تم
▁Mc L
د ارة
▁mar gin
▁way ,
▁indic ating
ذ ية
▁تأ لفت
▁Sh ar
▁15 00
▁Car n
or o
▁خ انه
▁trib e
▁design .
▁كان ون
as se
ent e
▁نظ رية
— the
sc ript
▁cloth ing
▁الأرد ن
▁نق طة
▁trib ute
ش كل
▁ك وب
▁ک ند
مر ض
▁ ion
▁Wall ace
▁ط الب
▁I T
لا ئ
▁parliament ary
▁G ot
▁Micro soft
▁ك أ
▁Ed mund
▁extens ively
▁vul ner
▁S oph
▁ول ه
▁لح ظ
▁valu able
▁الأ صول
▁adv ice
▁ر غم
▁ass um
S )
▁B ord
▁تص نيف
▁promot ing
▁ق رب
▁جيم س
طف ى
'' "
▁الص حة
▁ر جال
▁will ing
▁Ap pe
p iece
▁h a
▁Ex change
▁Min or
. A
▁سبا ق
▁الس ابقة
▁sp in
/ d
▁pre -
▁c oc
ce ,
▁inv as
▁b are
▁197 9,
▁الأ بيض
▁consum ption
▁over ,
▁de emed
▁unsuccess ful
▁Tra vel
▁الس ابع
▁الم قا
▁Greg ory
▁requ iring
▁( من
▁و هم
-l ine
▁Franç ois
-p art
E P
ock ,
▁Cro s
لي فة
▁fast est
▁t ack
▁Athlet ic
▁16 6
▁Pro p
▁وم ت
▁S ep
all ing
▁d' A
▁int ense
▁away .
▁Mont g
ount ed
▁('' C
h ost
عة .
▁Palest ine
▁behavi our
▁You T
▁b oot
▁M embers
ic ity
في ف
▁Comm ons
▁Vlad imir
h ous
▁b in
et e
is a
▁unc ertain
▁prep are
▁servic es,
he s,
▁الإ نتاج
▁refer ences
▁ind ex
▁bi ography
ley 's
▁vot ing
▁pet ition
▁qu een
▁mar ch
▁أ وب
▁تش ير
لا س
▁Beij ing
▁ح ب
ر ان
ac ional
▁الث نائية
▁Ag re
▁إ طلاق
▁Societ y,
▁c ir
▁را ئ
▁demand ed
ط ات
▁ag ents
▁s ample
▁مد ير
▁signific ance
▁A L
ow ,
▁D ram
osp el
▁ف ك
▁mach ines
▁susp ension
▁elev ated
▁الع ص
anc es.
▁ext ending
ف و
▁ال اع
▁18 .
ي ور
▁M az
▁Pl ate
▁زند گی
p ost
▁t um
▁Scient ific
ix on
ov ,
▁186 1
▁ك لمة
▁ح ص
▁p ond
▁الش ي
▁Bu enos
ater al
▁C R
▁194 3,
▁band 's
▁الع ض
▁ق صر
▁Indust ry
/ 2019
▁av o
▁Term inal
ad ier
▁D ol
▁هن وز
▁197 2,
▁group s,
av el
فت رة
▁Ber ke
f riend
enn y
▁17 .
▁Ap ost
▁fif ty
▁D in
▁fall en
▁S ex
▁'' ),
utt le
▁Barcel ona
▁L ak
▁And y
▁bel t
▁S eg
عد م
▁الأص ليين
▁n a
قي يم
▁194 0,
▁instrument al
▁st ability
▁market ing
▁m e,
▁الديمقرا طي
▁job s
▁N HL
▁territ orial
▁197 1,
▁بعد ها
ear ing
▁mer ely
▁pred ict
▁creat ive
▁Saf ety
ac ión
▁St age
▁Indones ian
▁تش مل
▁l un
▁Int elligence
▁ab st
▁196 9,
▁wid th
▁Coll ins
z ed
▁ship ping
▁C ricket
▁fun eral
▁var ied
▁sc rap
▁الأسا سية
▁Cont inental
▁ات اق
- man
▁ز مان
▁Lat ino
▁esc aped
▁har bour
et ry
▁7 7
▁( on
▁G y
ist ration
▁mar ble
▁ Š
▁خم سة
▁16 8
▁compar ison
ما ك
▁south .
▁project .
▁ري اض
▁mix ture
▁Trib une
▁Y am
اً ،
▁أمريكي .
▁وت ع
▁del iber
▁for b
▁rank s
رائي لي
سم ح
▁" U
▁50 %
▁ص در
▁exha ust
▁sac red
ol and
▁document ed
▁: '''
▁fire .
▁rad i
جا وز
D R
on ed
▁w reck
لي و
▁D ays
▁d iversity
▁$ 5
▁l ord
enc y,
▁women .
▁sty le,
▁ت صل
▁mar sh
▁man ,
▁Cub a
▁Pear l
as ''
▁S ide
J ohn
on th
es p
▁J a
لفزي ون
▁le ather
sh ore
▁ش ك
▁' The
▁Prim ary
duc es
بي ع
▁And ré
▁a f
G .
▁الذ كور
am pton
▁الن ب
▁fort ress
▁قط ر
▁neighbor ing
▁('' P
▁market .
▁eas ier
▁convin ced
▁189 5
▁الم جا
▁عل ماء
▁app rec
▁أف لام
ang er
F )
▁work shop
▁ord inary
▁p ush
▁newspap ers
▁يع ود
all s
▁over .
▁Seb ast
▁prom ised
▁south ,
▁cur ren
▁معل ومات
▁Represent ative
▁چ نین
▁2. 5
▁leg it
▁John ny
ش ير
▁د وب
▁قائ د
▁cons cious
▁البلد ين
port ed
▁المس جد
▁labor atory
by ter
▁event ,
a ñ
▁Mal ay
▁الع ن
▁Commission er
e a
▁sign als
▁مجم وع
book s.
b y,
▁se ized
▁doub t
▁coff ee
ov ich
p y
sw ick
▁الب ول
▁J ur
▁sp aces
we ek
au ke
▁activ ist
▁Tra ck
▁S ay
te b
▁priv ile
اد ل
▁law yer
▁refer ring
c u
▁p ir
▁الن ار
▁me ets
يم ان
▁main land
▁Cost a
▁Sl oven
▁T ourn
ل ندا
ch aft
▁H il
▁o ct
▁این جا
▁S uff
▁Le op
: 1
يك ي
▁نش اط
ES CO
st own
▁مس جد
▁revolution ary
▁o ak
as i
▁م رات
▁par am
▁A ven
▁sh aft
▁Colon ial
ذ ة
▁for th
▁con clusion
▁t ies
▁197 4,
▁Labor atory
ن ز
▁phot ographer
▁November ,
▁L ink
ash a
-S t
▁cross es
▁J ak
▁ج ريدة
▁Me chan
▁M ut
▁l ib
▁p in
▁n ep
ul um
▁tele phone
▁Di ocese
▁bas es
▁village .
▁حال ات
▁purpos es
كت ورا
▁inaug ur
▁بر امج
olith ic
▁''' V
▁Test ament
ست ير
عل قة
▁drink ing
▁ب اد
ang ered
▁Comp uter
s i
T )
▁الألم اني
▁eld est
▁( ك
f ly
▁' S
▁tempor arily
▁Den ver
▁th ir
▁municipal ities
he ld
▁المسي حي
▁O st
▁م فت
▁198 9.
لم انية
▁س عد
▁var iable
▁Dev on
uk i
▁aff airs
t z
▁film .
▁leg s
▁depend ent
▁def ended
▁station ed
▁dang er
▁من ح
▁Cop enh
▁descend ants
▁d ella
▁W ag
▁bul k
if ts
–19 5
ا كل
▁ground .
▁alt itude
▁tiss ue
▁20 .
لق ى
ج ية
▁8 8
▁197 6,
وك ر
▁مر دم
oca ust
▁Mor oc
▁M ath
▁lay out
▁counter part
▁man age
▁كالتالي :
pe c
▁خ يلي
▁اين جا
ش ع
▁pen et
▁relationship s
ie u
في ات
▁Vol unte
▁condition s.
▁6 9
▁ster e
▁ext inct
ener ation
od ed
▁pol ar
▁مد ن
▁E C
▁ت عيين
▁race .
▁himself .
▁race ,
ro le
▁Comb at
ser ver
» ،
▁b ore
▁difficult y
▁att ending
▁س ام
c ot
▁sh aped
▁Angl ican
▁H ope
▁189 7
▁وال غ
▁Prov in
v ed.
s is
▁النم سا
▁Democr at
▁وس ائل
▁achie vement
▁P R
▁الق ريبة
▁co inc
▁BC ,
▁D iamond
▁( c.
▁وغير ها
▁R onald
▁M ul
▁188 5
▁t un
▁a .
▁أ واخر
▁198 1,
▁بر و
ent in
▁ت ظهر
og an
▁comment ed
▁pl ates
▁h ull
با ه
▁189 6
▁way .
▁rul er
y cl
▁art if
▁hard ware
- round
▁Chron icle
▁Tun is
com pass
os ed
ob a
▁لل ب
▁T rain
▁ك رد
فا ض
▁الب دا
isc opal
ها جم
▁D uch
▁prov e
ق امة
O r
▁w ww
2 M
▁development ,
▁c oun
▁a est
▁in :
▁وب ين
▁m orn
▁L ot
v as
▁T yp
▁ل وس
o i
▁bound aries
g art
▁B ased
▁p ub
▁ph arm
cy cle
way .
د ار
▁Her z
▁us age
▁attack ing
▁h its
▁rel ie
اض ر
▁hel ps
▁للد ول
▁('' S
▁داشت ه
▁t one
▁s ulf
▁R iver,
▁fil ter
▁ش هد
▁camp s
▁therm al
u er
s or
▁السن وات
▁د فع
▁ص ورة
▁188 0
▁' A
r ors
▁v e
▁farm ing
y "
. W
▁T ab
▁Island ,
▁7 4
▁aut umn
▁program ,
▁doll ars
▁Gab riel
▁rev erse
et o
▁displ ays
▁Gro ve
▁Bl ood
▁بأن ها
▁بال جمهورية
▁comp rehensive
▁Pal m
▁Lud wig
▁air field
U C
ق وم
▁An at
ul us
▁من ظ
▁bas in
v ision
▁Rh ine
▁Engine er
▁Fut ure
▁''D ie
▁1. 5
▁m ud
▁Maur ice
ت بة
▁hand ed
▁Max im
▁burn ing
ال ه
▁C ov
▁rest ore
enc y.
um m
َ ن
▁frag ment
h all
▁ق لي
ius ,
▁T ogether
▁Method ist
▁P ract
▁put ting
▁fif teen
- run
▁B ear
es. "
son 's
▁birth day
-min ute
b oy
▁H az
▁wedd ing
▁grand father
it ,
▁public .
▁project ,
▁system s,
B )
▁delay ed
▁prom in
▁pl acing
▁الأ قل
c ano
▁Aren a
–1 6
ي ّ
uc ed
- Z
▁ins urance
▁b apt
" :
بل وما
▁night ,
▁St ef
▁end ors
art a
▁بن ت
▁الشعب ية
▁decre ase
▁(18 9
▁Rh odes
▁198 8.
▁ي ر
▁196 5,
▁disappe ared
▁6 1
▁neighbour ing
▁Japan .
▁ولكن ه
▁Pres s.
ol en
ج و
▁8 2
▁الر م
▁Ca uc
▁197 8,
▁sever ely
▁الإد ارة
▁h idden
▁J oy
▁hand le
▁(201 0
▁St rat
جم وعة
st rong
▁ويو جد
▁War ner
▁s hed
▁P on
▁Leon ard
ad ,
▁Har bour
▁Ev angel
▁ext ends
▁ت كن
ie 's
▁suppor ter
▁7 8
▁h o
▁cert ific
▁م ور
▁3 ,000
▁regul ations
▁for ty
▁J ar
▁writ es
▁commun ist
▁B eth
▁look s
if e.
▁الح الة
▁وا ق
▁187 0
▁Celt ic
▁C od
vers e
▁Pl at
▁Pr ivate
▁Sant i
ف ورد
▁س واء
ائ دة
ip her
▁depart ed
▁interpret ation
▁upd ated
▁N ext
▁Beg inning
▁Th us
▁brid ges
▁ر واية
▁or b
▁لأن ه
▁se es
▁accom pany
▁c ub
▁أن ت
▁الك م
▁Argent ine
ث ناء
سك ي
▁Main e
▁پ در
▁dep uty
▁en abled
▁friend ly
▁Cl a
▁gar rison
as hes
arch y
▁sec ular
▁ev il
▁واس ع
▁transport ed
▁ز یر
▁ظ هور
▁المسي حية
b i
▁c iting
▁ل ائ
ra h
▁out standing
bor g
▁'' ال
حد د
▁الك بيرة
▁cap s
▁production ,
ipp ing
▁cl im
▁per mit
▁19 .
▁Stat istical
▁مد ى
▁Bened ict
ah a
▁C inem
▁ob vious
▁ف صل
▁مخت لط
▁ن زد
▁comm enced
▁War .
▁أق يم
▁casual ties
▁York .
▁bre ath
▁المد ارس
ار ضة
▁bu ff
▁ج بال
â te
▁ع اش
▁S ul
W A
ane ously
▁سب ب
▁so ,
▁(S t
r n
▁الد ور
▁me .
uls ion
▁Le o
-s p
ia )
▁Col leg
ش ون
▁group s.
l ,
▁bod y,
▁الإ ير
▁Gaz ette
▁T act
▁Cy pr
▁( h
▁rece ives
▁vary ing
▁المختلف ة
▁C any
▁G ang
▁ب من
il ion
▁الح الي
▁الحدي ثة
ط ر
▁T able
▁Georg ian
ubl ished
▁pit cher
▁Mc M
▁كار ل
▁الك ريم
n al
▁ص ندوق
▁album s
▁exclus ive
w ald
▁dest ination
▁تش ار
▁L ie
ick s
▁target s
▁D iet
▁Te legraph
ü ck
▁ت حدث
سك و
c are
▁گ رد
عب ير
▁conc erts
▁ولي س
i '',
u en
/ 1
س اب
eth yl
▁Liber ty
- -
▁P i
▁fair ly
ار يا
خ ور
▁other ,
▁New ton
enc er
▁196 6,
d ,
O )
▁ب كل
▁ي سمى
لال ة
▁colon ies
▁10 5
▁societ y.
▁P ep
▁D y
▁ه ند
▁dismiss ed
- U
reg ular
▁t ru
▁compris es
▁التج ارية
د ان
▁بال ر
a very
ys elf
▁ninet eenth
طل ع
▁Com merce
▁den omin
▁expl icit
▁فت ح
▁Antar ctic
▁D est
▁nar rative
▁B ass
man .
ai ,
fort un
▁مع ينة
▁www .
comm unic
يا ز
▁hum id
▁eng agement
▁March ,
▁horizont al
▁b ag
▁US S
▁P ath
ed a
▁7 3
▁و كل
▁Mar ath
أ م
mer ,
▁tra ct
▁أم ير
ish ing,
▁حت ی
- com
▁s in
▁R af
▁الأع لى
▁ه يل
▁dist ribut
▁Str ateg
ح ال
▁Dr ive
ide .
t ic
▁fram ework
fore st
▁consist ent
▁Dyn asty
▁fe ud
▁ل غة
▁an ten
▁anal y
▁pre y
▁تع رف
ث مان
▁High land
w art
▁Te ch
▁حس اب
-l ong
▁land sc
▁contin ental
▁خوا هد
ix ed
▁Park er
▁Qu est
▁Le eds
van ced
▁النها ئي
BA J
ou p
▁surv ival
▁ab use
▁M ey
▁Leg ion
I s
ig o
▁الف نية
▁pione er
▁trad ed
▁C ort
▁general ,
▁197 3,
▁L ost
▁ن اب
▁ش عر
▁Fin ally,
–19 4
in a.
▁Ex am
enc es,
ux ili
▁W atch
f .
▁Brun swick
▁(1 2
▁withd rawn
▁pro of
▁Well ington
▁حدي ث
▁Pe ak
▁R at
▁work s.
▁Gra ce
▁premi ered
ک ان
▁island .
▁K in
▁ط ويلة
▁. C
▁E M
▁c osm
ول و
▁العسك ري
▁189 3
▁Bulgar ia
وج يه
ف اف
▁f ighters
osy stem
▁ت شرين
ur ,
▁به ذا
ريق ية
▁cap ita
▁review s
▁s ending
r h
▁الشخص ية
▁int ens
را سات
▁1920 s
▁man ifest
▁ex chang
▁P aint
▁O scar
▁univers al
▁ع الية
osl ovak
▁الح ال
▁class room
▁Ca es
rist ian
em por
ون يا
▁كال يفورن
▁Cit iz
est on
▁V il
▁rhy thm
▁V iol
ish ops
▁int ellig
▁Johann es
▁L ex
▁res umed
▁Camp us
▁Balt ic
i w
▁ch lor
▁الط فل
e cember
▁rang es
▁surre nder
▁w ard
▁م ربع
▁school s.
▁cont ribute
▁پ شت
▁''A merican
▁does n't
▁upgrad ed
▁M D
▁st ones
ate ver
▁خ اطر
▁h oped
▁الب ص
▁B ronze
ot ion
▁للم ناطق
▁Ke ith
▁N et
▁نيو زيل
▁c a
▁room ,
▁overs eas
▁t ape
▁m aps
▁car ries
ibl ical
▁N ott
▁الطبي عية
%D8% B
▁O ber
▁المح كمة
▁سلي مان
▁ب وت
▁mathem atic
▁s ke
▁art ,
▁Ret urn
at ri
ge .
▁Mus ical
▁وال من
he ll
▁ف را
▁Polit ics
▁cal endar
▁recip ient
ast s
▁أحد اث
▁sh ops
▁Four th
-spe aking
▁G olf
رات يج
▁sust ained
▁bank rupt
i u
▁n atur
ens ional
▁Che v
▁show ,
▁197 7,
▁ask ing
▁Form ation
▁الم الية
▁ع ال
▁R oc
ot ing
▁193 9,
og g
▁used ,
▁L iv
▁خ ل
▁R ut
/ m
el s,
▁9 9
▁imm igration
ط ال
▁16 7
▁travel ing
▁purs ue
▁C rim
▁k g
▁con ce
▁ج هاز
repre neur
▁community ,
▁more .
▁object ive
▁merg er
▁K ash
▁ant iqu
واج ه
▁الس ورية
row ing
▁هن ري
سك ند
▁K um
▁co -f
▁De cl
ع ان
▁celeb rate
▁phr ase
▁Agre ement
▁one 's
وج ين
▁vent ure
w auke
▁v ital
▁خ بر
▁Sc ar
▁Ray mond
a "
y g
▁ن يك
وا ق
▁نب ود
▁transform ed
z b
▁مص در
▁function al
▁د ير
▁sc r
▁rele vant
▁educ ation.
▁Pruss ia
▁17 3
▁decre ased
▁rom antic
▁التق ليد
▁Hig her
▁خ ر
▁Att orney
▁Rog ers
ق وق
و ها
▁S oul
bro ok
m ath
▁(ت وضيح
▁offic e,
p in
ai ro
▁معد ل
▁الموج ودة
▁C avalry
▁188 9
▁Ter ry
▁Turn er
را حة
▁مح ل
▁(1 3
▁ص ناعة
▁vis its
▁الط لاب
▁elect ro
▁P rest
▁" an
تين :
▁C and
▁2 1.
▁over w
▁centur ies.
▁m orph
ق سم
▁h ier
▁M old
▁activities .
▁column s
▁Pun jab
▁الشم الي
ac cess
▁الن ات
iz ard
▁Pl aza
▁(توضيح )
وس ع
books. go
on s,
▁Guine a
H A
ام ين
▁cl ar
▁building s.
▁back ing
ق اد
▁الحيو انات
▁consider ably
▁''T h
▁var iations
▁underw ent
اً .
-se x
C AR
▁town 's
al s,
A Q
▁chann els
r ary
▁himself ,
et ing
▁r andom
▁Mig uel
▁refer end
رج م
▁s ang
▁M ead
▁book s,
ند س
▁Pr int
▁w are
ag ger
▁Road .
ap est
▁ess ay
▁West minster
▁Cy cl
as m
▁Croat ian
ev en
ern ess
▁الط رق
▁الح قي
▁البر نامج
▁Engine ers
▁G ren
▁الط ريقة
▁to b
▁trans mit
▁million ,
▁ل يب
اد ث
▁Per formance
▁count ies
an uary
ag ne
▁opt ical
▁Luther an
▁d ust
▁ج وائز
▁H at
um ped
▁L akes
▁tr ig
▁Constantin ople
id ers
▁Th ames
▁Per u
▁آن جا
▁pay ment
▁ب سر
▁الم ز
▁Spain ,
▁sched ule
▁vel oc
▁light s
▁5 ,000
▁Comple x
▁T ong
▁الم شروع
▁13 5
▁st abil
▁Bas in
اء ،
▁( v
▁16 3
l isted
▁Neb r
▁الأخ ير
ia z
▁point s.
▁edition ,
▁c uis
▁ag encies
id en
▁C reat
▁I BM
▁E in
▁after noon
u ation
▁Prag ue
▁Communic ations
.M .
▁وق عت
▁الطبي عي
▁c af
▁qual ifying
▁O g
▁district .
ov ember
▁mar ry
▁Cr us
▁des ired
▁gu id
▁diam ond
▁efficien cy
▁لائ حة
شن طن
▁ele ph
▁" re
▁T all
id ,
▁10 %
r ud
ar b
▁الخ ل
▁$ 4
راج ات
▁M orning
▁An y
▁ch ronic
stad t
▁Fl ag
— w
▁rec alled
▁add ressed
▁196 4,
د ى
▁Gu ild
▁p seud
▁accur ate
▁en compass
▁tem ples
▁الج بل
▁ ژ
books ?id
▁Bask etball
▁fac es
▁Nev ada
▁dem ands
– present
▁ش ديد
s ),
ff ield
in ery
st on,
▁At hens
k t
▁الفلسط يني
▁B ent
▁vo iced
▁m ural
▁T ree
▁2 2.
▁S ug
ou ch
ac a
▁ev ident
خط يط
▁m igration
▁them es
▁mat ters
▁p ine
▁line ar
▁industry ,
-T V
▁for cing
▁الك ر
▁al ph
▁complet ing
▁together .
ph al
an che
▁البط ولة
خ وان
um s
سا عدة
iz ed.
▁با ك
app y
▁بال د
▁الح ي
▁ص ورت
▁An im
▁الج انب
▁rem n
▁r ally
▁(200 7)
▁Cub an
▁m ild
▁186 0
▁cent res
▁196 0,
وج ب
O W
▁يح مل
ch ild
ري ش
▁ل ات
▁18 20
un ct
–19 8
▁ass ets
▁الط بية
emb le
▁لل ر
نم ارك
▁Cru z
▁العظم ى
▁Comm itte
▁مه رجان
وير .
▁cult ure.
▁مع ه
▁m ad
▁است ط
ubb ed
▁گ ذ
Q ue
▁park .
e er
▁un cle
im o
▁Czech oslovak
▁M ater
com mon
▁صدا ی
/ 2
▁M ang
am ing
▁L em
og le.
▁Apoll o
▁African -American
▁scholar ship
▁S uz
▁عرق ين
▁مختلط ين
▁''S tar
▁predomin antly
▁م رجعية
غ ب
▁ر وش
▁مت عددة
▁movement .
▁وفا ز
▁cl iff
▁indust ries
▁أ برز
▁affili ated
▁administer ed
▁min im
▁من ش
▁par ade
▁clos ure
ah u
il ia
▁اله واء
▁' B
▁در س
▁P ly
▁De ep
▁refuge es
بح اث
▁ch ass
▁الن ظر
▁no ise
▁e. g.
▁الذ ات
▁V ern
um ps
▁Var ious
▁ب ولاية
▁cor rid
▁main tains
رت ه
▁A ug
st ed
▁Legisl ative
▁Hein rich
▁eng age
G M
▁we igh
▁sed iment
▁gro ss
▁ع ص
▁anim ated
▁down ,
م ثل
▁law .
un s
▁في ت
▁س يتي
▁''Hist ory
ه‌ ام
▁Tro phy
واج هة
▁Park .
ab a
enn ium
قد يم
▁ant icip
▁C av
t es
▁(I n
ير وس
▁var ies
ف تم
et s,
▁189 4
ی .
▁w ants
▁n inth
ول ف
▁comm itte
▁می ان
▁o l
▁B atter
▁number ed
▁Croat ia
op l
لاح ظ
▁C ec
▁Us ing
▁M C
▁لا ست
▁A ires
cl iff
▁n erv
▁V ent
▁Per ry
▁S ey
r ition
▁fl own
▁Art ists
▁الك يميا
▁He ath
▁virt ually
▁الإيط الي
▁femal es.
ap ped
▁observ ation
▁shall ow
▁س پ
ap ing
anth rop
▁thor ough
▁law y
▁park s
https:// books.go
▁President ial
▁citizens hip
▁Ar ctic
–19 0
▁تأس ست
o qu
▁small ,
▁recover y
▁batt al
us '',
▁E P
ود ية
▁Spr ings
▁specim en
in ''
▁inhab ited
▁T amp
▁Class ical
le ep
▁field .
▁New castle
▁en forcement
▁hand ling
▁clos est
▁available .
▁منت صف
U N
▁O F
▁who ,
برا طور
▁Orig inal
رة ،
▁assemb led
▁to uring
▁con fess
l ift
▁16 9
▁suc cess.
uk a
▁in .
▁با عت
▁Mat hem
▁ظهر ت
▁ط ائرة
▁elect oral
▁البر لمان
▁C ob
▁الم تم
ون '''
▁Lu ke
▁ п
▁rub ber
el 's
▁Art ist
▁surg ery
ith m
▁ي ظهر
ut ter
▁Gl ou
g es.
▁UN ESCO
ö l
▁rel ating
▁lim estone
▁Lar ry
▁W ells
▁Nep al
▁J ess
▁injur ies
▁Q ing
▁https://web.archive.org/web /2019
et z
▁م دي
▁min i
▁in fer
▁Rang ers
▁ف ريد
▁separ ation
▁ش هادة
▁dev ast
▁R uth
▁س اعت
▁inter vention
▁sudden ly
▁arm ies
ober t
يم ي
w ing
▁implement ation
▁inspir ation
▁particip ating
ed. "
-st ory
▁Jo an
▁قط ع
▁الش ام
▁perman ently
▁River .
▁F olk
▁happ y
pl ing
اري ع
▁suggest ing
▁comp rom
iz ation,
ator s,
▁comm une
▁المد ني
▁w aves
▁O wn
وا جد
▁Hol ocaust
▁(200 5)
▁ment ions
▁د رج
▁char ity
▁pot entially
بي ت
id ency
▁space .
▁stri king
▁الري في
umn i
ائ ز
▁in ches
▁V eter
▁وأ ي
▁we aken
▁T rent
ص در
▁vol um
'' ،
▁encoura ge
k ar
▁clin ical
her ic
▁D ennis
▁Alb anian
▁legisl ative
ighth ouse
▁النو ادي
sec ond
at em
▁Buddh ism
▁2 4.
-1 4
تش ارد
▁دخت ر
▁مسا عد
▁hour s.
▁Profess ional
ra ve
▁cous in
ic ia
▁Pop ular
and in
▁Battal ion,
▁ج اي
▁Rabb i
▁J e
▁volcan ic
D AA
را ي
▁household er
ock s
▁December ,
▁un ex
▁ren owned
▁position ,
▁20 2
st ead
▁يم ت
▁import ed
▁الأ رجنت
▁تسم ى
ع ث
▁Art ,
▁my st
▁H ur
▁9 6
▁chem istry
▁Lead er
▁mir ror
▁N y
▁ل يت
▁(200 8)
▁ني ست
▁S ak
▁ن داشت
▁Mad ison
▁8 7
umber land
▁adult s
-s ized
es ters
▁back .
▁Prad esh
زي ادة
▁B ag
▁Stud io
achel or
▁189 1
▁تش كل
stan bul
▁murd ered
en k
▁ic on
ä r
▁or al
▁anth rop
▁M ail
▁ي زيد
▁real ized
y ch
ward ,
▁inter face
▁Grand e
ri es,
ق وط
▁Queen 's
▁Che ster
▁H MS
▁Boy s
▁H ob
▁20 ,000
er ie
▁manufactur ers
▁b er
اع ية
▁Leban on
َ ي
▁mag az
▁الم سلسل
▁nep hew
▁said :
▁sc ar
▁14 5
O P
▁س ويس
▁(200 6)
▁Fin ancial
▁( st
▁categ ories
▁تم كن
▁writ ings
▁reve al
▁Amb assador
▁الوط ن
ص ح
▁he ct
in ished
▁ru ins
▁Ge off
▁189 2
▁tri ple
▁beaut y
▁Bo hem
▁ »
▁2 5.
▁re ver
▁port ions
▁consum er
▁volt age
▁. S
▁act ively
▁کن ار
▁t rick
▁Pres byter
▁Group ,
▁pl aque
▁ab olished
▁t ries
▁الأ ق
▁Comp et
▁unit s.
▁وال ط
▁Dak ota
▁el ite
f ast
▁element ary
▁v s.
یش ه
%D8%A7 %D9%84
▁ز من
▁ك ين
▁Le ft
▁exper iments
▁خ ب
io x
▁'' g
▁poll ution
▁belie ves
▁b omber
an im
▁S ang
▁الد ينية
▁f atal
▁v ine
▁certain ly
▁ث ابت
▁cyl ind
▁interest ing
▁Nik ol
▁Tas man
▁m oon
pr ing
▁Es sex
- j
▁o v
▁Buff alo
en ic
▁Bol iv
شر ق
▁mar g
▁Ass istant
om ed
▁Med ieval
▁Sh op
▁ex ile
ad al
رس ید
▁manufact ure
▁بات فاقية
or ge
رب ط
▁ك ور
▁Britain ,
▁nickn ame
▁v ow
▁Jer ry
▁ind eed
▁الع الي
▁B il
▁أ وائل
▁catal og
▁in hib
▁ab ort
- ray
▁Ad vis
▁recre ational
▁mot if
▁itself ,
▁(200 4)
▁west ,
▁Bos nia
▁rev ers
▁الف ضاء
▁main stream
re ated
▁الق وة
-p oint
ed ge
▁Char ter
▁miss ed
op ic
▁علا قة
▁dis appoint
▁recogn ize
▁par as
M )
ol ine
رس ال
▁Man ila
ol it
ed ed
▁S et
▁whe els
▁كري ست
T R
l ue
▁cr imes
▁تن فيذ
el ing
▁باش ه
▁t elling
▁anal og
▁suff er
▁الآسي وية
▁up ris
▁حيات ه
▁pro cess,
ج ير
▁lay ers
k e,
ut ing
▁was n't
▁. M
▁وأ م
▁(L ondon
ail ing
▁ب ث
▁Gu ards
▁3 :
▁Be aut
▁amb assador
est yle
▁و رد
b ahn
in ation.
▁C u
▁for ces,
▁ف كرة
▁en able
▁Agricult ure
اد ق
▁difficult ies
▁https://web.archive.org/web/2019 12
ائ ه
▁دار ه
▁S ox
▁آ ه
▁the oret
ك ير
راق بة
H C
بي ب
▁H D
▁club 's
▁n ose
▁الأ ط
▁sur ve
▁R ab
▁you ,
u es,
▁G ene
عد ام
▁r iding
▁Rh ode
▁الإسب اني
y ''
▁legisl ature
E F
▁188 8
▁o m
▁P ick
▁W ool
ok a
▁N uclear
▁أ علن
▁st ake
▁English ,
▁premi ere
. L
co. uk
ت ع
un ning
https://books.go ogle.
▁C B
▁A th
▁M idd
▁particular ,
▁au ction
▁البر وت
l og
▁centur ies,
▁می‌ک نم
▁K or
▁St ars
at ro
▁re print
ul ations
▁YouT ube
▁يج عل
▁H es
▁arg ues
ip zig
▁car b
▁الجن سي
og ram
▁gent le
i ens
▁gener ate
▁Prof ile
V A
ich ael
ها ي
▁بل ند
▁UK ,
▁الأ ل
▁افت ت
▁rec onnaissance
▁أن هم
▁198 6.
r ish
ra z
▁8 4
▁D j
▁talk s
h of
▁en act
▁گ ر
ij i
▁Camb od
ist ing
b el
▁cult ure,
▁M ade
▁east ,
m al
▁أ هداف
▁down load
▁ف ور
▁l ines.
▁sh ifted
BAJ &dq
▁prox im
ل اند
▁doll ar
▁R ank
▁G iants
▁l akes
ah o
'' s
ca/ books?id
▁Marsh al
https://books.google. ca/books?id
▁en orm
▁9 00
▁للدول تين:
M 2M
▁198 7.
▁الم سرح
▁busines s.
ar ry
▁''S p
▁demonst ration
▁p ipe
▁k ings
▁moder ate
DAA AQ
▁dec isions
▁bul let
▁empt y
▁الأ لب
r DAAAQ
https://books.google.ca/books?id M2M
rDAAAQ BAJ&dq
https://books.google.ca/books?idM2M rDAAAQBAJ&dq
▁office .
GB T
oc ent
▁''M y
▁expand ing
▁التش ري
▁المن ظمة
▁1 19
▁kill ed.
▁حصل ت
▁Al tern
ag ue,
▁(18 0
بر غ
▁w ick
▁guilt y
ag ers
خص وص
▁الثام ن
ور ،
▁sculpt or
▁control s
▁Comple te
▁الش ري
▁10 1
▁river .
▁age ,
▁m asc
▁vol unt
ار .
▁2 3.
ac les
▁tri als
▁ظ ل
▁C os
▁est imate
–19 7
▁Hug hes
ش ية
▁ك نت
▁ind oor
▁مص طلح
▁وب عض
▁v ault
▁Lank a
▁Park s
▁Lux emb
▁Q ual
▁f us
iz ed,
▁191 8,
▁C ustom
▁night .
▁Iss ue
▁r ated
▁ch amp
ar ies.
▁الح سن
▁ی اد
قط ع
▁l ady
▁ن ی
▁hom osexual
حد يث
/ c
-st ar
▁remember ed
▁cul min
▁ing red
om eter
▁مي خ
▁موا قع
ug s
▁الم عت
▁opt ions
▁enh ance
▁8 6
▁man ip
▁list en
le ase
▁الجم هوري
E G
أ ت
▁re ception
▁ت ول
▁reb ellion
▁Dep ression
▁In v
▁encounter ed
7 00
▁public ations
▁bo ost
▁O S
▁القد س
▁3 50
▁Again st
▁V .
ord inary
▁mole cular
▁G ent
or ne
▁ي رت
▁author ized
▁un employ
▁الع هد
new s/
z es
▁الإ قليم
▁colleg es
▁m yself
▁M ales
▁Pan ama
▁friend ship
▁ag es
▁writ er,
▁Pr ison
▁ق يادة
▁ع لام
▁Mon th
رة .
▁Bl oom
▁ف رق
▁Leg end
▁Lar ge
حص ول
▁انت شار
r ust
▁produc ers
▁Mary 's
▁ه ل
ac ular
ure s,
offic ial
▁p ier
▁restaur ants
%D8% AA
▁Ad olf
▁« ال
-se ason
r ,
▁م وت
▁المك سيك
▁U g
%D8%A7 %D9%
ou stic
▁اللا عب
▁C lement
▁direct ors
▁be er
urope an
ار م
ou ng
▁pros pect
▁ترك يا
▁be ars
▁س وق
▁Stan ford
▁B onn
▁الش ركات
▁I P
%D8%B 9
▁أ نا
▁196 2,
ز يا
▁Jul ian
▁Gall ery,
د ب
▁mus cle
▁. B
clud ed
▁term inus
e ur
▁un w
▁d ens
-S tar
▁Tourn ament
▁M ing
▁17 1
▁end .
▁s a
▁S olar
▁tal ent
▁A uck
▁Ne il
▁Ol iv
▁Democr ats
▁م يز
▁us e,
▁194 4.
itud es
▁Mon aster
▁Sus sex
- pl
▁ف قال
ß e
▁Sus an
▁S pect
ol ia
▁C yr
▁P om
N .
▁''' س
▁التج ارة
av es,
ap or
▁196 3,
▁الط ائرة
▁می‌ داد
▁resour ce
▁Sw an
▁tel esc
om ery
▁P or
▁altern ate
▁. cite
ich t
▁j ury
▁can on
▁Publ ishing,
ut z
ator s.
h art
▁الدرا سة
▁She ffield
▁bab y
ym ph
▁X I
▁associ ate
av ier
▁New port
انية ،
▁comp iled
▁S yl
▁( ح
▁Ital y.
▁consid ering
▁re ward
ول ين
▁conv icted
▁Mas ters
▁fe ather
▁U TC
▁interpre ted
▁ar ist
▁D im
ub a
▁ه ان
ار ع
▁ra w
▁Instead ,
-f oot
▁مص طفى
▁commit ment
▁de ce
▁دوا وير.
▁ست يف
▁د اده
▁Ed wards
▁Port s
▁W alt
▁الم وسيقى
▁soc cer
te chn
▁cab in
ult s
▁التق ويم
s, "
▁to ured
ist rict
▁e ating
▁er upt
▁الف ض
▁distingu ish
▁Pal mer
▁the ories
▁و َ
▁light ing
▁ي حي
وا فق
ic ago
▁Russ ia,
▁repl ied
▁p airs
▁war s
▁ج يد
▁184 8
S h
▁categ or
ig s
▁pres ents
▁Ap art
▁civil ians
rack s
▁رو ح
▁كتاب ه
▁compris ing
▁fle e
am .
▁port s
▁m ature
▁L oren
▁Nic ol
▁الق وى
▁dem ocratic
form ing
▁195 0s,
ung s
▁dog s
▁N intend
▁sus pect
▁الف يز
re ts
▁ص غير
ر ع
ig nt
▁pan els
f inal
▁Ply mouth
▁بال ج
اء .
▁(U S
▁form ,
خط ط
▁restrict ions
يد يو
▁repeated ly
ill on
▁l ip
▁per pet
ro e
▁G ö
▁tow ers
▁ن فر
c uss
▁16 2
▁Arab ia
▁15 3
▁wid ow
iqu es
▁run way
▁def ending
ش ري
▁F ul
▁plant ed
▁cle ared
▁ت ه
▁حال يا
▁large ,
▁cap abilities
▁aut obi
▁پ سر
▁tax es
▁depos its
▁Arm strong
ش ه
▁en roll
▁ب هم
▁b rak
م و
▁H ir
▁Ind ex
▁serious ly
▁person ally
%D8%A7%D9%84 %D8%B9
اد .
▁188 6
غ ن
▁( not
▁N R
–1 4
▁198 5.
▁( Y
r il
▁conf idence
ingu ished
▁C raw
ou x
▁Cap itol
▁cl ient
▁وه ذه
▁qu art
▁conqu ered
▁f ung
▁reform s
- Y
sk a
▁Per iod
▁المست وى
▁ل وك
ol on
▁K urd
%D8%A7 %D8%AA
▁7 1
▁M ick
▁state 's
▁باش د
▁ط ويل
V .
▁ob sc
▁talk ing
ش ی
ers :
ruct ed
▁l ens
▁th rew
▁بقي ادة
▁Har vey
▁el igible
▁''L os
▁Circ uit
▁أهم ية
▁deter ior
▁ن ائب
▁T ir
▁R oth
▁ne arest
▁School .
▁language .
▁الممت از
F or
▁Fif th
%D9%84 %D8%A7%D9%
▁In :
▁Colomb ia
▁الو ظ
an ium
▁s unk
▁cre ates
▁tw entieth
p df
st r
▁st ops
▁fire ,
cycl op
▁أ جزاء
▁Cincinn ati
▁d aughters
cc a
▁p ink
يو ت
ش تم
▁م ،
du ctions
82 %D8%A7%D8%AA
é d
▁s oph
▁D ame
يم ن
et ter
or ious
ولوج ية
https://books.google.ca/books?idM2MrDAAAQBAJ&dq %D8%A7%D9%84%D8%B9
%D9%84%D8%A7%D9% 82%D8%A7%D8%AA
https://books.google.ca/books?idM2MrDAAAQBAJ&dq%D8%A7%D9%84%D8%B9 %D9%84%D8%A7%D9%82%D8%A7%D8%AA
https://books.google.ca/books?idM2MrDAAAQBAJ&dq%D8%A7%D9%84%D8%B9%D9%84%D8%A7%D9%82%D8%A7%D8%AA مرجع
▁يم ثل
▁Mexic o,
▁ir rig
▁B ran
ّ م
▁الب اح
خ فاض
▁اخت يار
▁nov els
ott o
▁point s,
▁Air ways
▁sh aring
▁Wrest ling
▁stret ch
- owned
▁sail ing
▁Wik ip
▁m ph
▁V atic
▁أن ّ
▁control .
-th ird
▁g re
qu et
▁194 8,
▁بط ريقة
▁S ony
▁cl an
r s
▁20 %
▁develop ments
▁f ame
▁L ac
▁خ صوص
عد يد
▁198 4.
▁im posed
شر ات
j u
▁ك نيسة
▁7 9
▁Let ter
▁محا ولة
▁T ed
▁حد وث
▁Glou cester
I G
end a
▁sus pected
▁Gust av
: 30
▁ق يمة
▁الغ از
▁cor on
▁priv ately
▁impro ving
▁sac rif
▁vot ers
os ''
▁rel iable
▁deb uted
▁he ating
▁More over,
▁D h
▁وال است
air y
▁p el
▁History ,
▁الآ ثار
▁c ott
ید ا
om ical
▁191 4,
▁الز را
▁Lou ise
▁sym met
I F
▁K ra
▁Mer ced
▁Pruss ian
▁S ett
▁196 1,
onn ell
ore y
▁pro sec
ائ ص
▁العم ليات
uxili ary
▁17 2
▁إس ماعيل
▁L odge
o "
▁sympt oms
▁Sh a
▁A B
▁Ar ist
▁platform s
▁كث يرة
an ''
▁م كتبة
▁N ine
us k
▁ill ness
▁Pre fect
▁است ،
▁م وري
▁cart oon
▁ض رب
▁اعت بار
ic z
▁2 6.
▁al ien
▁C row
-H ung
▁las er
▁( an
▁Ch ange
▁text :
▁minut es.
▁" ت
ak ,
▁ Ö
▁attack .
▁depart ments
▁ه وا
▁''' الم
▁العالم .
▁المست قبل
▁يحت وي
/ B
– 20
▁gu ests
▁الجن سية
▁Venezuel a
ou b
▁V eh
▁cons pir
ices ter
aff e
s. com
ri en
▁11 5
▁ب ین
▁الأ ث
▁a us
▁D aw
▁canc elled
▁th rown
َ ا
▁inter mediate
te xt
s ).
▁So ft
▁Mach ine
▁S E
ag les
يم ون
▁undert aken
▁D J
▁g ymn
▁يش ير
ien ne
▁b otan
ist ory
▁prev al
▁مح طة
▁L omb
▁comple ment
▁ent ers
▁John 's
▁18 30
▁trav elling
hab ilit
ansk rit
am ar
▁198 0.
ذا ك
▁Municip ality
▁Yugoslav ia
▁D um
▁conv ey
m aker
▁se ating
▁volunte ers
▁L az
▁188 1
f r
▁phot os
▁Tact ical
/ L
▁Har per
▁aware ness
▁swit ched
▁to m
▁decor ative
▁mar itime
c aster
▁C ord
▁Sc ots
tt y
▁ج وز
▁ط ن
▁god dess
▁Domin ican
re p
il iation
▁tre as
▁Pict ures
ل بة
▁('' A
▁conj unction
د د
▁M obile
ري ج
▁Res ources
u ke
ang ,
▁roll ing
▁fe eding
▁مح لة
▁Verm ont
ى .
man uel
▁188 7
▁( at
ett ,
نا ف
▁I gn
▁س خ
▁election ,
b ank
▁Nott ingham
▁J ah
ست ن
▁f ires
▁estim ates
▁ox id
▁ع رف
▁Dar win
▁dep ends
▁Co. ,
▁cap ability
isc al
▁'' 's
▁C rist
▁ar ray
▁vir us
) "
-c ar
▁unc lear
▁M ull
▁ك ثي
▁ا كتشاف
▁c ord
▁rank ing
▁Smith ,
▁dat abase
'' The
▁sign ature
▁K ay
▁K as
ic ing
▁be ating
▁بال إن
▁conf used
▁autom atically
▁St rait
ep pe
▁susp ic
▁With out
▁movement ,
▁mass acre
▁" ...
▁Sh ir
▁198 0s.
▁الر وسية
▁ث ورة
in ates
▁م ول
▁الم سلحة
▁ق اد
▁collect ive
ون يس
▁G M
ک س
▁Bar oque
▁pre f
▁(18 8
▁Baron et
▁خط ر
ard ed
▁draw ings
▁trib al
▁Card iff
▁مط ار
▁" '''
▁in ternet
▁الل ات
ap ur
▁inaug ural
▁ت غير
▁ت وجه
نا ق
▁Mar io
ri ke
▁Acc ount
▁J erem
▁( un
▁ب كر
▁op ens
▁similar ly
▁emot ional
▁ع قب
▁15 9
▁Ind ies
▁alter ed
▁w rap
▁b io
▁A ch
▁ص دي
▁tour ists
au f
/ P
o ine
h ot
pe ction
لي .
▁deep ly
▁مم لكة
▁anch or
رية .
▁network s
▁Ven et
▁ي عتقد
▁د يفيد
os es
–1 2
-f ree
▁influ ences
O .
▁conf ront
▁favor ite
▁post er
ion s.
ري مة
▁نق ص
أ ي
▁trans p
ال جة
▁acqu ire
N C
ain ted
▁this .
-d r
▁Bl ues
▁Kn ights
b es
▁اح تم
▁Ern st
▁st age,
▁نم ي
▁school 's
st ers
▁F at
ie .
▁وا شنطن
▁ساب قاً
▁الم وت
لا ة
▁وعند ما
▁l ying
▁Est ate
▁accompl ished
en ary
oc ial
ري غ
▁Rel ations
▁Ah mad
▁round s
▁course ,
▁ear ning
▁pray er
▁م ونت
▁langu age,
▁km )
or ical
▁الخ دمات
▁O p.
▁Sud an
▁188 4
▁bar :
▁Tr in
▁exam ination
e ed,
َ د
▁م وجود
p m
▁cur ric
▁viol in
▁مهم ة
n e,
▁Com mercial
▁Pro per
ett i
ra ul
▁f ract
▁mem oir
▁struct ure.
▁Jul ius
▁sound s
▁age .
▁العراق ية
ان غ
▁9 3
▁الز واج
▁ص لاح
h orn
▁بي انات
▁الر جل
▁القد رة
iz ation.
▁do zen
▁نمی‌ توان
▁partn ers
ip el
▁التاريخ ية
▁ad equ
▁أس س
▁n an
che l
▁res iding
▁under graduate
-m onth
▁unve iled
▁''' ف
▁T unnel
▁M B
▁ro d
▁specim ens
▁C el
▁صح بت
▁''' .
▁الش ه
▁Princ eton
ش ئ
▁15 6
U R
▁S M
▁خ وان
▁Americ a's
▁f ing
▁stat es,
burg ,
▁space craft
▁ple ase
▁record ings
▁Girl s
▁or chest
▁N an
▁الس وق
▁Mar itime
▁month ,
▁C ox
▁15 8
▁Town s
▁red evelop
اص يل
▁m ang
▁J en
ram ent
ب ين
▁اسم ه
▁''L es
▁attend ance
▁re ef
▁Re ad
▁ح اج
▁Ad vanced
▁pal m
▁R oche
▁T ank
▁Bab yl
▁ی ه
▁manag ing
▁natur ally
▁quarter back
▁rid ge
▁أ ستاذ
on es,
▁Circ le
▁m ic
▁arr ive
▁Somers et
é c
▁winn ers
▁Mov ie
▁أش كال
▁Chall enge
▁t ag
▁by pass
▁(200 9)
▁ل ذا
خص صة
▁مؤ تمر
▁t ent
▁b ars
▁reb el
▁Friend s
wood ,
▁الوح يد
▁" un
▁Aut om
▁السا عة
▁m a
▁1920 ,
▁prohib ited
▁F ly
▁variet ies
▁ت وي
▁Rev ival
▁' M
▁equ ally
▁194 7,
/ f
- or
▁السيا سة
▁ в
▁M eh
▁ألم اني
ق يم
▁الم را
لة .
▁M use
▁2 7.
▁comp act
▁old ,
ی ف
▁rec ruit
▁9 2
▁9 7
▁خ مس
▁you .
▁acknowled ged
- for
▁ann ounc
▁virt ual
▁Gl obe
l ia
▁B ark
▁St arting
▁أب ناء
i em
ق ار
▁Church ill
▁Paris .
ak ov
att a
ish i
▁كاليفورن يا
es igned
▁رم ز
▁condem ned
▁R aid
▁f res
ap a
ich te
▁drug s
▁gl ob
▁circumst ances
▁ك لي
▁Ar sen
▁diss olved
▁" one
▁K em
▁art work
▁C ly
▁Copenh agen
ach i
▁household s,
▁C ret
▁T ropical
-b uilt
ك ذا
▁198 3.
▁ec osystem
i è
▁الأف لام
▁الأ حيان
▁ق ي
▁195 0,
▁Man ufact
▁Fa ith
رية ،
▁Mag ic
▁proxim ity
▁ما ه
▁أ ز
▁m all
as ia
. T
ب هة
▁دار د
▁المؤ تمر
اد ی
اس وب
▁الحق وق
▁For um
▁pay ing
▁R he
ra int
im s
▁independ ently
كان ية
▁مع م
▁ep id
▁قص يرة
▁الهند سة
▁imp ression
am ents
/ 3
▁9 8
▁گ ذا
های ی
▁197 0s.
▁autom obile
فت ح
az i
▁Wh y
▁nomin ation
ri o
▁194 6,
▁suc cess,
▁der iv
▁Broadcast ing
▁L GBT
▁Pl ain
5 2
▁4 4,
▁Montg omery
▁discontin ued
ا ين
▁d ome
▁و بر
▁Sull ivan
▁kind s
▁focus es
▁east .
▁C anton
▁S elf
وا ط
وي ،
▁N acional
▁aut hent
▁ه نگ
ch in
▁thr ust
▁volunte er
g r
▁un ited
▁Arm s
▁west .
▁report ing
▁g aining
▁ع اصمة
باد ل
▁ک ند.
ent ral
ين يات
▁dec ide
▁rect angular
im mer
▁sp ite
▁dist ant
▁Ind o-
5 3
▁invol ve
ch ron
▁D ragon
▁Gl ass
▁alleged ly
о р
▁The ory
▁م كون
um mer
▁3 60
▁الع رض
▁nob ility
▁أ سط
- way
▁vers ion,
▁Mont ana
▁فإن ه
▁Ram s
▁j ail
▁''O n
▁renov ated
▁anal ys
لا زمة
▁Stock holm
al am
▁(1 1
▁البلد ان
▁O x
▁inv aded
ire ,
▁15 7
▁تم ثل
▁Port rait
▁بی شتر
ا و
▁198 2.
▁الص حية
▁said .
ich i
▁R ice
▁bo om
▁accord ance
▁P ale
I nd
▁K urt
▁sound track
▁Luc as
▁الفلسط ينية
▁scient ist
t or
▁opt im
▁F ras
▁E aster
▁construction ,
▁Ab original
▁أخرى .
▁Rom ans
ath y
▁8 1
▁Can ter
▁تو ماس
▁laws uit
▁S ask
▁السعود ي
ذ ين
e i
نا ع
▁197 9.
▁aim s
ري اض
ryst al
▁sp ac
ظ ار
▁absorb ed
▁guitar ist
ان وني
▁Sh ore
▁Brit ann
▁الف لس
راج ع
▁sens itive
A merican
ع اء
▁الباح ث
an ing
▁scatter ed
▁K ol
▁reve als
▁busines s,
’ t
▁P and
▁187 1
-2 1
ض ان
p p
▁من ع
▁Cl aud
رج ال
ay .
▁الض غط
▁البدا ية
▁S earch
ast ed
▁ج واب
B N
▁L ey
▁Tim es,
▁neighbour hood
-b e
▁event ual
âte au
▁w elfare
▁ident ification
quir y
▁Californ ia.
5 1
▁الف رق
▁word s,
▁f are
cript ions
▁elabor ate
▁gu it
▁less er
▁Leop old
▁bl og
▁strong er
▁وك الة
if ax
ace ous
▁الأس ود
▁lic ensed
كل فة
w ind
▁t ong
▁س كنية
▁المت علقة
▁Gu atem
▁mart ial
▁الع ين
▁A G
▁en rolled
▁Ireland ,
▁cann on
▁north .
▁B irth
▁Fern ando
ح ين
▁form ula
▁علي هم
▁ش رح
▁appro aches
▁W ord
I ,
▁remov ing
▁Cab inet
▁Presbyter ian
▁ف لا
▁ال وف
▁v ig
▁بش أن
▁الن واب
w ord
▁f iber
▁ir regular
▁nam ely
▁بود م
▁month ly
if ier
▁o k
▁C F
-l anguage
▁dis agre
▁cl ergy
▁fa ction
▁government 's
ist ent
▁ست ة
▁الح مل
g ang
▁رو ما
▁ib n
▁Bruss els
/ 11
▁un t
▁le ase
▁sm art
▁techn ologies
▁field ,
▁H od
▁All -Star
▁إ يف
▁الح ص
▁C IA
▁contribut ing
p ic
▁vill age,
5 4
i ors
▁إ ند
▁pass ion
▁S ard
osp itals
▁تش كيل
▁تح رير
▁spec ified
▁علا ج
▁R ush
▁St ad
▁K id
um en
▁K re
▁rein force
om orph
▁آ ثار
▁surface .
▁البحر ين
▁الد ماغ
هل ية
▁A j
▁186 5
▁الأف ارقة
▁prepar ing
▁''' ن
▁س يل
▁Le ipzig
▁Id ent
▁الهي ئة
R )
im ensional
▁الت طور
▁Wat son
A P
l ights
▁arch ive
▁نسم ة.
▁crop s
▁وي ُ
▁Cany on
▁M ü
▁siz e,
ب ور
▁( 30
▁H ass
ج ابة
▁man or
▁Int roduction
ic us
▁rece iver
▁2 8.
it ory
▁Cauc as
- 30
▁S ikh
▁Ex p
▁ه جوم
▁prompt ed
ir ,
▁U se
or um
▁و بدأ
رب ون
▁16 1
h urst
▁الق ي
▁War ri
▁B elf
▁(200 3)
ف ال
int ed
▁Res p
▁Ch ur
▁15 4
▁built ,
▁ground ,
▁Veg as
in f
ot .
▁min istry
▁ف ق
fl ow
▁ولكن ها
▁ن گ
▁dep ression
▁ن ظم
▁ف ئة
▁col ours
▁M am
▁occur ring
▁Armen ia
▁ت زوج
pe cies
▁الن روي
▁withdraw al
▁ف ري
▁edition s
▁8 3
▁خوا ه
re cht
▁P os
▁''' ر
▁al gor
ak k
▁الأ عضاء
▁الك لية
عل نت
▁partic les
j ust
-b y
m ates
▁" pro
▁kid n
▁inaugur ated
ik o
-1 3
▁لل خ
▁H arm
▁Pres ent
u 's
ز ،
▁should er
▁د قيقة
S U
▁الك ت
▁Re ading
▁l ighter
ran o
▁rele ase,
▁s ung
- type
av es.
▁cour ty
▁meas uring
▁Web site
ple te
▁Theod ore
th ouse
▁نت ائج
▁Ow en
ig u
▁speak ers
▁sil ent
▁ب يد
ov an
▁الاجتما ع
▁و راء
▁الأ و
ed e
▁P all
oph one
iat ric
▁c ogn
▁191 7,
ق ،
▁A ur
ator .
▁BC .
orm al
▁نفس ها
▁الخ دمة
▁met ab
▁int act
▁engine ers
▁arm y.
▁construction .
▁R C
▁L ocated
س ور
▁V isc
▁197 2.
▁Kenn eth
▁197 1.
▁الع قل
▁المن زل
▁ce iling
وی ی
▁kilomet res
▁imprison ed
▁N as
od ium
▁الق ض
▁را ست
▁الا قتصادي
▁الز وج
▁kilomet ers
▁L av
▁mark ing
▁195 9,
▁ط رق
▁Sc ulpt
▁Val enc
▁d ressed
pl ane
in as
▁an arch
▁sent ence
▁C airo
▁K ill
eg al
▁simult aneously
v ed,
▁إ ع
ائ م
▁Ch an
▁Abd ul
▁السود ان
▁Berke ley
▁t et
ab e
▁الإس رائيلي
▁He ights
▁veter an
▁187 6
est ,
▁old .
▁re ass
▁out l
▁$ 1.
▁M ine
▁mo ist
▁Rel igious
▁197 5.
erg us
ok es
▁الأم راض
▁الت ب
▁T ext
▁I X
▁pres ervation
▁15 2
▁art .
▁يت علق
▁m aid
▁t enth
▁success ion
▁المؤ لف
▁Columb us
2, 000
▁Ger ald
▁rein forced
گ ز
▁Kingdom ,
▁الحكوم ية
▁ge ographical
▁ref urb
وب ل
▁Sc andin
▁'''' ''
ri et
ور ی
▁الروم انية
▁I de
▁fin ance
c ience
▁3 0.
▁للس يدات
▁بج امعة
▁197 0.
-d ef
▁الض وء
▁W orth
▁Emer g
▁lif etime
ut o
س لم
▁لدي ه
▁Chicag o,
- one
▁ح ماية
▁here ,
▁portra its
iment al
▁M oor
art en
V P
art e
▁stud ios
▁Camer on
osp ace
g rade
A ,
▁ذ ك
pect or
▁conduct ing
دم ير
▁Spe c
▁Pict ure
is ode
▁August us
▁Mar ian
▁D owntown
▁In teg
▁g est
▁Hill ,
▁deal ing
▁v it
▁Malt a
▁الن ص
▁Duch y
sw orth
i ad
▁ ~
ار سة
▁Le icester
▁c ig
▁O pt
▁6 4,
▁Fran co
St ation
▁f ed
▁b inding
▁Mar ía
▁Bob by
▁part ,
▁خود م
م لكة
▁sc ores
▁dec is
▁'' et
▁إن ه
▁Ce leb
sh aw
▁an at
▁campaign s
▁renew ed
he ed
b eck
▁possible .
▁o re
كتورا ه
▁ح اول
ik ing
▁sk y
▁l ith
–1 3
▁amph ib
ac y,
▁g ates
rand ed
AA F
▁وال ل
w ith
مد ة
ad en
ال ى
يو تر
▁emer ging
▁br ings
▁ال ور
▁US SR
▁wh ale
rest rial
▁pe as
▁Amaz on
سا وي
▁today ,
▁8 9
ins k
▁walk ed
▁Th urs
▁all .
▁tro ubl
▁mill ions
▁S iber
▁''A ll
▁الوا ق
▁م سرح
he nd
▁بح ر
▁condition s,
▁بگ و
▁n avy
iss a
▁occas ional
▁l ines,
▁ت ز
▁target ed
▁Liber ation
▁دیگر ی
▁Inter view
▁But ler
▁Conc ert
/ 4
▁أ صد
▁Act or
▁d ense
▁var iants
▁f o
▁travel s
▁low -
ne ver
– S
▁regard less
▁199 0s.
▁Face book
▁right ,
▁end angered
▁show .
▁Gu ang
راف يا
▁depict s
er ic
▁و حد
▁Ltd .
▁F amil
abl ing
ئ ی
ح رك
▁environment .
خل ص
▁fra ud
g io
▁امر أة
م ام
▁rele g
تم عات
day ,
▁back ,
▁stat istics
▁Alb an
▁ف رض
▁Nebr aska
le ft
▁Cypr us
2 000
S ,
ت ی
▁Mos es
in ation,
le ased
▁پ ول
▁T at
ung en
▁mission ary
▁Week ly
▁so .
▁Z ion
▁الق ل
▁centre .
l ov
▁all ied
▁Val ent
os hi
▁km /h
▁follow ers
▁social ist
▁batt le,
▁ −
amb ers
▁expl ains
▁oper ation.
▁الأف راد
لة ،
m other
▁Kaz akh
▁آ ورد
m o
▁b ust
ol in
ac y.
ه ج
em a
▁أغ نية
▁f ier
▁Tibet an
j ord
▁''A d
▁Re in
▁Santi ago
▁196 9.
▁har sh
ولا ً
▁integ ral
▁swe ep
▁Bes ides
▁ا قتصاد
▁(e. g.,
▁Mil wauke
▁مس ؤول
duct ive
▁nation 's
▁renov ation
C ite
▁I stanbul
▁187 8
▁الجنوب ي
▁s outheastern
در س
ne um
▁Nintend o
5 8
▁Cont in
est ablished
▁S ter
ob il
tt o
occ up
▁Ori ental
▁cyl inder
▁com ments
ه ول
▁circ a
▁arran g
▁there 's
▁188 2
it .
ج تمع
▁195 8,
▁198 1.
▁الرياض ية
▁' I
▁focus ing
ol ics
ن غ
▁Co ach
is le
ط ين
اب د
▁mob il
▁المبار اة
ounc ill
▁after wards
▁la ugh
ec a
–19 6
▁سا عة
▁Lanc aster
▁بد ا
ull ah
ant i
▁reb els
ون س
▁الأ رشيف
▁qual ify
▁ك وريا
رد د
▁Ar g
f ound
od yn
▁Agricult ural
as es.
▁ag o.
▁بد ه
l ing,
▁St ill
▁Act ress
L E
le e
T M
▁in land
cl amation
▁مت حف
▁bes ide
▁struct ure,
▁" الم
▁Lithuan ia
▁P od
▁شار ع
▁sole ly
▁Cla ude
▁Ch i
▁الأن واع
ك يم
▁K om
▁product s.
▁م من
▁Bul let
her d
را وح
▁veget ation
▁rend ered
▁Chem ical
al an
▁bor row
▁fest ivals
▁R aw
▁197 3.
yr ight
▁val ve
▁f ountain
it ious
▁'' l
▁re -e
▁sm oke
▁' C
▁er a.
▁S it
▁D ock
▁phot ography
ي ال
▁p add
▁R ac
▁G ott
▁( e
▁N ak
▁p. m.
▁C ave
▁contrast ,
َ ت
ij a
▁govern ed
▁w ished
▁186 4
▁enclos ed
▁belong s
▁sport ing
- air
▁the or
▁ال ابت
it é
▁her b
▁است ف
▁ass ert
▁رس الة
▁A ub
ed ar
▁R iv
▁('' M
▁district ,
▁r is
▁cre am
onom ic
▁Re ed
▁Ur ugu
▁Salv ador
▁M k
ward s.
art s
▁الع صور
▁القر ى
▁197 6.
▁می‌ک ن
▁M ilit
▁197 4.
قة .
▁شار كت
▁Frances co
▁ab ilities
ار ق
▁O z
▁yard s,
est ock
▁الق سم
ator ial
▁h ind
▁cent er.
قت ه
يك اني
▁الأسا سي
▁W onder
ick ing
▁act or,
è s
▁الع صب
▁purpos es.
▁fe e
وق ات
▁gather ing
a ic
▁charact er,
▁الث انوية
▁Ste am
ton 's
▁دوب اره
ain ,
▁186 3
▁gran ite
á r
▁بح لول
▁Geor ges
▁hol y
/ D
ک م
▁C M
▁الس ط
▁الر غ
▁Ant wer
▁في ل
▁ك بي
▁head ing
▁voy age
▁prog ressive
ri ans
▁Ch ancellor
▁ش يو
▁(201 1)
▁mut ual
▁tur ret
▁back ed
▁الب ال
اف ات
▁ن جم
it ated
▁th ro
▁R ah
را بات
▁Angel es,
▁Wed nes
▁''' :
▁mon uments
▁186 2
ial s
▁food ,
-m ade
▁E SP
▁child ,
▁cult ures
▁syn onym
▁Inc .,
r one
▁c ere
▁se eds
▁War wick
▁أ طلق
▁S iege
p es
▁197 8.
▁Arm y,
▁196 0s.
▁مع سكر
▁E is
er als
at che
▁P ione
▁g host
ien ces,
▁إ صدار
▁cl ust
▁r iver,
▁mon ks
.com ,
ح ان
nd ez
▁o ri
▁F alk
▁th read
▁الخ ص
▁V ick
g ment
▁play er,
ند ق
uche ss
▁193 8,
ات ل
▁prote ins
▁الن شاط
▁المنت خب
om es
▁ب ک
▁ind irect
▁space ,
cles iast
▁موس ى
▁ز ود
▁12 8
▁أ ست
كول ن
▁ب رج
er i
▁ل خ
▁nav igation
▁cent ered
▁Ass y
▁H undred
head ed
▁زم ین
ell ation
▁sam ples
5 7
▁Club ,
▁pro ceeded
▁ن اش
▁الج و
w alk
▁Per th
▁N um
▁نم ی
ant om
▁ح ا
▁TH E
ag ogue
ز الة
▁ك لم
▁lux ury
ard .
▁exhib itions
▁batter ies
▁ال ست
▁As ia,
▁ent repreneur
▁dyn ast
▁د وم
▁هم چ
▁مس لم
▁S v
▁t urt
▁att ribut
▁club ,
▁Merc ury
role um
▁Spe cies
▁induct ed
▁الج لد
▁ف ون
لا ث
▁ض ر
▁Und erg
▁P é
▁188 3
▁phys ics
▁liter ally
▁absol ute
m itt
or rect
▁activ ated
▁(M ay
▁التح رير
st ar
▁sil k
▁w ool
▁استخ دم
▁sculpt ures
▁oppos ing
▁Aff air
A )
▁وح صل
▁شر وع
▁end emic
▁ب مدينة
▁Pop ulation
t 's
اب س
▁t ens
▁الس يطرة
▁ت خرج
▁con cess
▁Mill s
ok u
▁ت از
▁1919 ,
يل ية
▁Ott awa
وع ية
▁e agle
▁h ook
z hou
▁cre st
▁وت رت
▁Ed die
▁large -scale
▁fail ing
▁الن ت
com b
▁right .
▁NAS CAR
ten eg
▁المح لي
اند .
▁المؤ رخ
▁sub ord
▁World 's
▁عمر ها
▁C olog
olog ically
▁W u
▁proper ly
▁model ,
▁c ement
as es,
▁Bu ilt
▁اع تماد
▁ک ام
▁'' h
▁D S
▁Bud apest
▁J in
▁S ed
o in
▁bad ly
ج ارة
▁"H e
▁Kun st
ول ية
▁النو وي
▁باعت بار
▁challeng ed
▁'' X
▁ن خ
▁Rom e,
▁bicy cle
▁D res
▁لص الح
▁Doc ument
l ore
▁S anskrit
▁round ,
▁p ace
▁integ ration
▁er a,
▁nort heastern
▁referend um
ود ه
▁form .
▁all ies
▁c ater
▁post s
ته ،
▁a rose
▁Th ir
▁"A n
جل ات
▁المع م
▁arm y,
▁ال يس
▁ت ولى
▁engine .
جز ء
▁ب وس
▁website .
▁اكت شف
▁enorm ous
▁comp at
▁intro duce
▁Strateg ic
▁Luxemb ourg
▁وت أ
▁run ner
▁including :
е р
▁bl ank
▁بل ه
▁the rapy
▁r ational
▁ح مد
▁inter act
▁cr ater
▁February ,
▁ت يم
▁or ,
یر ی
▁const antly
▁prison er
▁الر واية
▁reserv ed
▁min imal
▁mon k
وا ئي
▁اله ول
▁و ُ
يت ون
▁وي ست
▁d orm
▁opp onents
▁ر ف
▁Mar ines
▁و ارد
▁Mar in
▁st aged
▁الف قر
uff icient
▁نس خة
▁v acu
ill board
▁http ://
▁هول ندا
▁وس ياسي
▁V all
▁R an
▁10 9
▁Pl anning
▁(200 2)
بط ولة
▁equip ment.
▁Pro cess
▁overw hel
p ,
▁Head quarters
▁Carl o
▁proced ure
▁186 7
▁Ar n
▁sub urban
▁('' The
▁cruc ial
▁business man
-M ar
▁from :
▁rel uct
▁det ection
is i
ile e
ig i
▁پ یدا
▁Marc us
▁خ دمات
▁Car ne
▁الم فا
L )
g al
▁wh atever
▁med als
▁الز راعة
▁sal v
▁Men 's
k an
P G
▁con sec
▁ن قاط
▁Hab sburg
ر وض
▁Sp encer
▁ان ف
▁M umb
▁Em il
unn y
▁المن صب
▁حال ياً
▁خ ور
▁issu es.
▁P rice
▁avail ability
s m
▁point .
▁Al c
ins ky
▁broadcast ing
▁G overn
▁ins isted
▁tri ps
▁9 4
▁195 5,
▁measure ment
▁challeng es
▁We ather
▁وخ اصة
▁g ray
ri es.
▁At las
▁Second ary
▁agg reg
▁room .
m ud
وت ر
▁وم ح
▁spect rum
▁Ker ala
▁dise ases
▁2. 0
▁l oud
▁explan ation
▁Archae ological
▁mag ic
▁prevent ing
▁athlet ic
▁autonom ous
▁b ones
▁H ull
che m
▁Fer ry
▁194 9,
o op
▁p our
▁ا گه
▁الم طل
▁الب ناء
-se at
arm s
▁چ نان
▁sl avery
▁discip line
ic a,
▁d ining
▁Ep iscopal
▁''C on
▁re porter
▁J ava
e. "
▁أس ماء
▁195 7,
▁necess arily
▁Fin ance
▁demonst rate
▁ج نگ
▁نم وذج
- ex
▁recru ited
▁إ ير
▁195 6,
▁Albert a
ع ی
▁لل ه
▁لل من
ّ ف
▁( 2)
▁194 2.
uck s
▁er os
er d
▁2 9.
▁Hal ifax
▁cons ort
مل ت
well ,
▁Mond ay
▁d iox
▁ي زال
▁par ad
▁stage .
▁سم يث
es "
▁المس ؤول
▁sovere ignt
ز يم
▁d uration
▁explos ion
▁jud ges
▁stat ues
▁P engu
▁architect s
-s ur
▁بم ع
ي را
▁Tig ers
▁abst ract
▁un re
▁symb ols
▁Tw enty
▁Ar d
▁الد ار
▁ra ids
▁same -sex
ثق افة
▁Be ing
▁employ e
ich ard
▁' W
▁game 's
sk i,
▁non-f amil
% .
▁B order
▁theat rical
▁تطبي ق
r ill
▁- b
▁س الم
her s
t re
▁G aul
▁app rent
▁Indian apolis
▁inter ven
▁196 8.
▁assess ment
▁Relig ion
▁tro uble
▁ad mir
▁هنگ ام
ث ور
▁Out standing
i ology
▁J r
قة ،
▁ذلك .
agon al
▁University .
▁Par ad
▁arg ue
rit z
▁ت را
▁enem ies
▁الع شر
ax y
▁com merce
am ph
C l
▁engine ,
▁196 7.
▁film 's
▁Ast ron
▁ ’s
▁tob acco
os ing
▁الم با
▁al ive
▁comment ary
▁sh adow
▁Ec u
on ne
al e,
▁D raft
▁sp an
▁G em
▁battles hip
▁الأ ج
▁( د
الي ب
▁hour s,
▁announce ment
▁pro claimed
▁194 1.
▁flood ing
form ed
را غ
▁الإ شارة
ar f
▁Sh in
▁P t
▁imm un
ب ك
▁K rist
rib le
ش راف
am med
▁بل ج
▁H ood
▁إ ست
▁الملك ي
▁eth n
▁cor ruption
▁I ber
▁Auck land
ace ae
▁Rod rig
▁N ass
▁kn ight
▁South west
at ial
▁I 've
▁present ation
▁بن سبة
▁Benn ett
▁div ine
▁F BI
art ed
▁nam ing
▁Em ir
▁below .
▁لق رية
▁pri ests
▁dis ord
▁Bav aria
▁flag ship
▁الق مر
اف حة
▁dem ocracy
▁govern ing
▁ن يس
▁چ طور
▁critic ised
▁in cl
▁wild life
ens on
▁ep it
▁s oci
ish a
▁polit icians
▁شا ید
▁de er
▁ح قي
▁road .
▁S of
▁الأ ما
iffer ent
▁كول ومب
▁ut ility
i ott
ات حاد
ج ئ
▁الإ غ
▁Wag ner
▁' T
▁competition .
▁unit s,
▁popul ated
▁All an
H P
oc es
ik es
▁ض غط
▁Vir t
ف يد
▁F lem
وت ي
▁الن جم
▁البشر ية
▁cru ise
▁m ath
▁pl ug
▁ج ذ
he s.
le z
▁expl or
▁H els
▁St ore
▁facilit ate
on te
▁Provin cial
باد ئ
▁campaign ,
▁pack age
O ,
▁R T
▁أ راضي
im et
ab s
. '
abl es,
é ,
▁S hen
▁acc us
▁Division ,
h ow
ul ates
يل ون
▁كري كت
▁farm s
▁Cl if
▁cent er,
مل ية
▁الم اض
▁island ,
▁bow l
▁خ واب
▁عد يدة
▁ج ير
yl er
▁186 8
ب س
▁Lanc ash
▁exper ts
▁t unn
▁دي گه
▁Anal ysis
▁3 000
▁Compan y.
▁س وس
أ ل
▁t ut
▁peace ful
▁k in
▁dyn amic
▁monitor ing
▁program s.
▁ر نگ
▁cor p
▁س فر
یم ،
▁ب ورت
▁F un
▁lov ed
▁بص ورة
▁psych ological
▁f inger
▁est ates
▁السب ب
▁sp ur
▁prov isions
ع زيز
- Q
▁W end
▁193 0s,
▁فر ع
▁athlet es
▁الن قل
▁l an
▁he ter
ard i
▁pup il
▁milit ia
ar a,
▁أ وس
▁t ension
▁sl opes
omm ission
ag i
. ”
▁, ''
▁الإنج ليزي
▁vic inity
▁d iving
▁vulner able
▁ed. ,
▁f ru
▁البي ئة
▁R A
▁تس جيل
▁T alk
▁G P
▁Bel arus
▁مجم وعات
▁cult iv
▁ح لب
▁J ung
▁الت طبي
▁T ask
▁poor ly
▁الرسم ية
ن ر
▁d ubbed
▁pract iced
▁ن با
▁V a
▁ق ابل
▁fac ade
▁Academ ic
▁Ah med
▁B ru
▁المثال ،
▁T iger
ount ry
enn es
▁گرفت ه
▁إ ح
▁الت راث
ه ُ
▁تع ريف
▁Rec re
▁conv ict
▁lack ed
▁att orney
▁Staff ord
▁pers pective
▁Philosoph y
▁تع ود
▁N u
▁الت عاون
▁الب لا
▁Ed win
بي ه
▁arm our
▁exhib its
▁واس عة
/ F
▁can cel
▁oper ators
▁ch im
▁نش ان
▁leg ally
▁last ing
▁adv ised
▁الع قد
▁Ant iqu
▁custom s
qu is
r ington
it ative
▁(A )
▁w ake
▁long .
▁reg istration
اه ز
▁block ed
▁Library ,
▁بد ء
▁ب سي
▁187 7
▁Vatic an
▁furn iture
▁ت زال
▁ph on
▁Mon teneg
ا حة
▁خ دمة
st ock
ect s
▁قب يلة
▁ج ما
▁الاست قلال
v ements
▁H im
▁Al pha
▁فر قة
▁conflict s
▁ن جاح
رم ز
▁Children 's
▁Sol omon
▁l ion
ام ب
▁pred icted
▁مف هوم
▁Merced es
▁phil anthrop
▁می‌کرد .
▁battal ions
en ess
ia o
▁My st
▁الش ريف
▁ين ت
▁protect ing
▁Gen eva
▁s urn
▁D ale
▁football er
▁purs ued
f ried
▁config uration
▁Ch a
▁الط عام
th al
▁وال ز
▁Phill ips
▁deploy ment
▁dis order
▁لدي هم
ro ,
▁(M arch
▁purs uit
▁م كة
َ ب
▁10 8
▁title .
▁المركز ية
▁car n
▁Other s
▁Azerbai jan
st er,
oth ing
▁Let ters
art ime
▁ال وس
▁d ur
لي دي
▁Be a
▁dec ree
con nect
▁an x
▁stat es.
▁سلط نة
ugh t
▁Gu adal
▁Im pro
▁tact ical
T ,
f a
let ,
▁ и
▁Cong o
▁أ لعاب
▁ج غ
▁197 7.
▁story ,
▁calc ulated
▁"Y ou
-w heel
ram id
▁193 7,
▁equip ment,
ul i
▁تق رير
▁B achelor
▁m elt
▁( ن
▁collabor ated
▁ال هدف
▁problem s.
▁ل إن
▁نسم ة،
▁( ج
▁P ine
▁يست طيع
▁t ran
▁pron ounced
▁mar ched
▁gradu ating
▁sand stone
جل وس
▁B end
▁Soc cer
▁, "
▁Rey nold
c os
▁الج وي
▁ant ib
▁resear cher
▁Dur ham
▁cinem a
ik k
▁themselv es.
ح اق
▁1 )
▁رب ما
▁N g
pe z
▁support .
▁ذ ي
▁إ سلام
▁ass ign
–19 3
▁remark able
keep er
▁(200 1)
▁'' ).
ow l
▁Nap les
▁L '
▁ع ثمان
▁H off
ی ؟
▁الأ ور
ass ic
▁d ivid
ad h
▁195 4,
▁oper ations,
ير ،
ill ance
▁(E d
▁l obby
▁E b
son ian
▁أس رة
▁Acc ess
▁Patri arch
▁A 3
r ators
▁board ing
▁Belg rade
ov ed
وي تي
▁rele ases
▁propos als
▁to urs
▁B otan
▁cities ,
▁Not able
▁Vict ory
▁ف ی
▁hol es
▁guar ant
▁en listed
E l
com p
▁9 1
▁Col in
▁any where
ّ د
▁ب چه
▁الثق افية
ra ined
fic ial
▁A w
▁کوچ ک
▁Ports mouth
▁H oll
▁Not re
20 ,
▁role .
▁park ,
so le
▁انت خاب
▁A aron
▁د ليل
▁Or land
▁187 5
▁B agh
▁D oll
▁climb ing
▁Res ident
▁W att
غ ار
▁ce ase
▁L un
▁195 3,
▁week .
▁range .
war f
▁أ صول
▁ر وي
▁destroy ing
hist oric
▁دولار .
▁torn ado
ar row
▁agg ressive
▁H M
▁N ancy
▁Play ers
▁الإس رائيل
▁d ancing
▁pen insula
ph an
▁over th
▁Le vel
▁الن شر
▁Council ,
▁French ,
▁أ جهزة
▁Budd ha
▁ ·
▁G ael
▁والم ت
▁b ind
ني ع
▁187 2
▁l od
▁I g
▁stamp s
▁Ch rys
▁flo ors
▁sur prise
▁ر وس
▁م ياه
▁prot agon
▁Bund es
ri um
yt ic
it us
o '',
▁commun ic
▁force .
▁surviv ors
act ivated
▁di agram
▁s ank
▁درب اره
▁ح الت
▁ح كوم
▁rev olt
▁تح ويل
اد ا
▁وأ صبح
▁Lithuan ian
ب اء
▁C rom
▁F ergus
S I
▁own s
▁R ural
op t
▁196 5.
▁conduct or
▁sur pass
سا ً
▁cut s
▁gu ided
▁Com ics
▁innov ative
at a''
▁البرت غال
od ore
▁non-famil ies.
▁ي سمح
▁circ ulation
▁occas ions
▁Aven ue,
ak u
▁bar rier
▁وق ام
▁ذ ه
▁m ant
▁H alf
▁الم لا
▁ش ت
▁و 201
▁ع ائل
▁exp elled
in ces
per m
▁186 6
▁187 9
▁club .
▁س نت
- he
▁G ol
▁met all
▁L ed
▁194 0.
▁4 ,000
▁آ رام
▁ري تشارد
▁Ber k
E d
▁مج تمع
▁curren cy
▁not ing
ه ولة
el ong
ot ted
iz ations
n b
um i
int o
▁south western
▁مل عب
▁N J
وف ة
▁command ing
غ رب
لا ه
▁Br as
▁K arn
▁att itude
-w inning
طب اء
▁dial ogue
o ise
▁St ories
5 9
-p owered
▁pun ishment
▁D ies
▁US ,
w orld
▁ceremon ial
ر في
▁un lik
وز ي
▁find ings
▁يون ايت
▁societ y,
و اريخ
ش اركة
▁ref lection
▁leg acy
t el
▁M aid
ut a
ley ball
apan ese
▁لكن ها
▁العثم اني
▁mos que
▁H aven
▁D ud
▁continu ously
oc hem
▁v acc
▁الع نف
▁Jud a
▁E ve
▁إد وارد
▁observ ations
▁b is
r ug
▁gener ations
▁national ist
▁Gram my
▁conv oy
▁c ust
▁beg inn
▁ع ش
▁Tour ism
▁feel ings
▁V ed
▁خ و
▁attack ,
▁B R
▁ت وق
▁ل كي
▁ه ما
▁194 3.
▁والم ع
▁الن ز
▁196 0.
▁today 's
▁Elect ronic
▁A us
▁الط يران
▁squadron s
▁d ign
up iter
▁الق ن
ins ul
▁إ طار
▁كتاب ة
▁Exam ples
all ow
سي كي
▁Play Station
▁E g
▁"N ew
▁micro sc
▁h ur
▁Hug o
d an
▁( آ
▁Hop kins
▁آ س
▁s its
-g ame
▁after math
▁Church .
▁z ero
▁ک جا
▁ت وس
▁الق يام
▁concept s
▁hop es
▁dis k
م وقع
▁as ks
▁st rain
-d imensional
▁D und
▁mel od
▁post hum
▁instit ute
▁187 3
he ng
ar 's
▁m ast
▁L R
▁أ ذ
▁sh rine
▁publ ish
و ظ
▁h ide
ew ater
▁new er
е н
▁loc ation.
▁8 0%
▁grow s
M ,
▁يق دم
▁disband ed
▁Jes uit
▁compl icated
▁h urricane
ell ers
▁المم كن
▁K ate
▁Eug ene
▁col ored
▁قر ى
▁cong reg
▁Bomb ardment
et s.
▁تع تمد
▁expl oration
▁أخرى ،
▁Aber de
▁درا سات
▁societ ies
st en
▁ar bit
▁dig it
▁to ,
▁F ra
▁قال :
▁propag anda
. D.
ar ine
▁G ul
▁كم 2
col m
ur u
با ك
▁(J uly
ent ry
▁le ased
▁part y,
▁Count y.
▁في ر
راف ق
m us
▁Ad rian
▁ex empt
▁to ile
ann on
▁193 3,
ّ ن
▁س يف
is dom
▁Associ ated
▁Herman n
er "
ro ft
▁د خول
▁l ung
▁compan ies,
ید ن
▁ins urg
▁veloc ity
E n
eor ge
▁phenomen on
▁stri kes
▁(G erman
▁inst ance
▁draft ed
▁urg ed
▁dis pos
er )
▁النف ط
▁(201 2)
▁أن ط
▁المتحدة .
▁' P
-0 1
. html
▁الأ ند
▁3 0,000
▁Corn el
y on
▁193 6,
نا ً
▁مد رب
▁direct or,
▁facilities .
▁Direct ory
▁الحيو ية
▁L ap
▁part y.
▁Scot ia
e av
l ong
▁reop ened
اب ين
▁م لف
▁ي صبح
pr ising
▁died .
▁''I nd
▁ten ure
ض يع
ra id
▁off .
be it
▁deg rad
▁Mexic o.
▁و يس
▁( to
▁P itt
▁W it
▁ش غل
▁sp here
▁album .
▁ال رك
شر ت
▁doct rine
خ ال
op ing
▁January ,
▁flo ating
r ide
u es.
▁L enn
is ure
▁Stal in
▁coll ision
▁song ,
▁rul ers
▁الح سين
▁Col ony
▁تح ليل
▁''P ro
▁Carol ine
▁و صول
▁أم ين
▁competition s
▁crew s
▁Honor ary
ver age
▁stat ements
▁(201 0)
▁عض وا
▁Similar ly,
▁B ast
▁أ سر
يم ياء
▁ت سبب
▁adopt ion
▁آ یا
the l
خ ف
▁att ent
▁w agon
لي ك
-l ar
erson ,
▁vol cano
▁الشخص يات
ب عد
▁market ,
ort ic
▁(19 80
▁191 5,
al is
▁( 0.
▁pres um
▁''B illboard
▁instead .
▁و ست
▁Cath olics
▁Kn ox
▁H ack
▁وف قا
▁prest igious
g s
▁الد ع
▁S O
▁A u
▁الق ائمة
clesiast ical
▁ي غ
c ock
▁المع ركة
ه ى
▁control ,
▁rid ers
▁poly mer
ع مر
▁as ide
▁ه د
▁enh anced
l ich
▁Day ton
▁S ons
▁ra bb
▁j aw
▁c av
قل اب
A nd
▁film ing
▁Ter ror
▁pro c
▁R anch
ir ie
▁R up
▁بعض ها
▁advoc ate
▁base .
- eng
▁نزد یک
▁br ass
▁thir teen
ar re
▁l ig
▁History ''
▁أغ لب
▁Clark e
▁E ra
▁ومن ها
▁يونايت د
▁c reek
▁R ib
▁ن گر
ur rection
▁G et
▁الب يت
▁surrend ered
▁or ch
▁الو حدة
▁R ally
▁v ibr
▁الت هاب
K .
▁(J une
▁حم لة
▁تشار لز
▁ف في
▁v est
ott a
▁but ,
سب ق
▁head .
▁الإ ف
▁Pot ter
▁( one
▁mathem atics
▁I st
▁Pro s
▁G ir
▁ †
▁S uccess
▁V e
▁h atch
▁He aven
▁196 6.
▁193 0,
▁ped estrian
utt gart
▁f ever
لي ،
▁حر ارة
▁D '
▁tra ce
ط ى
▁Mar l
ae us
▁Aut o
▁المؤس سات
▁Ed gar
▁prom ise
em ark
▁play ,
▁chass is
▁Pr iv
id ge
▁t aste
▁191 2,
▁W ick
▁البر امج
è ne
im ar
— and
▁C ut
▁war ned
ار و
▁Moroc co
n ance
▁w onder
▁jud icial
س .
im ony
▁prov en
▁imp ressed
▁m aj
▁nation wide
▁Associ ation,
▁الك ون
▁Deuts che
▁G ospel
▁graph ic
▁Rif le
▁L A
▁September .
▁imp ressive
▁campus .
▁تص وير
▁خ رج
in ite
▁ت ابعة
it ely
▁dep ot
▁ne ur
▁ق ن
▁wel com
▁ad mission
▁phys ically
▁cool ing
▁b il
▁191 0,
–1 1
▁Gl ac
al id
▁وال آ
▁cert ified
od el
▁195 2,
▁0 1
▁Sh ield
▁الإسب انية
yl um
n .
▁inv ention
▁tr unk
▁e uro
▁ا خ
res .
▁السلط ات
▁الم ريض
▁الس بع
▁sw ing
x imately
▁Econom ics
▁Sax on
▁Cris is
▁P ink
▁الن قد
ra ctions
▁ال هر
▁ت وم
▁Hol mes
▁طول ه
▁controll ing
ur se
▁access-date 201
▁Cal c
▁196 4.
▁trans formation
▁prot esters
is ed,
▁Cent ur
▁pup ils
▁b uck
▁exp ense
▁Mil ton
▁Coal ition
▁Ver lag
▁Oak land
▁comp ounds
▁آ ز
▁السوفي تي
s mith
w ait
▁se a.
▁ben ch
▁ت وزيع
▁head ,
▁ف اس
ist ence
▁host ile
▁vers e
▁ с
▁B ever
▁(A pril
▁Ed itor
▁ال وع
ch w
▁التأ ثير
▁Ly on
ñ a
▁D w
▁Tr ue
ra il
▁D id
▁al .,
▁وأ س
▁watch ing
ك ش
ذا عة
رج ل
▁war n
▁divor ce
▁ب ِ
p g
▁L ines
▁cryst al
p ark
▁ship 's
T E
▁market ed
iz a
▁bus h
▁Gh ost
▁ملي ار
ers ''
▁9 0%
رف ض
▁N urs
▁Bl ake
uk h
▁performance .
c in
▁pot tery
▁Canter bury
▁custom er
▁Spain .
ç a
▁الأ ندية
▁God ,
▁Work ing
▁يت بع
▁record .
▁UK .
▁S aw
Ar t
ش و
▁K ais
ler 's
▁(1 .
▁ي بدو
▁father .
▁Land mark
▁femal es,
▁ 00
rol ley
▁New s,
ح ه
وري وس
▁dem olition
ب غي
▁لاع بة
▁Mid land
p ie
▁ق ت
▁he ll
▁equ ation
▁coast .
▁Mar vel
▁collect ing
-t ailed
▁z ones
▁contract s
▁B ibli
▁Just in
▁cru iser
▁Mur phy
▁f ate
▁G amb
▁V oice
▁car riage
▁phys ic
▁M is
و ية.
▁am id
▁bank ing
rot e,
▁now ,
▁fut ure.
it he
▁in ver
▁be et
▁Pro duct
h im
and ro
▁ت ام
▁187 4
mann ,
▁al arm
▁author ,
▁st uff
▁س وى
b oat
▁م قتل
▁''C ol
▁d il
▁Cl in
جم عية
سكند رية
▁A ri
re s,
ind a
▁الف صل
▁تع ني
وت و
▁م كت
▁mans ion
▁Compet ition
▁Tod d
غ الي
▁ك اب
▁band ,
▁away ,
▁assass ination
▁3. 0
▁1 -
▁ep ic
▁g ast
▁کار ی
▁Vi enn
▁pre lim
▁Russ ia.
l at
▁( of
▁وال مد
▁top ped
f red
▁I -
▁ي من
▁T oul
▁expl ore
▁الفن ون
▁Her o
▁قل عة
كت ي
▁rev ived
▁adv ocated
▁ch ip
1, 000
▁M TV
▁N ath
ر ،
▁cont rad
▁Cl imate
▁Les lie
▁are na
own ,
▁investig ate
▁Fem ale
▁compar able
▁c rypt
▁b oss
ig raph
▁''R e
ID S
▁ال ارت
▁month .
▁مع رفة
▁s ink
▁under lying
▁Mac D
▁5 0,000
st orm
ch urch
▁(2 5
▁season al
▁battle .
▁Gib ral
▁D uchess
▁أ يرلندا
ين '''
بر د
▁link ing
▁synd rome
▁plan es
▁ های
▁p ound
▁''' ق
▁191 6,
▁artist ,
فن ون
ad io
▁north western
▁البر لمانية
▁L é
▁می‌د ان
▁action .
ess a
▁الديمقرا طية
ib ald
▁found .
es que
▁hyd raul
ar s,
▁lo ose
▁m ouse
▁An a
▁Gar c
ll er
▁H IV
▁T otal
▁Dev il
▁السل وك
▁Pow ell
▁Alb ania
H e
▁res on
▁ac oustic
ius eppe
▁Tradition al
▁L och
▁mov ies
▁special ist
▁Belf ast
▁sc andal
am y
▁مص ري
▁Athlet ics
ذ ج
وا ح
▁motor cycle
▁merch ants
▁rec on
ok ing
▁US AF
▁Sher iff
or row
▁Observ atory
G S
▁لع زلة
ac ific
وس طة
▁الت ك
pe ,
▁pot ato
▁bas ement
▁share hold
طل قت
▁دن بال
▁وق ع
ار بة
▁Lancash ire
▁network .
▁Toy ota
▁للع مل
▁under go
▁B erm
▁للا ست
j ud
▁Tri ple
▁185 7
▁186 9
▁m )
▁ر ام
▁أغ اني
▁Jul ia
▁cuis ine
▁champ ions
▁( pro
▁activ ists
▁التص وير
▁reserv es
d orf
عب ة
▁III ,
▁Col lect
/ 10
▁commemor ate
▁sh irt
▁tri umph
▁s aving
rop od
b ie
▁S L
▁before .
▁لم س
oura ble
▁Min ne
▁ك ويكبات
▁care fully
▁road ,
ب ري
es a
est e
f ol
oc o
▁تت كون
har les
op ular
وف ا
▁force ,
▁حق ق
in os
▁M ugh
ان ع
ov sky
oc ate
▁grand son
▁sn ake
▁pow der
▁l in
▁D ow
▁round .
▁cont empor
▁rel atives
▁famil ies.
ان گ
▁cities .
▁Bad en
▁magn et
ou is
▁per cuss
زا يد
og h
▁زی را
▁ax is
▁man eu
▁alph abet
n is
ِ ل
▁w rote,
cy l
▁re habilit
▁BC E
▁prem ier
haus en
▁المح افظ
▁Maced onia
▁Tom my
▁har bor
مر ت
▁La ura
▁"T his
▁bomb s
▁El is
▁الطب عة
▁to oth
io let
▁hon ored
: ''
▁('' B
▁إ يه
▁August .
▁آن ذاك
▁Fact ory
er os
– M
▁R &
▁Illust rated
▁compan ies.
▁resemb le
▁هي چ
▁Bed ford
og l
▁webs ite,
▁Com edy
M P
▁ي طلق
▁sub mar
omet ime
▁التالية :
▁ع ج
▁theoret ical
▁train ing,
m art
▁مو اد
▁st olen
▁الط رف
▁M ikh
▁out s
▁I sh
▁المرض ى
ان '''
▁الدست ور
res cent
rif ied
ا شت
▁p ep
▁mother 's
O D
ar u
ue .
▁2020 .
▁Sebast ian
▁r ises
▁Occ up
▁guid ance
▁V ery
oz o
▁U m
▁know s
ath a
▁ص حيح
▁الف ار
يان ة
clus ive
it or,
▁I D
▁frag ments
▁spot ted
▁un con
▁16 00
bour g
▁f rig
▁M ant
▁film s,
▁bur st
▁graph ics
▁M W
▁K w
▁ها ي
▁C raft
▁B ott
v or
▁f rog
▁Le h
خط وط
▁P ole
▁المع اد
▁consequ ence
▁Jane iro
ic ul
▁الل ون
▁substant ially
▁الد نمارك
▁polit ically
▁ما ك
an a,
▁An imal
▁week ,
N S
as so
▁T omb
▁الأك اديمية
▁الثلا ثة
u ard
▁P aper
v e,
▁آ ي
▁أ ظهر
وش ي
▁T ues
▁died ,
end ers
▁fort ified
▁bacter ia
▁V inc
▁Educ ation,
▁Offic e,
▁م الي
ها جر
▁decl aration
▁international ly
▁depos it
▁four teen
▁fres co
▁econom y.
ُ ل
re a
ing ''
isp here
▁الف ني
▁(J anuary
▁Fal con
▁F ont
▁ص ار
ين )
▁tox ic
▁m old
▁expl ored
▁M ile
▁rec onc
یر ه
▁wrest ling
b ,
▁ Đ
▁reg iments
▁تت ضمن
▁خ ش
▁الس با
اي ير
▁L ah
▁em issions
▁complet ed.
▁Emerg ency
▁Con vent
ar ians
▁d ying
w oman
▁c ros
▁tra ces
▁الصنا عية
▁int ensity
يف ا
▁gen es
▁bar ri
ج ون
▁harm on
▁not ,
▁الن هر
▁pre t
عم ار
▁al k
▁over come
▁En s
▁R ever
▁bl ast
ین ی
▁magazine ,
ric a
▁Car roll
▁aest hetic
C )
يس ى
▁enlar ged
▁k e
ل ل
▁surf aces
R e
▁يع تمد
te c
▁بم وجب
▁Publ ished
c y,
▁M orm
▁project ed
▁مع رض
▁F oster
ته .
▁or th
▁أر سل
▁McD onald
▁S oci
▁than k
▁Compan ion
▁r h
▁وم سا
-b it
▁research ,
▁eat en
▁N O
وح ات
▁المث ليين
▁ع باس
▁ك وك
▁em blem
▁Chel sea
▁lun ar
▁territory .
▁K rak
▁ML B
▁br ut
▁وس ام
t ail
▁C ork
▁ف كان
▁196 2.
m ail
غ اء
▁Man or
▁4 :
▁تقري با
ond e
▁مد ة
▁s au
▁Chem istry
▁V id
▁nom ine
▁ab olition
▁195 1,
▁coun sel
▁d rown
▁مص ادر
▁P eg
▁ت لفزي
▁J ain
ens ing
abl o
▁annex ed
E x
▁P ain
▁Addition al
▁النها ية
▁instruction s
▁الف عل
▁10 3
▁sw amp
▁to uc
oy a
▁Song s
▁All ies
▁special ly
▁legend ary
▁الت ابع
▁Man ch
id es,
ator ies
ح ركة
▁Alexand ria
▁" sh
▁sustain able
row th
▁inher it
L ,
▁Kr ish
uk u
▁compris ed
▁up grade
▁shr ub
▁تا يل
▁Sum m
▁الش اعر
▁Mad onna
ائ ن
▁الأرجنت ين
▁Scotland ,
▁Wor cester
▁f ro
om i
▁G ibb
▁cl othes
▁يت كون
▁ع يد
▁organis ations
▁(201 3)
▁rout e.
os eph
▁load ed
▁Phill ip
▁present .
▁synthes is
ic ism
av i
اك مة
▁Ev olution
▁خط وط
▁Os lo
▁الر عاية
▁193 5,
ار ير
▁sp ell
قا ذ
▁Sac rament
▁د .
af e
بع اد
▁متر .
▁Al m
▁العلا قة
н о
▁ch ore
▁ch a
▁Sum mit
▁H ut
▁Par agu
▁pl um
ck er
▁Dou ble
ian s,
▁artist s,
uck er
▁انت خابات
’ ,
▁ال الت
flu ence
▁K iev
▁h aul
▁Corn ell
▁فع ال
▁minister s
▁mult ip
▁collaps ed
▁N E
▁ف ول
▁Bo at
▁Win ston
▁god s
▁م ادة
ish ,
ft w
▁الص ورة
t lant
▁ro s
▁م سي
▁term ed
▁Ge ological
▁Gl enn
▁kill ed,
▁Tur ks
▁الف يديو
▁بود ند.
▁Yank ees
edd ed
▁ن جد
▁Z en
- known
ion ed
▁( في
▁vide os
and ing
▁الأ سط
▁fe ared
▁الميل ادي
▁C rystal
▁3 1.
▁n ave
ep ort
▁(1 )
▁"I f
▁unlik ely
▁fact ories
▁185 9
▁terror ist
- play
▁Sac red
▁abs ent
▁in ch
▁C ock
bur y,
▁non- profit
x i
▁M oss
▁الم اضي
▁Res c
الب ًا
▁Y emen
▁آن ها
▁work er
▁لي ون
▁def ine
▁f eder
▁crown ed
▁match ,
ber ger
▁C ert
▁مي ک
▁ل ون
▁40 %
▁sk et
▁C lear
▁cl ass.
▁الإ ست
▁speed s
▁سلط ان
on ge
▁T ud
▁الرياض ي
▁aut o
▁المن ش
4 /
▁d ate,
▁H ang
▁ت رجمة
▁Ex cell
▁(O ctober
▁rec ur
▁الم وضوع
▁past ,
-4 7
▁G DP
▁نشر ت
clos ed
▁بر خ
▁my ster
▁الط يور
▁cur ve
▁ship ped
v y
▁mod est
▁Wind sor
▁Bey ond
ing le
▁rel ax
▁(p art
لم ي
نا ح
oun ce
▁الش ت
▁Che roke
▁ri ot
▁T ru
▁ins pection
▁fe ast
▁animal s,
▁Plan et
▁س قوط
وائ م
▁level s.
▁لعب ة
▁Bur ton
▁ر فع
red it
ina e
▁activities ,
▁editor ial
يت ر
ad ic
▁هم یشه
el ly
▁Conc ord
▁nickn amed
▁sol utions
▁sister s
ro let
-b re
ste in,
▁H ors
shire ,
▁san ctuary
▁constitu ency
▁ign ored
▁' D
▁Prog ress
▁bl ess
▁Bur m
▁illust ration
▁precip itation
▁ن ُ
▁Jama ica
u ated
▁not .
هر ان
▁والم علومات
از ف
▁Paul o
▁d inner
aut hor
ای ی
▁Ch ase
▁D ew
bor o
▁C T
▁الق يادة
وسي قية
▁comput ers
▁Wes ley
▁As ia.
▁بال ط
▁ μ
al ter
▁R achel
ng el
▁deb ris
ريط انيا
▁m oth
▁Y u
▁em ission
ach ute
ocol ate
▁أسا سي
▁18 12
▁inter val
▁small est
▁mess ages
▁Mr s
يل ،
▁In side
▁grad es
▁Bor is
▁Rud olf
ed o
▁س لاح
▁الأ سلحة
گ ان
a q
▁Carne gie
▁h urt
▁إ نت
-2 5
غ ول
att y
▁occup y
▁ل يف
▁Mem ph
▁reflect s
▁B A
▁but ton
▁inter ference
.com .
▁و سي
▁ف ارس
▁D art
▁husband ,
▁Sic ily
▁T D
ur k
▁La ur
▁liv estock
▁سين اريو
S ax
▁Filip ino
▁ذ كور
▁in ex
ov ina
▁Fel ix
▁Colog ne
▁facilities ,
▁round ed
▁مر ور
ان ج
▁196 3.
-W est
▁rot ation
▁و اعت
ov es
▁left ,
h aw
▁س رد
▁dis place
▁س خت
ceed ings
▁pur ple
▁''' I
نا ول
▁رس ول
▁عل وم
▁craft s
▁tru ly
▁حر کت
▁order .
▁Hous ing
أ لف
▁g ly
▁Sim pson
▁fus el
▁أق دم
▁b og
▁Australia 's
▁h ospitals
▁Te h
▁But ter
is ons
▁(199 9)
▁troop s.
▁194 8.
▁pen alt
▁لن كولن
▁ک شت
▁القد يس
▁I F
▁sl ope
▁wat ched
▁as :
▁hand led
▁intro duc
▁الر وسي
ثم ار
نس اء
▁campaign .
▁Stef an
▁-b ased
▁الو ضع
▁nov el,
▁ب يا
جم ات
▁memb rane
▁الم كت
▁('' L
▁six teen
hom as
▁H ook
ier re
▁ر سمي
▁10 6
ch ant
▁و 19
▁ب یش
▁ق ول
▁X IV
▁N A
▁election .
▁O' C
▁all ocated
▁centre ,
▁الموا قع
ar at
▁Bl air
▁Ken ya
▁b ol
im p
ي في
▁V iv
▁Z oo
▁صح في
up e
z on
▁Rap id
▁Bright on
▁health y
▁m osa
▁چيز ي
▁1, 500
le igh
ers "
ير ه
▁سر طان
- cl
l ord
-2 9
▁ل فترة
▁الأ ستر
▁floor .
▁الأ هلية
▁15 1
- oper
an as
sc rib
▁و بد
▁sh ark
▁194 0s
al us
▁Haw k
▁gr ants
▁E uras
وق ت
ad os
▁J erse
▁S W
▁B ac
▁192 2,
▁التقليد ية
▁11 1
▁لب عض
▁R S
ز اب
▁V ision
▁الم يد
▁P ere
▁194 6.
▁Pre vious
ne ath
▁E k
▁(18 7
▁arm or
راتيج ية
es '
os e,
▁C ran
▁ب شر
▁Mar cel
▁H ert
▁. H
▁b itter
ذا كرة
▁pra ise
▁h alt
▁F land
ium .
ri a.
ع امل
▁Rock y
3, 000
% 20
▁191 3,
▁في صل
▁car .
▁lif ted
▁pit ched
▁خ ال
▁consist ently
ary .
▁الشع بي
▁court ,
z .
▁ج ماعة
f oot
▁( known
▁ر ج
▁car ,
▁second ,
▁Greek s
agn etic
ح كم
▁Sub d
▁الأخرى .
▁dism ant
▁separ ately
▁Ell en
▁ESP N
▁191 8.
اك ي
▁performance ,
▁Monaster y
ق بال
▁O' B
c al
▁d rift
▁tall est
▁م ثال
▁ش اعر
▁president ,
▁r ic
▁emb arked
- ind
▁M aking
intend ent
▁d y
يت ا
▁X II
▁184 0
▁الق اد
rew s
z e,
om al
▁St uttgart
urg ical
▁desc ended
▁ف صيلة
▁peak ed
v re
is ed.
▁Inn ov
▁ev ol
▁ap par
▁Bald win
▁dece ased
▁Al ps
▁أن َّ
▁جد اً
▁could n't
y th
▁L ook
▁K och
▁prelim inary
ub ble
▁الق صر
قاط عات
▁proced ures
▁مد ريد
▁''P r
▁Const antine
on ts
▁but t
▁high ,
▁الإنس انية
يد ه
▁14 9
▁miss iles
▁pract ice,
▁artif acts
▁later al
▁Dist inguished
▁tem pl
▁tu ber
▁sacrif ice
m ak
an or
iv ed,
▁2009 )
م ية
▁2 -
▁arrang ements
▁Phys ics
سي وم
ray ed
رف ع
▁train ing.
ري ز
▁Bel t
▁product s,
c y.
ograp hed
! ''
z burg
▁mat rix
▁ل ور
-f ive
▁resign ation
▁h itting
▁قط اع
▁2 )
ض يف
▁R ise
▁con ceived
▁وت د
bre v
▁e ase
/ p
خ اذ
op ot
ائ ها
▁2010 )
▁D ong
ust ain
ick ,
▁range ,
▁prec ise
▁R um
گ ي
oc rac
azz o
▁N atal
se .
▁family 's
▁دست ور
. uk
▁ح فظ
▁192 9,
▁court .
▁Slav ic
ع فر
▁charact er.
▁mathem atical
▁د رد
▁P orter
▁أ سبوع
▁jo ins
▁pers pect
▁found ations
ing :
▁10 4
▁1900 ,
▁camer as
قا ق
▁''D er
▁re ly
▁October .
وط ن
▁Kos ovo
▁date .
▁enter pr
▁l aps
▁haz ard
b ian
▁Ch am
▁A ,
▁بسر عة
▁techn ology,
▁ش ركات
▁L P
▁two -year
▁193 9.
▁hor ror
ell es
▁Nic olas
oc ide
▁آ لاف
▁الت نا
▁var i
▁Berg en
▁material .
▁ill um
▁drum mer
▁( by
▁ت فسير
▁dis abled
- te
▁T ram
▁rail ways
▁br ill
▁arg uing
▁Ch al
▁un anim
▁abov e,
▁Lear ning
▁ت وفير
0 1
▁أن ظمة
▁break s
▁propert y.
▁Arsen al
▁F ur
▁بين هم
▁Se an
ري ه
▁sovere ign
▁Mumb ai
'' ''
▁الص حي
▁م سرحية
id ian
▁T anz
▁st range
م ئ
▁Berlin ,
▁في ديو
ell ar
▁T urb
il o
in ia
on aut
our ,
▁أن شأ
▁10 2
▁ش يخ
وز ارة
▁جام ع
▁( unc
▁Em ma
▁الخ ر
b en
h ad
▁10 7
▁cr ust
redited )
▁هر گز
▁tradition ,
▁193 4,
▁victor ies
▁discrim ination
▁أ من
▁issu es,
▁Wikip edia
▁Dr um
▁ا یست
▁tre es,
ols hev
▁S ag
▁China 's
I ON
▁co aches
▁لل حصول
ne y.
▁conf usion
/ R
e ffic
▁M ün
▁B rom
▁ك بار
▁saf et
▁long -
▁Crit ics
▁H ast
▁ju ven
B O
▁activ ity.
سون '''
▁symb olic
▁الق صة
▁Un ion,
▁Underg round
▁أ علنت
▁Ferr ari
ك ري
í s
ri que
per t
▁St re
▁Mal colm
▁192 1,
▁Dat abase
▁Americ as
▁صد رت
▁Li u
▁R oh
▁الأمريك ية.
at ched
▁Griff ith
▁م خرج
▁And ers
▁model .
▁ج سم
▁quant um
▁Dun can
▁بالإن جليزية
▁Re agan
▁beat en
▁unex pected
▁tit le,
ري ان
▁cons ensus
▁public ,
خ ند
▁Wood s
im an
▁not ion
▁partic le
▁ل باس
▁U A
▁اللبن انية
in is
ed u
▁Sch olar
▁2008 )
▁C ott
▁J ub
▁''E x
▁Jun e.
d ad
▁k W
▁Advent ures
per ,
▁d ug
▁ra ck
▁''Billboard ''
▁St rong
▁الن جوم
▁سويس را
ens is''
ol ish
▁ag o,
ment ed
▁group 's
▁وفق ًا
▁ر ك
▁rec ycl
▁Con rad
▁contin ent
▁consid ers
▁المد نية
▁mamm al
ing o
▁open ly
l t
m en,
▁إ جمالي
▁Y an
▁Art s,
ern er
▁به دف
▁“ The
▁Rena ult
خ ار
▁arm oured
خ ش
ك ،
▁سر عة
▁بع يد
▁out come
يك ية
▁rec all
ath olic
▁sum mar
▁drain age
▁S ap
▁Ang els
دم .
▁flow ing
▁Lis bon
▁A my
im eter
▁الترك ية
▁quar ters
▁س ود
▁BM W
t y,
▁('' D
▁sh ots
▁trans m
▁joint ly
▁w artime
▁land own
▁subs pecies
▁Ireland .
▁ é
▁ge ographic
▁Nort heast
▁f ox
ج اد
▁( $
▁bl ade
▁sing er,
▁Hawai ian
▁st roke
▁short -l
- en
c ard
▁''Ch icago
▁har ass
▁Andre a
▁G aza
▁say ing,
ious ly
▁inn ings
ra ch
▁attract ive
▁at omic
▁خلال ها
▁che ap
▁Arm y.
▁st om
n an
‬‬ ‬‬
▁Visc ount
c ut
▁invent or
▁في ليب
qu al
▁الاحت لال
а р
ateg ory
َ ع
▁Treas ury
▁t ast
ed uc
▁L af
▁الع ائلة
▁ج ول
▁Cult ure,
▁D E
▁المعروف ة
sh ops
▁الد ورة
▁G iuseppe
▁Y uan
▁الك اتب
▁lead er,
▁ins criptions
▁Gib son
▁hypothes is
▁أ طفال
▁(S eptember
▁2 20
▁ت وان
▁وي عتبر
v ae
as ma
▁ع وض
▁مست شفى
▁siz e.
ab y
ائ نات
▁l anes
▁التن فيذ
▁superv ision
▁compens ation
▁3 -
▁Chile an
▁witness ed
att ack
▁Cal vin
▁Con vers
و يا
ar am
▁ب ون
ان ش
ch air
▁12 7
17 2
▁question ed
▁in clusion
▁p ocket
▁En c
▁foot age
▁S ept
▁Te acher
▁N ou
▁front ier
▁ven ues
▁اليون ان
▁192 7,
▁gu ards
▁S tern
or ''
▁re jo
▁Midd les
▁step ped
▁ا هتمام
▁''B e
onst ruction
▁م طب
▁support ,
▁الع لام
im er
▁الط ائرات
sc ill
▁adj o
▁1 200
. J
ä n
ar ity
▁" ex
▁cont ing
▁appro aching
▁Ch ad
▁Super ior
▁Burn s
▁تص ور
ث وذ
-M an
▁علا قات
ير ون
▁الأ ربع
on a,
▁Pl ains
▁magn itude
▁D raw
▁S ou
▁P ius
▁D eg
▁equ ality
ّ ي
▁ط ف
▁"W hat
ک ل
app a
▁capital ,
ä t
▁July .
يز ن
▁c ro
ab el
▁V it
▁univers e
ا يا
▁cor rupt
▁فر ص
▁plant s,
▁(" The
i ous,
▁whe at
▁'' v
▁mort ality
▁config ur
▁Crim inal
▁met eor
▁Sp art
▁ins ign
▁Tamp a
▁m ock
▁الت خ
-2 4
▁t ear
and ra
▁Russ ians
b one
ّ ت
▁O ft
▁Th ous
▁od d
▁c ivic
se ason
▁respect ively,
▁Beat les
▁soph istic
▁M are
▁accommod ation
وي ه
▁spe aker
رد ه
▁hang ing
▁that .
▁fav ored
▁My th
▁Liter ary
▁د ام
▁الق ضاء
▁Am endment
▁i P
▁commercial ly
▁headquarter ed
▁P M
▁g reet
az ar
في ز
▁own .
70 )
▁rival ry
▁colle agues
▁E du
▁k iss
▁consequ ences
▁القب ائل
▁alleg ations
▁''L '
▁السي ارات
▁incident s
▁turb ine
▁L ay
▁detect ed
▁ان ها
▁d ent
▁ر ئيسي
-0 2
▁opt ional
▁ترت يب
▁Gu jar
▁accept ance
▁ت ابع
قا عد
▁model s.
▁Cast ro
▁Ob last
▁جن سية
▁Hand book
▁Dres den
▁not iced
▁ter ra
▁كم ية
▁truck s
▁M uss
▁over h
▁program mes
▁Andrew s
▁لت ن
▁associ ations
▁hous es,
▁bed room
▁elim inate
asc ular
▁strugg led
▁Niger ia
b y.
▁C ul
▁التح كم
▁Kash mir
a '
▁A chie
▁Z amb
▁Z imb
▁191 1,
▁case .
ث رة
▁ال ليل
▁sp ots
▁Mikh ail
▁a. m.
▁bomb ers
▁H ern
▁b ike
▁T C
▁count ed
▁الإسرائيل ية
▁am alg
▁لأن ها
ين ه
▁ش يك
ad vant
▁E agles
▁إيط الي
▁d ’
▁sess ions
▁إ ناث
▁T ell
▁الإ ر
▁lect ures
uzz le
▁إ ما
▁match .
▁made .
▁gu err
▁Volunte er
▁منا سب
▁N ixon
سي ق
h yd
▁o h
▁threat s
▁Venet ian
á l
ور .
▁mon opol
▁Co hen
▁W ake
▁" v
▁ste ering
▁بر وت
ild a
M c
un al
i ating
▁Y ard
▁techn ology.
▁Gibral tar
▁Max well
▁L ions
▁ن کرد
▁ر حلة
▁j oy
▁الرا ئ
▁worldwide .
▁May .
▁الم حد
▁dr unk
ledge ,
ro k
▁قص ص
▁extra ordinary
osaur us
▁مرا حل
. org/
▁re duces
▁B ot
▁car s,
▁hel met
▁lect ure
▁t ended
▁Joh an
▁destroy er
▁waters hed
us ually
▁الح قيقة
▁ض م
▁تق سيم
▁gall eries
▁Zh ang
S ee
▁fr atern
▁التن ظيم
c ule
▁الترك يبة
at ives,
▁F ay
▁196 1.
▁championship s
▁found ers
ar ag
▁till :
▁such ,
▁pl aster
U )
▁h oney
▁r ush
▁hand .
▁Earth 's
▁seg ments
▁trans mitted
▁doct ors
ul g
aj i
▁الم زيد
▁established .
▁2011 )
▁vacu um
▁ult imate
▁preced ing
▁Milwauke e
ید ؟
▁program s,
inn ed
ung ,
▁Res ort
ض اع
ات هم
▁fr ust
▁ت بدأ
▁contract ed
▁cong regation
▁س ورية
▁أب اد
▁و اد
▁المؤس سة
▁g rap
▁cook ing
▁e. g.,
▁(199 8)
▁before ,
▁Sch w
اج ت
nt on
▁remn ants
▁adv ancing
▁الطب قة
▁D ob
▁excess ive
▁s ad
▁11 2
▁in ning
▁30 %
▁D ian
▁Mc N
▁السك اني
erm ark
▁ord er,
▁bal let
▁p ic
▁الت ربية
▁dim ension
in ally
▁K ö
▁intro ducing
k ok
▁F en
▁قد رت
▁C ors
▁S F
▁L t.
▁Can ber
▁'' Qu
▁Com ment
▁واق عا
ش ،
▁t ends
▁en abling
▁g amb
- al
▁ع ناصر
r í
اب ية
▁t iny
▁Ind igenous
سا هم
▁مد ار
▁Man ager
▁vis a
▁أد اء
▁Nort on
▁Speed way
▁j our
▁المرت بة
▁trig ger
▁مح افظ
▁fac ult
▁Brook s
ew ish
▁cl uster
▁jew el
▁Rest oration
▁" he
▁می‌گ فت
▁po et,
▁Vik ing
m atic
▁ي قل
ak es,
▁Gh ana
▁Sask atche
▁ت ما
يم ز
▁الثق افي
▁re actions
▁ق ضية
▁fa ç
▁vot e.
▁الصح افة
▁pun ish
▁ق .
▁Sax ony
▁'' ;
ش ارات
▁الن خ
▁vehic les.
▁201 2)
▁لل مر
▁dam age.
▁ب ند
▁L ip
▁sk illed
▁mole cules
ong ,
▁(199 0
ific ation,
19 ,
▁produ ctions
▁192 8,
▁س رش
▁Constitution al
us a
▁victory .
▁ال هاد
▁ب بر
et ics
▁R ost
▁Eld er
ذ يب
▁cont am
▁Tra v
▁interview s
' "
) '',
▁un e
▁وم ؤ
س اد
▁German ic
▁Sch mid
▁اخت بار
ُ ر
▁abund ant
press ion
▁John s
▁bord er.
ك يد
ah an
▁p unk
▁ک تاب
▁الك ل
▁بين ها
▁Decl aration
▁P ond
est ead
▁Sher man
▁car s.
▁Aust ro
▁G iant
وت ه
op ters
▁( '
▁play wright
▁Disc overy
á ndez
▁inter actions
▁Bl anc
▁Dav ies
▁sp are
▁الحم راء
-0 4
▁Lord s
am a,
ard 's
▁prior ity
▁Rec ent
▁ح ز
▁F eb
▁Even ing
▁أ لي
▁tr ump
▁ab brev
art icle
▁(ف يلم
يل ه
▁الفر قة
▁وي ح
▁sw ept
▁Leg al
ific ation.
▁dec oration
og ene
▁ج نب
▁off shore
A s
▁ت قل
▁ab d
▁L od
▁view ers
▁وصل ت
script ion
▁disappe ar
▁(unc redited)
▁ك افة
▁Raf ael
د ون
▁C ities
▁ب نا
▁: 19
وي ض
-A r
▁board .
▁novel ist
▁T ake
ولوج ي
▁oper ation,
▁Don 't
▁orn ament
▁25 th
d ing
re ens
▁185 8
▁ع رب
▁ح يو
ok er
▁م أ
▁Ell iott
▁M ale
ur an
▁ق بر
▁عمل ه
▁poss essed
▁week s.
▁Mos que
▁libr aries
▁A V
▁belief s
▁Chev rolet
▁بی ا
▁NS W
od ing
▁command ers
▁p ear
▁ي هود
غ ت
▁K ens
hist ory
ø r
▁R NA
▁أ ثر
ــ ــ
/ T
ف ه
▁الات صال
▁Av iv
▁p ounds
▁( ولد
▁Sant o
▁Dram a
in ed.
ان دا
▁di ocese
▁disp ers
are l
▁ins ufficient
▁museum s
▁status .
▁بال ش
▁S D
▁T win
▁L ü
▁مد يرية
▁أب طال
ia e
▁از د
ض ب
▁E van
▁t ale
▁des p
▁administ rator
▁K end
▁Se oul
▁text ile
▁Parliament ary
▁Ib n
en b
▁Ph D
▁Council .
▁المص در
ع هد
▁New sp
▁bus y
ast on
▁comp ilation
ind ed
▁sour ces,
cer pt
▁ر ئي
let te
▁cred its
.S t
▁wire less
▁ماي كل
th ood
▁ver b
▁ham let
▁ف ه
▁rel ay
▁ن ات
▁troop s,
▁S N
yl ogen
unc iation
▁4 50
▁''M ar
▁s ab
▁diox ide
▁Cl iff
▁الت نمية
▁الكاثوليك ية
▁Bar ack
' )
▁sister ,
et 's
▁st ained
avel ength
▁B rief
▁C i
▁B ody
▁مراك ش
مد رسة
▁عام ل
por ters
▁(A l
▁quant ities
▁marri age,
ع ون
▁L ect
▁ح ی
▁K ad
▁reflect ing
اغ و
▁B ess
▁cl ass,
▁team s.
▁Po etry
▁الأص لي
▁الف ي
▁inc orrect
ش ين
▁ins cribed
it uary
▁عسك ري
▁tre es.
▁after ,
▁ط ال
▁الن ه
▁Prov idence
▁مان ند
S p
ut ical
▁animal s.
▁P s
▁وا ضح
▁"T h
عت ه
▁وتوفي ت
▁H iro
▁ع الي
art ,
ñ o
▁ow ing
ئ لة
▁ext ant
▁wrote :
▁ر ون
▁الق تال
▁friend ,
▁K C
▁بي ان
▁abb ey
▁B un
▁New ark
▁kill s
▁m eth
▁organ ize
ص ات
▁pass port
▁consum ed
.. ."
▁L it
▁N ame
▁communities .
▁194 7.
▁المم ثل
▁part ition
▁Brad ley
▁النم و
▁يحي ى
▁b ark
▁pro secut
ما ط
▁agre ements
her ,
▁192 5,
▁met er
50 )
ad ers
▁خ لق
▁Ph ase
▁gener a
▁convers ation
▁الأ سن
▁Tur ke
idel ines
▁ %
▁d up
▁ز واج
▁'''C h
▁Ann iversary
▁رفت ه
▁shell s
▁ship ,
ش ط
▁Mar co
ar ra
▁و اف
▁ض ابط
▁" إ
ard e
▁rep aired
▁over head
قط اع
▁year 's
▁شد ن
n ai
▁ن اد
▁Sc reen
▁الا س
غ ني
▁invest ed
▁task s
ی ح
▁two ,
▁11 3
▁King ston
▁Bay ,
▁tact ics
▁T ah
ما ح
▁project s.
اط ئ
▁color :
▁آن که
▁(2000 )
ري خ
▁م بنى
▁B j
▁K ind
▁الس احل
▁Bry an
▁. R
▁nit rogen
▁Th under
▁I 'll
▁ما ج
▁H ag
▁ق ادر
▁exam ined
▁193 2,
- In
▁D anny
▁گ فتم
▁Fl ow
▁الشب كة
▁c ran
▁e leg
▁sur ge
▁line up
▁(2 4
ev ille
▁Be au
▁Smith sonian
وم .
▁des k
▁Britain .
on ing
▁الأ ساس
og raf
▁philosoph ical
▁Sister s
▁sing le,
▁50 th
▁batt ing
ز ان
ام وش
▁sy ll
▁الو ث
▁وك اتب
▁read ily
-0 6
▁l ac
▁G ates
▁ α
▁التق نية
▁response ,
ar ab
▁ship s,
▁Vol ks
▁fre ely
كتي ريا
к а
▁pro ud
▁fre ed
▁النس خة
▁أ لك
arm a
▁Man it
ia :
▁under water
▁تؤ دي
▁rep airs
in ator
▁host ing
l ace
▁Dor othy
▁mon key
▁press ed
▁reb ell
▁man .
▁Car pent
▁Emb assy
ber ,
og s
ie ''
▁رم ضان
▁الأ ه
▁J et
te f
▁Kingdom .
▁M iles
▁Green wich
▁Richard son
▁ С
▁Maced onian
م ج
en stein
▁Herz eg
▁pl an,
▁لت ش
▁respons ibilities
▁Beach ,
▁. P
▁ه ات
che z
▁(D ecember
utt a
▁manuscript s
▁accompany ing
▁Island .
▁length .
▁predecess or
▁im per
▁M its
▁fresh water
▁he ated
▁أن جلوس
▁الد عم
▁المع رفة
ember g
▁cons ent
-0 8
▁reason s.
kin son
▁محد دة
▁they 're
▁Ed ge
▁chick en
▁ب يك
ition al
▁وج دت
▁Qu art
–present )
▁hect ares
▁الا ستخدام
▁ed ges
▁و عدد
▁مال ك
▁6 –
▁top ics
▁arm ored
ص ي
▁ u
▁Antwer p
z ens
ج ها
un ,
elf th
▁cop yright
وب ا
▁الخ ض
▁z ur
▁م قت
cl air
▁بد لاً
▁pe er
▁cor al
▁Co ff
▁Event ually,
▁f iscal
ين ز
▁employ ee
▁grav ity
at ives.
▁un rest
▁Mon ter
▁techn ological
▁avo ided
▁185 1
ure l
▁(1 ,
▁Ex position
▁ple asure
▁Malays ian
▁G iven
▁post al
▁W ilm
▁view ing
b uilding
▁fert il
▁عسك رية
▁H ours
▁الر أس
▁(al though
▁192 4,
▁Sing le
▁success ive
▁P L
▁Ag u
▁b old
▁P ue
▁out let
رد ة
-0 3
▁Writ ing
▁s izes
▁Ind ividual
-f our
▁Whit ney
in i,
▁L uz
▁اون ا
er ry
▁'''S t
▁ق ياس
▁S iles
ig l
▁ن اج
▁che ese
▁coast ,
act ic
▁fl esh
▁"A l
▁Pat ric
▁ Č
sh a
▁(201 4)
▁mater nal
▁K ok
ev e
ett es
▁Met al
▁to o,
ول اد
▁John ston
▁2013 )
و ية،
▁الأ جن
in o,
el ia
ag ara
▁res olved
.C .,
c ip
▁mod ification
▁ret aining
ch .
▁chrom os
▁H umph
amm ad
▁( Z
▁off s
o ct
▁accur acy
x ,
▁K aw
▁Bl u
▁magaz ines
v iv
lin ary
ف ير
▁mission aries
▁Philip pe
▁g ren
▁(A ugust
▁strict ly
ong s
▁tra ced
كت ابة
umb ent
▁f iles
qu e,
▁الس اح
▁cor rel
▁z u
▁من و
▁won 't
▁cou pled
▁Do ct
otyp es
▁ umb
▁L il
▁ج يل
▁193 1,
▁flex ible
er ical
▁''M an
z t
ol ume
▁D ul
▁وال تر
▁195 0.
▁Sur rey
▁illust rations
▁D ere
-st ate
▁سا هم
▁tot ally
▁orient ation
▁Un ion.
▁12 4
w yn
ost ic
▁ص ن
▁therefore ,
▁S pl
▁بيت ر
ع لى
▁In ner
▁disput ed
ؤ ال
▁ il
omet ric
▁compet itor
▁195 6.
▁Indust ries
▁Princip al
▁ins ert
▁stri k
▁ش باط
▁Brad ford
▁w ag
▁every day
راك ز
کن ون
le 's
▁Fras er
▁dec ay
▁capt uring
▁human itarian
▁M ats
▁'' :
▁ين اهز
ade qu
▁c odes
▁القر ار
▁K ot
▁ح فل
▁board s
▁للأ طفال
▁بر لين
▁str at
▁big ger
▁L if
▁الدا خلي
▁persu aded
▁M Hz
▁185 4
▁team mate
▁Gand hi
ed ged
W e
▁pract ition
▁sc ope
th rough
od ay
light en
▁d well
▁C ome
▁New found
▁Suff olk
c or
▁ar row
▁Al most
▁ول قد
▁(N ovember
▁drop ping
لاف ات
▁Ver d
▁Reb ellion
▁) ;
▁quant ity
▁F ast
▁adequ ate
▁F ol
ام ر
▁('' T
رق ام
▁2007 )
▁Bur ke
▁K i
▁إ ض
▁14 7
▁Univers e
بلوما سي
p ow
▁Bost on,
▁د بي
▁West ,
▁mult ipl
▁باش د.
▁Ell is
▁الس ويس
▁prem ises
▁show 's
وي .
، 000
▁t ender
▁Mar ion
▁و يد
▁O ce
▁''' ل
▁tra ged
▁17 00
ship ,
▁h p
▁dep iction
▁Republic ans
▁l ag
▁ar che
e o
-d own
utt ing
▁P ray
ab we
ath am
ia '',
-0 5
▁g ig
▁الس ير
▁Em my
▁انت هاء
فيل د
▁stead y
ان دي
▁المتحدة ،
l é
▁195 8.
▁الاشت راك
▁m i
▁belie ving
▁m es
وي ق
▁add s
▁fin est
▁Resc ue
▁S r.
▁wh ite,
▁Educ ational
-or ient
▁God 's
▁achie ving
▁contest ed
▁P am
▁Curt is
G )
f old
▁Bro ck
▁Batter y
ropol is
▁de alt
▁Year s'
▁F an
ik s
▁12 9
▁Che ss
▁mechanism s
ول ،
▁سب ق
▁185 6
am as
und a
ens en
-l ength
c ons
▁dr ives
▁region s.
▁Bas que
om ,
▁literature ,
▁G ian
▁discuss ions
▁N H
▁ت خت
▁nature ,
▁وترت فع
sh an
▁ك يميا
▁ص بح
▁Ku wait
ur ai
▁وا ي
▁offic er,
▁تح سين
▁demand ing
▁خ س
▁We ap
▁195 0s.
▁three -
is se
يد يا
▁I R
▁ت ختلف
▁ر حل
▁throw ing
▁Act ,
ent er
▁upris ing
▁d uck
▁Arab ian
▁O .
▁"The re
▁song s,
▁Bill board
ك ه
▁أ بد
▁ط اقة
▁Hond a
▁S uk
▁tribut ary
U P
ed "
▁داشت .
▁substit ute
▁فر ی
▁E rik
▁12 2
ّ ه
▁W id
▁plant s.
▁القط اع
et al
▁bu ying
▁Em press
▁consider ation
▁بول ندا
▁L ig
epend ent
re ne
رك ان
▁f raction
▁Tri p
▁cult ivated
ف عة
ي ًا
▁ter restrial
ol om
▁record ,
▁val ued
▁ec ological
▁الول ادة
▁Sch l
▁spok es
▁atmosp heric
▁l ined
▁Lock heed
▁195 9.
▁ي بدأ
▁inf ant
G O
H O
▁ق ُ
G N
▁11 8
ع لي
▁$ 100
old en
▁decis ive
▁Hels ink
▁ف لم
▁station s.
▁الق در
▁https://web.archive.org/web/201912 11
it es,
▁qu ot
▁decad es.
▁درج ات
W S
▁الس فن
ne z
▁Pet e
▁إ تش
ov ic
▁politician ,
▁Den is
b ers
-d oor
▁list ing
p he
▁ط فل
▁بالف عل
▁released .
▁gra vel
6, 000
▁Par am
▁de als
▁ر ح
▁four -year
▁Wal es,
O n
r ive
خ مة
▁ك اف
▁inst ant
unt a
▁L yd
ام ات
ace utical
s ",
▁T in
▁المجم وعات
/ J
▁مج رة
▁ن یم
▁13 8
▁mone y.
en ry
▁l ane
▁بب ین
▁M ā
▁الك ونغ
▁Sch ne
▁مسا حتها
▁التص ميم
о д
▁p neum
ew ard
▁ro le,
▁De al
▁nerv ous
W R
▁S r
▁ش أن
ol .
▁ro ok
▁قر ر
▁النت ائج
▁D ry
) )
en za
▁(199 7)
▁undert ook
لا ص
▁12 3
▁وز راء
ز اده
س '''
وري د
▁ @
▁ex ped
ست .
▁ولي ام
▁up coming
-0 7
▁mini ature
▁الص د
▁tre m
▁البلد ة
D I
▁R ule
▁destroy ed.
▁D ion
▁س ور
ما ئ
▁الرياض يات
H F
▁مست ويات
▁کم ک
▁congress ional
▁Z ü
وت ش
كل ين
▁present ing
▁crit eria
▁Pat rol
▁Bel le
▁king 's
▁rob ot
t le
رائ م
▁Canad a's
▁care ful
▁a ug
▁pre tty
▁constit uted
▁comed ian
ز يمة
re e,
occup ied
▁compan ion
▁Inst r
▁dep ress
▁جوز يف
▁sh ar
▁play .
▁rev ision
▁room s,
▁H ost
▁D ani
▁inter im
▁Poland ,
▁م ِن
▁Hel m
▁incorpor ate
▁F .C.
▁station s,
▁ع يسى
▁Em ily
▁reg ulated
▁ف لك
▁d as
▁J .,
▁الق ومي
▁ass ume
-0 9
▁ra pe
▁minut es,
▁sovereignt y
▁Ecu ador
▁Recre ation
▁. موقع
▁D as
ri eg
▁11 6
▁sum mon
▁che ss
▁من اف
▁under neath
▁C ay
▁القا عدة
▁الك ويكب
رم ى
▁مه ندس
▁Y et
pl us
ang o
▁Can on
▁l ots
20 .
▁stream s
▁ل نا
▁Krish na
▁cur ved
▁19th -century
▁الخ لف
▁dist ort
▁Cambridge ,
▁d ragon
▁C ool
▁6 ,000
▁pl ural
▁Cec il
▁carri ers
▁another .
▁comb ust
▁الب ته
▁11 7
▁أد ت
i ère
ro ther
▁B uk
▁ت وفر
▁12 6
▁read ers
▁material s,
▁Geoff rey
▁n as
▁dis advant
as is
▁ap olog
▁عام ا
op he
er :
▁d ors
▁ت جاه
erv ed
▁Sy rac
▁ك يو
▁Buck ingham
▁Esp añ
▁العالم ،
▁Rev .
▁protect ive
▁inform al
▁ت صبح
▁Cent er.
▁Israel ,
▁ur anium
▁explicit ly
ib us
▁الح جم
▁(s ince
it ively
▁S weet
▁ت اب
بر ية
▁Par ade
-19 9
rit e
re v
▁subst ance
▁inter f
eli hood
▁ا دام
▁Eug en
▁r ider
▁favour ite
9 00
▁R ican
▁May a
P D
▁ro de
▁hydraul ic
▁colon el
▁النروي ج
- place
▁الص ور
▁K ang
▁know ing
▁185 5
at en
▁offic ers,
▁Im age
▁أ لا
▁bl ues
▁م ادر
▁per ipher
r ina
an mar
▁Al g
▁dec om
▁report ,
▁investig ated
i "
▁L ep
▁Luc y
▁تعد ادي
خف ضة
▁surn ame
▁را بطة
▁less ons
▁(2 3
▁نيوزيل ندا
et erm
▁Th irty
▁Congress ional
▁CN N
▁resident s.
▁pian ist
opot am
▁position ed
▁gen u
▁الع ناصر
▁wall .
▁"O n
▁Cheroke e
▁( about
▁off ,
▁material ,
40 )
▁saf ely
▁tick ets
▁decad es,
▁L ibr
▁In tern
he ars
it ate
▁ب إن
ant es
▁الجم هور
▁A id
▁so ap
▁ب ذ
▁گ ل
▁mult i
▁Mac mill
- r
رت يب
isc ip
▁" it
▁Mer it
al on
nd on
▁پ ن
▁motor way
Sax on
▁M ell
▁resc ued
▁subd iv
▁rele asing
▁190 8,
▁Ul ster
▁Citiz ens
ul ance
▁C ivic
▁Sh adow
▁التق دم
▁سيا سية
▁n od
▁G av
▁bas e,
▁Phil harm
أ لة
▁Part n
▁m ere
▁الم ثل
خ بار
ct ica
az ing
▁say ,
▁' L
▁يلي ،
▁Craw ford
▁الك لا
▁summer ,
T H
▁F ighting
▁سا عد
▁East ,
▁تح ول
▁(2 2
▁evacu ated
رش ح
▁B oh
▁H ave
▁201 4)
رن سا
تر ات
▁الا ص
▁بر ون
▁bl amed
60 )
ro duced
-2 3
▁dim ensions
▁Caes ar
ug a
▁ap ost
▁der ives
-L e
▁الراب طة
ro sc
ري طة
▁stat istical
▁prob ability
én é
ar ound
▁conf isc
▁light ,
umber ed
▁Sp ider
ح اث
▁المستخدم ة
▁التد ريب
▁لحظ ه
▁ع ربي
ّ ى
▁''C om
▁view ,
о л
▁Me eting
▁ز يد
▁25 %
▁competition ,
▁deleg ates
▁cer amic
▁o ath
▁action ,
▁الحقي قي
l is
line ,
▁N iss
▁المت حف
▁dec ides
m all
▁en force
▁و201 0.
▁سي كون
▁r im
ip ur
▁ک ل
▁ass ignment
▁conf ined
▁prec urs
خ رة
▁H S
▁diplom at
▁Y ok
▁ليب يا
▁b iod
ber y
▁compos ite
▁stre ak
▁c her
▁pre ference
▁Ch ick
▁Nor wich
▁Brit t
▁' H
▁veter ans
▁y es
▁g onna
▁L ic
▁ح ما
▁volunt ary
▁C ore
▁B S
▁ق يام
▁3 2.
▁Alf onso
▁rock y
▁organiz ation.
▁Buch arest
C .
▁N ig
▁الت ط
▁100 %
▁عمر و
▁Build ings
▁195 7.
▁Ass emb
▁النف سي
A ll
▁K yle
▁cl o
▁الك وم
▁توأمة .
▁b ishops
and ,
▁Phys ical
ر .
▁Gro s
▁Roberts on
ز ع
house ,
ف قة
in j
ic ol
▁D uk
ik ,
8, 000
ogen ic
▁Whe el
end e
ِ م
▁research .
▁ت رس
ائ ة
▁perform ers
ذ ن
▁S ib
▁''P ort
ف ار
▁س احل
w elling
▁P ag
pl ant
ز ش
▁turn ,
▁un ified
▁Con sequently,
▁Bas ic
▁Neg ro
▁گ اه
: (
▁f usion
▁imp ress
غير ات
ir us
ow ing
aur us
enz ie
▁alone .
▁الشيو خ
ra red
▁192 6,
▁ت هد
▁Wal es.
2 /
▁the olog
▁conc urrent
▁T itan
▁L ing
شت هر
▁Am t
▁My anmar
b ut
كت لة
▁gra pe
د ل
▁S ource
▁util ized
▁' G
iv ities
▁الح فاظ
ية )
▁direction .
▁K aren
▁الطبي عة
▁simult aneous
or ate
ag asc
▁194 9.
▁spread ing
▁master 's
▁infrast ruct
c s
▁ ”
▁K iss
▁3. 5
cliff e
▁St ir
▁192 3,
▁B olog
▁اسم ها
▁Chur ches
ی ان
vent h
▁all oy
▁ev angel
▁ceremon ies
on al
ra .
▁ذ هب
▁high -speed
oph il
▁إ ث
▁Current ly,
▁w eld
▁الأح ياء
▁irrig ation
▁. G
▁The n,
▁tra ff
▁food .
▁d rought
r ath
▁ب ض
▁sp ark
▁Law s
▁rig id
▁soldi ers,
▁serv ant
▁earlier .
اد ،
▁S ometimes
▁14 6
▁band .
▁T i
▁endors ed
▁T R
▁م لكة
▁k ing,
لي ه
▁displ aced
▁V 8
▁d ried
▁new ,
▁available ,
u w
▁G an
▁P iano
▁loc ation,
▁doub les
▁pers ecution
▁Florid a,
iv ed.
▁الس جن
▁Legisl ature
ph p
▁lik ed
▁اث نين
▁استف اده
c ore
pe ople
▁sc iences
▁Gael ic
▁نا گه
▁Pt ole
▁Jerem y
ز ون
▁F av
▁(a fter
▁insect s
- 40
▁ship s.
ack ,
u ctor
z an
▁overl ooking
▁بلغ ت
▁14 4
▁dict ator
▁(ed. ),
▁legit imate
ash ing
▁ات جاه
▁diss olution
ك مل
all a
▁sk etch
▁comb ining
▁t s
ail able
▁ext inction
▁Bre ak
▁E D
ant o
▁dis gu
▁الص يد
▁الات صالات
▁ton nes
▁C ell
ac io
▁ancest ors
▁الجام عات
os ity
▁Evangel ical
U M
▁Basil ica
l ies
ص ى
▁ط وال
▁13 3
▁Cour se
▁heav ier
▁N athan
وك ا
▁o scill
▁2006 ،
▁inform ation.
▁corpor ation
/ n
▁ق يم
▁ذكر .
or ian
اش ة
n a,
▁الواق عة
X X
وم ،
▁قد رة
▁Sh iva
دا خل
▁load ing
▁semi- final
▁f illing
▁Sh an
▁م فا
طب ق
▁w avelength
ron ics
▁Tit le
-l ife
▁myth ology
خ ان
▁J al
▁south -west
▁الوا حد
▁Lis a
▁deleg ation
▁loc als
▁perform s
▁chap ters
▁south -east
▁bur nt
▁تد خل
▁وإ لى
▁astron aut
▁حل قة
▁K oh
▁''A m
▁Bur ma
▁measure ments
▁ف نان
▁In iti
▁Ar lington
▁قب ول
▁f ant
▁الت مي
▁ج ه
▁2020 ,
▁per ception
▁John ,
▁rad ius
' an
s ons
le w
il y,
▁أ ون
▁N est
▁عمل ت
▁Sub sequently,
▁recre ation
▁Jr .,
op p
▁un st
▁trad emark
▁K od
▁. D
unt ing
▁نش ط
▁bra ke
وض ة
وا حي
▁card inal
.B .
▁سي ارة
▁Initially ,
▁achie vements
جاز ه
l oo
▁الج ر
▁these ,
▁''' غ
ut ers
▁15 ,000
ي '''
▁B ug
▁dr ill
IN G
▁Serge ant
es '',
▁Cl ara
▁Em ploy
▁بود ه
▁الع وامل
▁final s
▁ف من
▁rel ied
▁Tor ah
а н
▁des per
▁مع اهدة
▁north -east
▁be ef
▁stud ies,
ص رف
gu ard
▁5 000
▁am endment
▁مغ نية
را بل
▁ro pe
▁می‌ رفت
▁Sch war
▁Spe aker
▁Brig adier
▁مدي ريات
▁C asc
▁Ref uge
▁aqu atic
▁11 4
▁Cal g
▁ين تمي
▁Wol ver
▁R O
▁comb ine
▁dram atically
▁(أ و
line .
er en
▁ق واعد
▁الح ج
▁ه رم
▁November .
z el
▁at op
ü ss
ice .
ني ه
c ole
▁E N
▁react or
▁Mar se
- res
▁ز ين
▁Ex c
▁marg inal
▁B olshev
▁W imb
▁ك ش
▁comp ress
▁lif estyle
▁ملا كم
ou st
if a
▁only .
/ كم
el ic
ire ction
ett e,
▁م تم
ad a,
▁الت غ
▁13 2
▁خ لايا
▁Reform ed
▁ن وبل
▁Air bus
▁مم کن
▁Lin ux
▁Prest on
▁F ri
▁ن اصر
int age
▁أو كر
omot ive
esch ichte
ض ى
▁qual ification
▁Tenn is
ق اب
▁M oney
Un ited
▁فران ك
▁b out
im id
▁Car th
▁الت ل
f ax
▁to y
▁ا ج
▁film s.
▁النا حية
قي ه
▁الش ؤون
▁problem s,
▁depos ited
▁st ip
▁Tr uth
▁اف راد
▁كولومب يا
▁K ing,
▁tra ils
▁النظ رية
▁t ables
▁K ab
قت ها
▁Sm art
▁Paul 's
▁w olf
▁H ers
هر س
▁Reynold s
▁J ob
▁bar on
▁episod e,
ach ,
▁mach inery
▁رؤ ية
— a
▁Work ers
▁tend ency
▁Car rier
▁المجا ورة
▁S unn
▁4 0,000
rans l
▁stud y,
وف ية
▁soldi ers.
▁W an
▁Cl ose
▁ver te
▁spons or
▁resemb les
▁اللغ ات
▁14 8
▁down stream
▁أ رد
▁Jose f
▁Im port
كتش فت
▁المسي ح
ov sk
▁broad er
س يل
▁P ied
▁F ile
▁possible ,
▁Wy oming
▁T roy
▁H uss
▁Ethiop ia
P M
▁AF B
o )
▁heav en
/ H
ان ك
▁cart ridge
▁excav ations
▁Mugh al
▁Catal an
▁المشت ركة
▁مع ين
▁science ,
▁Vis ual
▁E ye
▁House .
▁الصح راء
▁favor able
in qu
▁col oured
▁foss ils
air craft
▁hard ly
▁health ,
▁dischar ge
▁t in
▁Id aho
▁en v
▁Prefect ure
▁7 0%
▁O' Ne
ist le
▁se as
▁190 9,
men .
▁un ity
▁الجزائ رية
▁(London :
oot s
▁esc al
▁التون سية
▁ك املة
▁remov ed.
▁book s.
▁st atic
▁M und
▁195 5.
▁الد قيقة
ا وي
▁الإم براطور
▁ب طل
▁الم قر
ack ing
▁length ,
▁demonst rating
▁da wn
w agen
ي ي
▁T ul
▁woman ,
▁trap ped
▁repl ica
▁effect .
▁التمي يز
▁مي خوا
▁Six th
▁سيا سة
▁الف قه
ür tt
▁و حدات
▁ر تبة
▁j ersey
▁مح امي
▁G ross
▁M ih
▁الت غيير
▁English .
▁الق ناة
عد ل
▁ص ع
زي لي
▁su ited
-w hite
▁Pr att
▁2006 )
▁diss ol
▁Leban ese
▁mamm als
عت ها
▁ref ere
▁اجتما ع
▁plate au
aw i
▁post -war
-spe c
▁Flem ish
▁bro w
▁Sem inary
▁نيس ان
▁الخط وط
▁موج ودة
▁ي ضم
▁Per cy
▁Archae ology
▁''' 200
▁pat ch
▁مش كلة
ش اب
▁ball oon
▁trade .
▁Ven us
hard t
il es,
ond o
▁Sug ar
▁Tw itter
▁answ ered
▁(201 5)
▁M ons
▁con sole
▁diam et
▁battle field
ton .
▁hall ,
V )
v es,
▁up set
▁Front ier
▁Hend erson
▁H ed
▁c ort
ject ed
lin ,
▁شريك ة
▁mod ifications
▁observ e
og o
▁known ,
▁191 7.
▁stop ping
▁journal ists
ipel ago
▁F antasy
▁Re id
▁زوج ته
▁se ated
▁te legraph
▁ent ity
ج ح
▁l av
b ase
▁F est
▁sh o
▁Ne igh
▁Gener ation
▁organiz ation,
▁mist aken
▁F ork
▁(b oth
▁material s.
▁Sal em
▁overwhel ming
▁A .,
itor ium
cyl inder
▁B in
un i
z one
▁eight een
▁f ash
▁n erve
▁r ings
▁(2 7
oid s
▁Cont est
▁correspond ence
▁لل علوم
▁مار يا
▁ضع ف
▁ك ير
▁ث انية
▁Mon roe
▁floor ,
▁Pap ers
▁الأغ نية
▁Josh ua
اب يع
▁D uc
▁201 5)
▁lingu istic
▁Dan ube
p end
▁) :
▁celeb rations
▁immigr ant
▁د نی
ني ت
▁والت عليم
▁anal yst
▁النو وية
▁أص حاب
▁ف شل
ism :
led on
▁econom ics
-h igh
▁أص در
▁الح اكم
▁Pri est
▁Ros en
▁peak s
att i
ul in
▁ف كر
▁sem if
stra ße
▁mone y,
ف ز
ي غ
▁Bar th
▁ادام ه
ْ ت
s. ,
▁191 4.
▁(A r
حا يا
▁ك يفية
▁cont ents
يات ،
▁الحل قة
on ut
▁G ould
▁war rant
▁fort une
ف ى
▁'' de
▁Netherland s,
▁St eph
er ick
ol an
▁R oland
aw s
▁gener ating
ow itz
▁آ ور
▁وش ارك
▁پ یر
▁Dr ug
▁Massachus ett
▁A &
▁post p
▁instruct ed
▁Tex as,
▁hot els
▁a th
سي ج
▁Advis ory
▁الم وس
''' "
▁مط مئ
▁sc rew
▁12 1
ec ond
▁et c
ب ورغ
▁الأش ياء
ur m
▁چ ش
▁India 's
▁obtain ing
▁af raid
▁H i
▁ور ئيس
▁وع لم
▁وت رك
▁Gi ul
as ium
▁d ys
▁r ug
▁wall s,
▁in adequ
▁ل وي
res hold
ط ع
▁unit .
▁repro duction
▁I L
▁نسمة /كم
▁lo os
▁dev ote
▁rat ings
▁synt hetic
▁the ology
▁Com pos
▁Elis abeth
▁184 9
▁مش اكل
▁san ction
ي غة
▁six ty
▁surface ,
▁ع كس
▁است قلال
▁surve illance
ر ين
▁g y
▁وال اجت
▁do zens
▁ru le,
▁f antasy
▁wood land
▁rule .
▁m ak
▁Sev enth
е л
▁century )
▁S H
▁ب چ
▁country side
▁س ليم
▁m im
▁ت كوين
▁أن فس
▁Re ference
▁box es
▁propert y,
cl ub
▁13 4
▁affect ing
▁exerc ises
را كي
▁her ald
يت ش
clud es
▁(199 5)
▁يح صل
zy me
▁W ine
▁Science ,
▁مو ظ
▁5 %
▁چ هر
▁H P
orpor ated
▁account ed
وف ق
▁X III
▁مج الات
▁ur l
- per
▁D ors
▁sp elling
▁Zimb abwe
▁Ch uck
▁(2 6
▁vehic les,
e y,
ook s
▁(199 6)
▁الاحت رافية
Ar thur
▁دب ليو
▁التون سي
qu in
▁anten na
ب يوتر
▁احت يا
▁m eg
▁sol ve
▁L ut
-s ide
▁wel come
T O
▁loyal ty
▁ر ئاسة
يل .
sh i
▁الإ صلاح
▁Coast al
en o
al ach
▁purpos es,
▁l ighthouse
pr im
h as
▁ص باح
▁ق ليل
عض و
▁(w here
▁Q atar
osp here
▁1920 s,
▁n ation.
▁R as
▁catal ogue
▁p aved
let cher
▁gra ves
▁ب يع
▁a uxiliary
▁المؤ قت
▁se ar
▁un n
▁alt ogether
▁cast ing
▁Britain 's
ron ted
▁play s,
▁deep er
▁wor se
▁خ ي
▁excav ated
يات .
▁change .
com be
▁highlight ed
▁H imal
▁Pro blem
▁per former
▁Cret aceous
ur ally
▁Peter 's
▁Nich ol
▁Pres ervation
▁190 5,
▁المص ادر
▁وت س
▁(2 8
▁60 %
▁''S an
▁vol leyball
▁contact s
▁L uk
▁Air field
▁ge ological
▁incorpor ating
▁guit ar,
▁high ways
▁Re formation
▁conf ident
▁مع يلون
▁195 4.
um ann
ي قة
▁ات فاقية
▁inj ection
/ G
▁h ollow
od ied
▁ا عتبر
▁Sat urn
▁( ل
▁Da wn
al ore
▁Y ak
▁system atic
فاء ة
æ d
▁ي ذكر
field er
g reen
▁L ó
▁آ ره
ier i
l ed,
is es,
ut ies
▁at om
▁de port
▁Balk an
al og
-m aking
d en,
▁مح كمة
▁ان خفاض
▁I z
▁sh out
▁al ert
▁وت قع
▁national ly
▁m ourn
▁em igrated
قي ب
▁عبدال له
▁review ed
od ies
▁Qu int
▁Program me
▁M om
▁الع ظيم
▁Lyn n
▁V ald
▁اب نة
▁al -M
▁season s.
▁Mar tha
▁(2 1
▁welcom ed
▁الت عبير
▁وع مل
▁alumin um
ت ية
id i
oy le
▁sal ary
ب ون
▁acc redited
▁وت عتبر
▁R é
▁gra ce
▁Bal let
▁faith ful
▁explos ive
▁Empire ,
▁conspir acy
▁w ife.
▁''W ashington
▁c el
▁Cor on
-2 6
▁eros ion
▁d os
et us
▁stay ing
▁dec ommission
▁منت ج
▁إ عداد
e at
▁P red
▁ant agon
▁الإيط الية
▁s tern
▁she 's
▁Mag dal
▁الياب انية
▁re pt
▁b rack
▁Eston ia
▁R F
▁ث ال
amb ridge
▁institution al
/ N
▁fulf ill
▁m igrated
▁آس في
▁V ander
▁draw s
▁البال غ
▁l oot
▁low ered
▁bird s,
▁advant ages
ü hr
▁per f
yn es
▁morn ing,
▁t ab
▁de pr
▁إن ها
▁Confeder ation
▁f art
▁Mad ame
▁"M y
▁v end
▁Al leg
▁man ages
▁mart yr
▁gun s,
▁vo ices
▁arg uments
▁T yr
▁track ,
ع و
cl ip
وس يه
▁lar vae
▁A ero
▁met ro
▁اشت هر
▁courty ard
▁Sal on
aly mp
y ear
▁Ev ents
ain es
▁kne e
▁(ed s.
ut ely
▁al ly
زد وج
f al
ach im
ی‌ ها
▁supposed ly
▁certific ate
▁D up
ical ,
pos ing
▁short ,
▁brill iant
▁eleph ant
▁ي رى
▁compl ained
▁Island er
-2 2
▁imm une
▁Han over
w ara
▁الق ول
▁Bank s
▁Gram mar
▁B ri
▁is n't
▁Europe ans
ست انت
▁ق وانين
▁friend s,
▁respect ed
▁C umberland
▁3 3.
▁pure ly
▁cost ume
▁c anton
▁اله يدر
▁Saskatche wan
▁P omer
▁حال ی
▁ين بغي
▁Ant io
▁rob ust
▁broadcast s
▁الكهرب ائية
▁contain er
نا طي
▁deliber ately
▁C otton
▁al -A
▁play ers,
▁pain ters
▁St ro
▁الف كر
▁R ole
▁g rab
▁مض رب
▁trans f
▁pre fect
▁Ros a
▁الل ح
amb a
▁وه كذا
B L
▁water fall
▁sour ces.
▁G unn
▁الزرا عية
▁ومن تخب
ét é
▁Sal is
▁emb ra
▁Thurs day
َ ق
▁O v
▁r ust
let ter
▁ف وز
▁V oy
▁your self
▁هر ی
on 't
▁langu ages.
▁issue .
en ne
▁Mus ée
▁release .
s ay
▁ال ى
▁M int
▁ass ists
رائ ب
▁t rolley
▁Rec onnaissance
▁WW E
▁d ans
▁الذه بي
▁out sk
▁Cl oud
▁193 0s.
▁184 6
0 5
a er
in ed,
▁وا خت
▁G os
▁point ing
olph in
at isf
▁B rent
aus ole
k ind
▁W er
▁ع ربية
ید ی
▁ب وش
▁a ided
▁B é
▁Mot ion
ü d
▁الت و
▁Fl ash
▁far mer
▁Dou g
▁firm s
▁sl ip
▁193 8.
▁abov e.
▁in k
▁exp end
▁F ed
▁أعمال ه
▁dat a.
▁Sid ney
▁V ale
▁بن ك
▁George 's
▁(F ebruary
▁الع ثور
▁prol ong
وي لا
▁bound ed
▁''P ar
▁185 3
▁G C
▁mand atory
▁س وی
▁unit ,
▁Tro op
▁enact ed
ir rel
▁Gl ad
▁''A s
▁earli er,
▁D ix
m akers
▁anim ation
▁سن گ
▁الص ينية
que z
▁والأ م
▁ح اكم
▁الث دي
▁" ب
ib a
وا قع
kin s,
on s.
▁m ills
▁adv ances
▁13 7
▁State ,
▁Brazil ,
▁sail ors
n er.
ن ق
▁Card inals
▁prof ound
ال س
▁ف و
▁ident ifying
▁Cly de
is ers
▁m ason
▁R BI
▁مد ارس
▁يش كل
▁( left
▁Alb any
pe i
▁song writ
▁H ipp
▁موس كو
▁doct r
ig hed
▁c ass
▁الم وارد
▁195 2.
▁Re lease
▁north -west
▁Regiment ,
▁خ ليفة
▁inter rupted
▁ac ute
▁تو ی
▁hon ors
▁Territ orial
▁Antar ctica
b in
▁النات ج
amp s
▁Zü rich
olog ic
▁right s.
▁cou rage
▁W C
▁dis rupt
▁Societ y.
▁compat ible
▁different ial
▁Count ess
ط رة
▁are ,
▁resp ir
▁(t hen
▁الإ صابة
▁ارت باط
▁D M
▁prim itive
▁Found ed
er oy
▁P erm
▁N ile
▁al umni
يل د
▁ass erted
▁Scotland .
▁advertis ement
▁creat or
▁develop er
▁الح الية
▁team s,
▁Can cer
ul ator
▁Jes se
▁B ard
▁at he
▁R i
ograph y.
▁Trin idad
R E
▁M ald
▁de ity
▁situ ations
▁knock ed
▁( usually
▁ship .
▁ون صف
▁Dem ocracy
/ W
▁ب ها.
▁O kin
uch i
▁Great est
▁M .,
▁ت ار
k m
▁L ives
▁ت قييم
ract ed
▁presum ably
▁wall s.
▁Pakist ani
▁air ,
í o
▁con clus
▁الذ هب
▁drum s
▁enthus iast
▁ →
▁another ,
▁top ic
▁strong est
ؤ ه
am en
▁H ear
ير .
ating ,
▁occup ies
▁ec clesiastical
▁Slovak ia
▁pres idency
▁char itable
ک تر
▁ch ains
▁(200 5),
om atic
▁ومسا حتها
▁Dub ai
▁reb uild
an ol
▁Am ar
▁الأو راق
▁adjo ining
ov al
وس ،
▁بم ث
وار ع
س ية.
▁sup ern
▁غ زة
4, 000
▁التص نيف
▁constit ute
▁الم كر
▁all -time
▁الكيميا ئية
▁model s,
▁أص غر
▁£ 1
▁الكتاب ة
▁air .
an us
▁الأ طل
▁Advent ure
مر ار
▁Stud ies,
/ 12
▁Th an
▁relig ion,
▁م وقف
▁tour ,
od or
▁الأر ثوذ
▁ب ست
▁مج رد
▁R ous
▁fe es
▁people 's
▁can v
▁Appl ied
▁health care
▁P ablo
▁Park way
em ann
▁14 3
▁Min ing
▁unknown .
▁Ind eed,
▁اله جري
▁برا ون
▁export ed
/ t
i ological
▁s ax
▁T es
▁sid es.
hous es
▁of ,
▁h ood
▁C oss
▁Aer ospace
▁prosec ution
z ym
▁الم كون
▁curric ulum
▁ن حن
▁man 's
▁ball s
▁افتت اح
f ,
▁overs ee
▁corrid or
▁Ch âteau
▁two -
▁s ometime
▁M ob
▁B oul
▁النها ئية
جراء ات
▁13 6
▁con form
▁ول ذلك
▁P ors
▁le ak
▁off ense
▁190 1,
▁184 7
▁negot iated
▁to ugh
-s ong
▁و مل
k ir
▁د اري
▁X box
▁Ant oine
oll ing
▁tar iff
▁Orland o
▁( most
▁''S ch
er y.
es pecially
▁H ague
▁Bird s
▁ت وقف
▁mix ing
▁الفلس فة
▁L ore
▁ت من
▁183 7
▁territ or
▁ک ری
▁الابت د
▁ث نائي
وائ ر
- ra
▁po ets
▁sac rific
▁bond s
ol a,
ush room
▁monarch y
يت ين
▁185 2
▁الف يدر
▁بك ثير
▁U d
ه يل
▁F o
▁ex ports
▁الت واصل
-n ew
▁advent ure
▁ج عفر
▁Ph arm
▁famil ies,
▁المنا خ
▁Brown ,
▁dest inations
▁D ise
-1 00
صف ة
▁1920 .
▁Express way
▁to o.
▁H of
▁Z ur
el en
▁se a,
▁trad e,
▁الم اج
▁two .
▁المص طلح
▁فقط .
le en
▁الإ له
ond a
▁الذات ية
▁أ سلوب
▁mark er
g ae
تي ال
▁recently ,
isl av
▁lack ing
نب ول
▁disease .
▁d warf
▁وأ كثر
▁reconst ructed
▁pro jection
▁k een
▁civil ization
▁مم ت
▁Andre as
▁ت اری
viron ments
it es.
▁es p
▁Grad uate
▁Veter ans
▁launch ing
c ad
ست ي
á z
ari at
▁U tt
▁در ی
▁العلمي :
▁roll er
▁دائ م
▁''' 201
isc o
ان م
▁هست ند
▁W o
▁Wal sh
▁الك امل
▁Spring field
▁evacu ation
y )
▁Communic ation
▁c ry
-s outh
▁لب ريطانيا
▁Bat man
▁وإ د
▁were :
ev o
▁gradu ates
▁hop ing
لا قة
oura ge
▁compos itions
▁فری اد
▁كيل و
▁med ia,
▁Cong ress,
l .
▁t ire
▁sh apes
▁" not
▁scholar ly
▁except ional
▁الش ديد
ن يا
▁R ather
▁st iff
رق ية
ash tra
▁(or ig
▁Bh ut
▁استط اع
▁O rient
▁س وري
▁party 's
▁sufficient ly
▁Soft ware
▁F asc
▁195 3.
▁Brand enburg
▁unemploy ment
▁د يل
▁الح رية
▁comm od
▁گذا شت
▁الأ بحاث
14 1/
▁surpr ised
▁مارت ن
▁Un fortun
▁co- oper
R ,
[...]
