{"<pad>":0,"<s>":1,"<unk>":2,"<mask>":3,"</s>":4,"<ar>":5,"<en>":6,"<fa>":7,"!":8,"\"":9,"#":10,"$":11,"%":12,"&":13,"'":14,"(":15,")":16,"*":17,"+":18,",":19,"-":20,".":21,"/":22,"0":23,"1":24,"2":25,"3":26,"4":27,"5":28,"6":29,"7":30,"8":31,"9":32,":":33,";":34,"=":35,">":36,"?":37,"@":38,"A":39,"B":40,"C":41,"D":42,"E":43,"F":44,"G":45,"H":46,"I":47,"J":48,"K":49,"L":50,"M":51,"N":52,"O":53,"P":54,"Q":55,"R":56,"S":57,"T":58,"U":59,"V":60,"W":61,"X":62,"Y":63,"Z":64,"[":65,"\\":66,"]":67,"^":68,"_":69,"`":70,"a":71,"b":72,"c":73,"d":74,"e":75,"f":76,"g":77,"h":78,"i":79,"j":80,"k":81,"l":82,"m":83,"n":84,"o":85,"p":86,"q":87,"r":88,"s":89,"t":90,"u":91,"v":92,"w":93,"x":94,"y":95,"z":96,"~":97,"¡":98,"¢":99,"£":100,"¥":101,"§":102,"©":103,"«":104,"­":105,"®":106,"°":107,"±":108,"¶":109,"·":110,"»":111,"¿":112,"À":113,"Á":114,"Â":115,"Ä":116,"Å":117,"Æ":118,"Ç":119,"È":120,"É":121,"Í":122,"Î":123,"Ñ":124,"Ó":125,"Ö":126,"×":127,"Ø":128,"Ù":129,"Ú":130,"Ü":131,"Þ":132,"ß":133,"à":134,"á":135,"â":136,"ã":137,"ä":138,"å":139,"æ":140,"ç":141,"è":142,"é":143,"ê":144,"ë":145,"ì":146,"í":147,"î":148,"ï":149,"ð":150,"ñ":151,"ò":152,"ó":153,"ô":154,"õ":155,"ö":156,"÷":157,"ø":158,"ù":159,"ú":160,"û":161,"ü":162,"ý":163,"þ":164,"ÿ":165,"Ā":166,"ā":167,"ă":168,"ą":169,"Ć":170,"ć":171,"Č":172,"č":173,"Đ":174,"đ":175,"ē":176,"ė":177,"ę":178,"ě":179,"ğ":180,"Ġ":181,"ġ":182,"Ħ":183,"ħ":184,"ĩ":185,"ī":186,"ĭ":187,"İ":188,"ı":189,"ļ":190,"ľ":191,"Ł":192,"ł":193,"ń":194,"ņ":195,"ň":196,"ŋ":197,"Ō":198,"ō":199,"ŏ":200,"ő":201,"Œ":202,"œ":203,"Ř":204,"ř":205,"Ś":206,"ś":207,"Ş":208,"ş":209,"Š":210,"š":211,"ţ":212,"ť":213,"ũ":214,"ū":215,"ŭ":216,"Ů":217,"ů":218,"ű":219,"ų":220,"ŵ":221,"ź":222,"Ż":223,"ż":224,"Ž":225,"ž":226,"ƒ":227,"ơ":228,"ư":229,"ǎ":230,"ǐ":231,"ǒ":232,"ǔ":233,"ǫ":234,"Ș":235,"ș":236,"Ț":237,"ț":238,"ɔ":239,"ə":240,"ɛ":241,"ʀ":242,"ʃ":243,"ʔ":244,"ʻ":245,"ʼ":246,"ʾ":247,"ʿ":248,"ˈ":249,"ː":250,"́":251,"̈":252,"̣":253,"Α":254,"Β":255,"Γ":256,"Δ":257,"Ε":258,"Η":259,"Θ":260,"Ι":261,"Κ":262,"Λ":263,"Μ":264,"Ν":265,"Ο":266,"Π":267,"Ρ":268,"Σ":269,"Τ":270,"Υ":271,"Φ":272,"Χ":273,"Ψ":274,"Ω":275,"ά":276,"έ":277,"ή":278,"ί":279,"α":280,"β":281,"γ":282,"δ":283,"ε":284,"ζ":285,"η":286,"θ":287,"ι":288,"κ":289,"λ":290,"μ":291,"ν":292,"ξ":293,"ο":294,"π":295,"ρ":296,"ς":297,"σ":298,"τ":299,"υ":300,"φ":301,"χ":302,"ψ":303,"ω":304,"ό":305,"ύ":306,"ώ":307,"І":308,"А":309,"Б":310,"В":311,"Г":312,"Д":313,"Е":314,"Ж":315,"З":316,"И":317,"Й":318,"К":319,"Л":320,"М":321,"Н":322,"О":323,"П":324,"Р":325,"С":326,"Т":327,"У":328,"Ф":329,"Х":330,"Ц":331,"Ч":332,"Ш":333,"Э":334,"Ю":335,"Я":336,"а":337,"б":338,"в":339,"г":340,"д":341,"е":342,"ж":343,"з":344,"и":345,"й":346,"к":347,"л":348,"м":349,"н":350,"о":351,"п":352,"р":353,"с":354,"т":355,"у":356,"ф":357,"х":358,"ц":359,"ч":360,"ш":361,"щ":362,"ъ":363,"ы":364,"ь":365,"э":366,"ю":367,"я":368,"ё":369,"і":370,"ї":371,"ј":372,"њ":373,"ћ":374,"ӏ":375,"Ա":376,"Հ":377,"ա":378,"գ":379,"ե":380,"թ":381,"ի":382,"լ":383,"կ":384,"հ":385,"մ":386,"յ":387,"ն":388,"ո":389,"ս":390,"վ":391,"տ":392,"ր":393,"ց":394,"ւ":395,"ְ":396,"ִ":397,"ֵ":398,"ַ":399,"ָ":400,"ֹ":401,"ּ":402,"א":403,"ב":404,"ג":405,"ד":406,"ה":407,"ו":408,"ז":409,"ח":410,"ט":411,"י":412,"ך":413,"כ":414,"ל":415,"ם":416,"מ":417,"ן":418,"נ":419,"ס":420,"ע":421,"פ":422,"צ":423,"ק":424,"ר":425,"ש":426,"ת":427,"،":428,"؛":429,"؟":430,"ء":431,"آ":432,"أ":433,"ؤ":434,"إ":435,"ئ":436,"ا":437,"ب":438,"ة":439,"ت":440,"ث":441,"ج":442,"ح":443,"خ":444,"د":445,"ذ":446,"ر":447,"ز":448,"س":449,"ش":450,"ص":451,"ض":452,"ط":453,"ظ":454,"ع":455,"غ":456,"ـ":457,"ف":458,"ق":459,"ك":460,"ل":461,"م":462,"ن":463,"ه":464,"و":465,"ى":466,"ي":467,"ً":468,"ٌ":469,"ٍ":470,"َ":471,"ُ":472,"ِ":473,"ّ":474,"ْ":475,"ٔ":476,"٠":477,"١":478,"٢":479,"٣":480,"٤":481,"٥":482,"٦":483,"٧":484,"٨":485,"٩":486,"٪":487,"٫":488,"٬":489,"ٰ":490,"ٱ":491,"پ":492,"چ":493,"ژ":494,"ڤ":495,"ک":496,"ڭ":497,"گ":498,"ھ":499,"ۀ":500,"ہ":501,"ی":502,"ە":503,"۰":504,"۱":505,"۲":506,"۳":507,"۴":508,"۵":509,"۶":510,"۷":511,"۸":512,"۹":513,"ܐ":514,"ं":515,"अ":516,"आ":517,"क":518,"ग":519,"च":520,"ज":521,"ट":522,"ड":523,"ण":524,"त":525,"थ":526,"द":527,"ध":528,"न":529,"प":530,"ब":531,"भ":532,"म":533,"य":534,"र":535,"ल":536,"व":537,"श":538,"ष":539,"स":540,"ह":541,"ा":542,"ि":543,"ी":544,"ु":545,"ू":546,"े":547,"ो":548,"्":549,"॥":550,"ক":551,"ত":552,"দ":553,"ন":554,"ব":555,"ম":556,"য":557,"র":558,"ল":559,"স":560,"া":561,"ি":562,"ু":563,"ে":564,"্":565,"க":566,"ச":567,"ட":568,"த":569,"ன":570,"ப":571,"ம":572,"ய":573,"ர":574,"ல":575,"வ":576,"ா":577,"ி":578,"ு":579,"ை":580,"்":581,"ക":582,"ത":583,"ന":584,"ര":585,"ാ":586,"ി":587,"ു":588,"്":589,"්":590,"ก":591,"ข":592,"ค":593,"ง":594,"จ":595,"ช":596,"ด":597,"ต":598,"ท":599,"น":600,"บ":601,"ป":602,"พ":603,"ม":604,"ย":605,"ร":606,"ล":607,"ว":608,"ศ":609,"ส":610,"ห":611,"อ":612,"ะ":613,"ั":614,"า":615,"ิ":616,"ี":617,"ุ":618,"เ":619,"แ":620,"่":621,"้":622,"์":623,"ํ":624,"་":625,"ა":626,"ბ":627,"დ":628,"ე":629,"ვ":630,"თ":631,"ი":632,"ლ":633,"მ":634,"ნ":635,"ო":636,"რ":637,"ს":638,"უ":639,"ḍ":640,"Ḥ":641,"ḥ":642,"ḷ":643,"ṃ":644,"ṅ":645,"ṇ":646,"ṛ":647,"ṣ":648,"ṭ":649,"ạ":650,"ả":651,"ấ":652,"ầ":653,"ậ":654,"ắ":655,"ế":656,"ề":657,"ễ":658,"ệ":659,"ị":660,"ọ":661,"ố":662,"ồ":663,"ổ":664,"ộ":665,"ớ":666,"ờ":667,"ợ":668,"ụ":669,"ủ":670,"ứ":671,"ử":672,"ữ":673,"ỳ":674,"ỹ":675,"ἀ":676,"Ἀ":677,"ἐ":678,"ὁ":679,"Ὁ":680,"ὐ":681,"ὰ":682,"ὶ":683,"ὸ":684,"ῆ":685,"ῖ":686,"ῦ":687,"ῶ":688,"‌":689,"‍":690,"‎":691,"‏":692,"‐":693,"‒":694,"–":695,"—":696,"―":697,"‘":698,"’":699,"‚":700,"“":701,"”":702,"„":703,"†":704,"‡":705,"•":706,"‬":707,"‰":708,"′":709,"‹":710,"›":711,"⁄":712,"€":713,"₱":714,"₹":715,"←":716,"↑":717,"→":718,"↔":719,"∈":720,"−":721,"∞":722,"≈":723,"≤":724,"≥":725,"│":726,"▁":727,"●":728,"♫":729,"、":730,"。":731,"《":732,"》":733,"「":734,"」":735,"『":736,"』":737,"い":738,"う":739,"お":740,"か":741,"が":742,"き":743,"け":744,"こ":745,"さ":746,"し":747,"す":748,"た":749,"て":750,"と":751,"な":752,"に":753,"の":754,"は":755,"ま":756,"ら":757,"り":758,"る":759,"を":760,"ん":761,"ア":762,"イ":763,"カ":764,"キ":765,"ク":766,"コ":767,"サ":768,"シ":769,"ジ":770,"ス":771,"タ":772,"ッ":773,"ト":774,"ド":775,"フ":776,"マ":777,"ラ":778,"リ":779,"ル":780,"レ":781,"ロ":782,"ン":783,"・":784,"ー":785,"一":786,"七":787,"三":788,"上":789,"下":790,"不":791,"世":792,"东":793,"中":794,"主":795,"之":796,"九":797,"乡":798,"事":799,"二":800,"五":801,"京":802,"人":803,"代":804,"会":805,"信":806,"元":807,"光":808,"全":809,"八":810,"公":811,"六":812,"典":813,"内":814,"出":815,"前":816,"劉":817,"化":818,"北":819,"区":820,"十":821,"华":822,"南":823,"原":824,"口":825,"古":826,"台":827,"史":828,"号":829,"司":830,"合":831,"吉":832,"名":833,"和":834,"四":835,"国":836,"國":837,"在":838,"地":839,"城":840,"堂":841,"報":842,"士":843,"外":844,"大":845,"天":846,"太":847,"女":848,"子":849,"字":850,"学":851,"學":852,"安":853,"宗":854,"官":855,"家":856,"寺":857,"小":858,"山":859,"島":860,"川":861,"州":862,"工":863,"市":864,"平":865,"年":866,"庄":867,"店":868,"建":869,"式":870,"張":871,"德":872,"心":873,"志":874,"成":875,"所":876,"手":877,"政":878,"教":879,"文":880,"新":881,"方":882,"族":883,"日":884,"明":885,"星":886,"時":887,"書":888,"會":889,"月":890,"有":891,"朝":892,"木":893,"本":894,"李":895,"村":896,"東":897,"松":898,"林":899,"校":900,"桥":901,"正":902,"武":903,"氏":904,"民":905,"水":906,"永":907,"江":908,"沙":909,"河":910,"法":911,"海":912,"清":913,"港":914,"湖":915,"版":916,"物":917,"王":918,"理":919,"生":920,"田":921,"白":922,"百":923,"的":924,"皇":925,"真":926,"石":927,"研":928,"社":929,"神":930,"福":931,"科":932,"究":933,"立":934,"第":935,"美":936,"義":937,"者":938,"自":939,"花":940,"英":941,"華":942,"行":943,"街":944,"西":945,"記":946,"語":947,"路":948,"軍":949,"通":950,"道":951,"選":952,"郎":953,"部":954,"都":955,"里":956,"野":957,"金":958,"鑑":959,"镇":960,"長":961,"門":962,"阳":963,"院":964,"陳":965,"陽":966,"集":967,"青":968,"館":969,"香":970,"馬":971,"马":972,"高":973,"黄":974,"龍":975,"龙":976,"ꞌ":977,"가":978,"고":979,"국":980,"기":981,"다":982,"대":983,"도":984,"동":985,"리":986,"사":987,"선":988,"성":989,"수":990,"시":991,"아":992,"원":993,"의":994,"이":995,"인":996,"자":997,"전":998,"정":999,"제":1000,"조":1001,"주":1002,"지":1003,"한":1004,"﴾":1005,"﴿":1006,"�":1007,"▁t":1008,"he":1009,"▁a":1010,"in":1011,"er":1012,"▁the":1013,"on":1014,"re":1015,"▁o":1016,"ال":1017,"an":1018,"at":1019,"en":1020,"▁s":1021,"ed":1022,"or":1023,"▁w":1024,"▁ال":1025,"is":1026,"ar":1027,"it":1028,"▁of":1029,"es":1030,"al":1031,"▁c":1032,"nd":1033,"▁in":1034,"▁f":1035,"▁b":1036,"▁p":1037,"''":1038,"▁and":1039,"ing":1040,"as":1041,"ic":1042,"ro":1043,"ion":1044,"▁to":1045,"▁m":1046,"▁d":1047,"le":1048,"ou":1049,"▁S":1050,"▁T":1051,"▁1":1052,"▁h":1053,"▁A":1054,"▁C":1055,"il":1056,"ent":1057,"▁م":1058,"st":1059,"el":1060,"om":1061,"▁و":1062,"▁M":1063,"▁re":1064,"ol":1065,"am":1066,"▁l":1067,"▁''":1068,"ct":1069,"▁B":1070,"ad":1071,"▁(":1072,"▁ب":1073,"▁n":1074,"et":1075,"ur":1076,"▁I":1077,"▁th":1078,"▁P":1079,"▁2":1080,"ch":1081,"▁e":1082,"iv":1083,"▁The":1084,"ation":1085,"id":1086,"us":1087,"▁ف":1088,"ig":1089,"▁was":1090,"▁H":1091,"ir":1092,"ly":1093,"ce":1094,"im":1095,"▁on":1096,"ot":1097,"▁for":1098,"▁,":1099,"▁R":1100,"ut":1101,"▁19":1102,"▁g":1103,"ra":1104,"ter":1105,"▁.":1106,"ow":1107,"ان":1108,"ية":1109,"▁D":1110,"▁F":1111,"▁be":1112,"▁is":1113,"▁أ":1114,"▁L":1115,"ith":1116,"▁as":1117,"▁G":1118,"ers":1119,"ay":1120,"un":1121,"▁20":1122,"em":1123,"▁st":1124,"▁N":1125,"▁في":1126,"▁W":1127,"her":1128,"ul":1129,"▁ع":1130,"and":1131,"▁with":1132,"▁ل":1133,"▁ت":1134,"ist":1135,"th":1136,"▁E":1137,"ver":1138,"▁الم":1139,"▁by":1140,"os":1141,"ات":1142,"▁J":1143,"ag":1144,"ار":1145,"▁wh":1146,"um":1147,"▁\"":1148,"▁con":1149,"'s":1150,"▁al":1151,"ac":1152,"rom":1153,"▁at":1154,"ri":1155,"ين":1156,"est":1157,"▁that":1158,"▁an":1159,"▁O":1160,"s,":1161,"op":1162,"▁من":1163,"av":1164,"ain":1165,"▁de":1166,"od":1167,"ام":1168,"▁v":1169,"▁he":1170,"oc":1171,"▁it":1172,"ity":1173,"▁In":1174,"res":1175,"▁from":1176,"ill":1177,"▁pro":1178,"s.":1179,"ate":1180,"if":1181,"ew":1182,"ab":1183,"ort":1184,"▁com":1185,"up":1186,"ber":1187,"ies":1188,"ian":1189,"art":1190,"pe":1191,"▁ك":1192,"▁K":1193,"▁se":1194,"را":1195,"▁U":1196,"ia":1197,"▁or":1198,"ld":1199,"ud":1200,"all":1201,"qu":1202,"ard":1203,"igh":1204,"se":1205,"ich":1206,"▁are":1207,"▁ي":1208,"ore":1209,"ري":1210,"ant":1211,"00":1212,"ها":1213,"ون":1214,"ak":1215,"▁St":1216,"ap":1217,"▁ا":1218,"ول":1219,"ere":1220,"▁س":1221,"▁r":1222,"ated":1223,"ub":1224,"ge":1225,"▁201":1226,"▁د":1227,"▁ex":1228,"▁إ":1229,"▁his":1230,"ment":1231,"▁ن":1232,"▁ه":1233,"ary":1234,"ip":1235,"ess":1236,"▁were":1237,"ial":1238,"ov":1239,"ine":1240,"ive":1241,"لى":1242,"▁الأ":1243,"ug":1244,"nt":1245,"▁V":1246,"our":1247,"und":1248,"ast":1249,"end":1250,"▁Ch":1251,"ست":1252,"ير":1253,"ell":1254,"▁ch":1255,"ure":1256,"▁ح":1257,"▁200":1258,"اد":1259,"ear":1260,"ust":1261,"ong":1262,"▁y":1263,"ish":1264,"og":1265,"▁pl":1266,"ost":1267,"ction":1268,"▁which":1269,"ran":1270,"ور":1271,"ep":1272,"ical":1273,"▁le":1274,"▁ق":1275,"'''":1276,"▁sh":1277,"▁18":1278,"ight":1279,"ire":1280,"ame":1281,"▁الت":1282,"▁'''":1283,"▁الع":1284,"▁وال":1285,"ord":1286,"▁k":1287,"uc":1288,"ther":1289,"▁ج":1290,"cl":1291,"ie":1292,"لي":1293,"▁had":1294,"mer":1295,"ff":1296,"ave":1297,"▁not":1298,"ry":1299,"ork":1300,"so":1301,"),":1302,"e,":1303,"▁us":1304,"ous":1305,"per":1306,"ما":1307,"▁ar":1308,"ition":1309,"▁un":1310,"▁3":1311,"pl":1312,"اب":1313,"port":1314,"ok":1315,"▁،":1316,"ue":1317,"ass":1318,"ign":1319,"▁comp":1320,"iz":1321,"ack":1322,"▁ش":1323,"ome":1324,"age":1325,"ect":1326,"are":1327,"19":1328,"man":1329,"irst":1330,"لا":1331,"ater":1332,"يا":1333,"erv":1334,"▁also":1335,"▁Th":1336,"ond":1337,"▁Un":1338,"ide":1339,"▁whe":1340,"▁cont":1341,"ib":1342,"ult":1343,"▁ro":1344,"▁cl":1345,"▁int":1346,"ric":1347,"وا":1348,"rit":1349,"يد":1350,"land":1351,"ount":1352,"▁has":1353,"▁–":1354,"▁its":1355,"cc":1356,"ود":1357,").":1358,"ould":1359,"own":1360,"▁خ":1361,"▁He":1362,"out":1363,"hed":1364,"▁لل":1365,"▁their":1366,"▁-":1367,"▁ad":1368,"pt":1369,"▁have":1370,"▁It":1371,"ang":1372,"▁res":1373,"ark":1374,"fter":1375,"ence":1376,"▁على":1377,"ice":1378,"▁but":1379,"▁first":1380,"▁ab":1381,"ory":1382,"ru":1383,"▁Y":1384,"wo":1385,"▁part":1386,"ational":1387,"▁Ar":1388,"ach":1389,"▁Al":1390,"ens":1391,"es,":1392,"ند":1393,"▁ر":1394,"ree":1395,"▁this":1396,"over":1397,"ite":1398,"▁all":1399,"▁الس":1400,"نا":1401,"▁ک":1402,"ally":1403,"tern":1404,"ace":1405,"▁man":1406,"te":1407,"ik":1408,"▁en":1409,"ne":1410,"ugh":1411,"ound":1412,"▁who":1413,"▁ap":1414,"▁الح":1415,"▁199":1416,"يل":1417,"ng":1418,"ild":1419,"▁per":1420,"▁one":1421,"es.":1422,"بر":1423,"y,":1424,"▁4":1425,"▁j":1426,"sh":1427,"wn":1428,"clud":1429,"▁الق":1430,"ile":1431,"▁been":1432,"▁year":1433,"'',":1434,"uch":1435,"ec":1436,"▁im":1437,"▁other":1438,"وم":1439,"act":1440,"ubl":1441,"رب":1442,"gh":1443,"old":1444,"ph":1445,"fer":1446,"ade":1447,"oll":1448,"The":1449,"uring":1450,"رة":1451,"amp":1452,"▁te":1453,"ime":1454,"▁bec":1455,"ail":1456,"لك":1457,"aw":1458,"▁أن":1459,"iss":1460,"عد":1461,"orm":1462,"vel":1463,"▁her":1464,"we":1465,"▁الج":1466,"▁ag":1467,"ائ":1468,"▁des":1469,"able":1470,"▁includ":1471,"ind":1472,"ited":1473,"▁two":1474,"▁Mar":1475,"▁comm":1476,"int":1477,"▁5":1478,"ress":1479,"يم":1480,"▁New":1481,"حد":1482,"▁rec":1483,"عة":1484,"ied":1485,"oy":1486,"▁الب":1487,"▁dis":1488,"ely":1489,"ations":1490,"▁up":1491,"one":1492,"ood":1493,"▁sp":1494,"ool":1495,"ember":1496,"▁إلى":1497,"▁مع":1498,"▁over":1499,"سم":1500,"▁Com":1501,"▁out":1502,"ivers":1503,"ates":1504,"▁sc":1505,"ob":1506,"ough":1507,"ance":1508,"ath":1509,"▁they":1510,"▁can":1511,"ft":1512,"▁after":1513,"red":1514,"▁new":1515,"▁ra":1516,"eg":1517,"▁work":1518,"orn":1519,"eb":1520,"▁into":1521,"ron":1522,"▁bu":1523,"▁الإ":1524,"▁und":1525,"▁off":1526,"ss":1527,"way":1528,"▁cent":1529,"▁بال":1530,"ose":1531,"▁ev":1532,"▁الد":1533,"▁spe":1534,"▁6":1535,"▁الن":1536,"وس":1537,"▁198":1538,"اف":1539,"▁tra":1540,"urn":1541,"ces":1542,"rough":1543,"orld":1544,"meric":1545,"use":1546,"▁De":1547,"▁الف":1548,"▁آ":1549,"هم":1550,"▁الش":1551,"a,":1552,"▁الك":1553,"▁att":1554,"▁pre":1555,"▁loc":1556,"ook":1557,"outh":1558,"▁more":1559,"gan":1560,"ident":1561,"▁(19":1562,"▁gro":1563,"▁fl":1564,"ward":1565,"io":1566,"اء":1567,"du":1568,"oh":1569,"les":1570,"▁would":1571,"ict":1572,"reat":1573,"ah":1574,"ren":1575,"ors":1576,"▁me":1577,"دم":1578,"ased":1579,"▁bet":1580,"ans":1581,"ase":1582,"20":1583,"ons":1584,"er,":1585,"▁:":1586,"رك":1587,"orth":1588,"وي":1589,"ever":1590,"▁under":1591,"chool":1592,"▁reg":1593,"ake":1594,"ick":1595,"rans":1596,"▁عام":1597,"ock":1598,"ral":1599,"▁serv":1600,"▁kn":1601,"▁acc":1602,"▁197":1603,"في":1604,"ton":1605,"lect":1606,"ener":1607,"لم":1608,"che":1609,"y.":1610,"▁Americ":1611,"ual":1612,"ev":1613,"▁ص":1614,"oth":1615,"وب":1616,"olog":1617,"ed.":1618,"ious":1619,"▁play":1620,"rib":1621,"سي":1622,"▁cons":1623,"ween":1624,"ex":1625,"▁most":1626,"▁op":1627,"att":1628,"▁ind":1629,"ings":1630,"rad":1631,"inal":1632,"▁sup":1633,"▁when":1634,"سب":1635,"▁him":1636,"ions":1637,"▁17":1638,"▁7":1639,"ents":1640,"▁she":1641,"▁196":1642,"▁used":1643,"ular":1644,"ished":1645,"▁به":1646,"تم":1647,"▁This":1648,"ey":1649,"▁pr":1650,"iet":1651,"▁Sh":1652,"▁only":1653,"▁there":1654,"▁On":1655,"ram":1656,"ublic":1657,"لة":1658,"▁sy":1659,"▁col":1660,"▁''The":1661,"▁during":1662,"▁An":1663,"▁between":1664,"▁با":1665,"ck":1666,"▁than":1667,"▁so":1668,"▁194":1669,"▁sec":1670,"form":1671,"▁rel":1672,"ince":1673,"eld":1674,"ted":1675,"▁we":1676,"ities":1677,"az":1678,"overn":1679,"▁pe":1680,"▁form":1681,"▁act":1682,"انت":1683,"▁qu":1684,"▁ear":1685,"ll":1686,"ouse":1687,"قد":1688,"▁lar":1689,"ts":1690,"pr":1691,"iversity":1692,"▁time":1693,"▁)":1694,"▁Ind":1695,"▁rem":1696,"ered":1697,"ific":1698,"قة":1699,"pro":1700,"يو":1701,"▁(1":1702,"▁8":1703,"▁such":1704,"▁inter":1705,"aj":1706,"ank":1707,"▁them":1708,"000":1709,"▁through":1710,"oun":1711,"ced":1712,"▁sub":1713,"▁some":1714,"اع":1715,"▁الر":1716,"cial":1717,"▁Con":1718,"ann":1719,"ix":1720,"▁ط":1721,"▁found":1722,"▁ما":1723,"ating":1724,"رد":1725,"oint":1726,"son":1727,"▁where":1728,"ern":1729,"▁pres":1730,"▁about":1731,"air":1732,"▁Le":1733,"duc":1734,"▁am":1735,"▁غ":1736,"ollow":1737,"ier":1738,"▁ass":1739,"▁ret":1740,"▁co":1741,"▁car":1742,"round":1743,"▁War":1744,"\".":1745,"▁inc":1746,"وق":1747,"▁وت":1748,"▁Z":1749,"▁را":1750,"ing,":1751,"▁15":1752,"▁pol":1753,"▁عن":1754,"pos":1755,"▁do":1756,"ism":1757,"يات":1758,"▁9":1759,"▁bl":1760,"ower":1761,"▁المت":1762,"▁16":1763,"erman":1764,"بي":1765,"▁prov":1766,"▁you":1767,"▁10":1768,"ement":1769,"▁stud":1770,"fore":1771,"▁again":1772,"ed,":1773,"▁Pro":1774,"e.":1775,"amil":1776,"من":1777,"iver":1778,"▁ac":1779,"ines":1780,"اني":1781,"▁195":1782,"ative":1783,"ten":1784,"▁fe":1785,"▁made":1786,"▁Col":1787,"▁trans":1788,"▁Is":1789,"▁num":1790,"cess":1791,"velop":1792,"ober":1793,"very":1794,"ople":1795,"نة":1796,"ذا":1797,"any":1798,"ject":1799,"بل":1800,"▁end":1801,"▁Sc":1802,"a.":1803,"▁Joh":1804,"مل":1805,"ision":1806,"▁هو":1807,"▁As":1808,"▁الخ":1809,"ution":1810,"▁United":1811,"erm":1812,"▁أو":1813,"urch":1814,"ی‌":1815,"hen":1816,"▁three":1817,"▁art":1818,"▁pop":1819,"▁Cl":1820,"▁Fran":1821,"▁sur":1822,"ني":1823,"▁ent":1824,"شر":1825,"ield":1826,"وج":1827,"▁الص":1828,"ert":1829,"▁many":1830,"stem":1831,"ale":1832,"ve":1833,"رج":1834,"▁Eng":1835,"▁التي":1836,"tt":1837,"ins":1838,"▁University":1839,"▁no":1840,"▁For":1841,"ash":1842,"..":1843,"▁inv":1844,"ًا":1845,"▁p.":1846,"▁mod":1847,"▁well":1848,"▁mov":1849,"iam":1850,"▁ز":1851,"اري":1852,"▁later":1853,"▁then":1854,"ason":1855,"1,":1856,"ather":1857,"▁الا":1858,"uss":1859,"▁American":1860,"▁follow":1861,"oss":1862,"يت":1863,"سا":1864,"emb":1865,"ship":1866,"▁known":1867,"كن":1868,"uro":1869,"▁ph":1870,"▁John":1871,"حت":1872,"▁main":1873,"4,":1874,"ett":1875,"▁call":1876,"▁being":1877,"ین":1878,"2,":1879,"▁dist":1880,"inn":1881,"▁oper":1882,".\"":1883,"ike":1884,"▁became":1885,"▁193":1886,"كت":1887,"▁ذ":1888,"ural":1889,"aid":1890,"rid":1891,"▁که":1892,"▁air":1893,"\",":1894,"▁est":1895,"▁build":1896,"▁count":1897,"▁Brit":1898,"▁German":1899,"كان":1900,"وف":1901,"enn":1902,"overnment":1903,"▁Comm":1904,"▁add":1905,"ics":1906,"ley":1907,"مد":1908,"ived":1909,"▁sm":1910,"5,":1911,"0,":1912,"▁Q":1913,"▁em":1914,"ept":1915,"eth":1916,"▁در":1917,"ilm":1918,"▁الث":1919,"▁Sp":1920,"other":1921,"فت":1922,"owever":1923,"▁inst":1924,"▁Car":1925,"▁high":1926,"جم":1927,"▁World":1928,"▁mon":1929,"▁dec":1930,"''.":1931,"ature":1932,"▁cap":1933,"iew":1934,"ilt":1935,"3,":1936,"ures":1937,"▁May":1938,"▁الذ":1939,"▁ed":1940,"▁develop":1941,"ont":1942,"▁def":1943,"ury":1944,"▁design":1945,"▁including":1946,"▁second":1947,"▁people":1948,"une":1949,"au":1950,"▁است":1951,"▁&":1952,"▁city":1953,"▁while":1954,"ise":1955,"elf":1956,"▁day":1957,"▁At":1958,"▁dif":1959,"▁National":1960,"cy":1961,"▁Ph":1962,"▁hist":1963,"▁مح":1964,"8,":1965,"▁years":1966,"حدة":1967,"ull":1968,"لد":1969,"▁char":1970,"▁own":1971,"▁Jan":1972,"ple":1973,"▁بن":1974,"ax":1975,"▁York":1976,"▁lead":1977,"der":1978,"▁'":1979,"ek":1980,"rist":1981,"ames":1982,"als":1983,"til":1984,"ys":1985,"7,":1986,"▁these":1987,"ister":1988,"▁الط":1989,"ريك":1990,"ract":1991,"6,":1992,"▁Air":1993,"200":1994,"▁sign":1995,"irect":1996,"▁may":1997,"ina":1998,"▁will":1999,"ually":2000,"▁ne":2001,"▁four":2002,"يس":2003,"ause":2004,"▁system":2005,"▁ext":2006,"▁Wh":2007,"▁cre":2008,"▁both":2009,"وت":2010,"ient":2011,"ium":2012,"▁school":2013,"▁before":2014,"با":2015,"خت":2016,"يف":2017,"▁min":2018,"ing.":2019,"▁long":2020,"raph":2021,"▁famil":2022,"fl":2023,"مة":2024,"▁Cent":2025,"▁Bl":2026,"ke":2027,"▁offic":2028,"▁gener":2029,"▁12":2030,"eng":2031,"ized":2032,"▁orig":2033,"▁كان":2034,"▁Ad":2035,"ai":2036,"com":2037,"▁sever":2038,"ife":2039,"its":2040,"abl":2041,"مر":2042,"▁Ju":2043,"▁open":2044,"ute":2045,"ined":2046,"▁until":2047,"oot":2048,"▁land":2049,"▁mar":2050,"▁var":2051,"▁Pl":2052,"cept":2053,"▁وي":2054,"▁از":2055,"ired":2056,"9,":2057,"▁comple":2058,"▁ob":2059,"ink":2060,"eries":2061,"▁191":2062,"كل":2063,"-1":2064,"شت":2065,"سة":2066,"▁Aust":2067,"▁const":2068,"ible":2069,"سل":2070,"دي":2071,"ved":2072,"ission":2073,"owever,":2074,"oman":2075,"▁''S":2076,"▁back":2077,"ross":2078,"my":2079,"▁spec":2080,"هر":2081,"▁war":2082,"1.":2083,"ajor":2084,"▁number":2085,"قي":2086,"▁team":2087,"ained":2088,"▁any":2089,"▁پ":2090,"ped":2091,"itt":2092,"▁می‌":2093,"lection":2094,"▁She":2095,"▁Euro":2096,"ید":2097,"▁'',":2098,"uary":2099,"▁group":2100,"4.":2101,"ven":2102,"▁ث":2103,"ists":2104,"▁Or":2105,"ugust":2106,"▁aut":2107,"الي":2108,"▁''A":2109,"▁med":2110,"عب":2111,"ation,":2112,"ird":2113,"rand":2114,"▁Pres":2115,"0.":2116,"imes":2117,"▁وأ":2118,"▁use":2119,"ful":2120,"قا":2121,"por":2122,"قت":2123,"▁show":2124,"ation.":2125,"ternational":2126,"ruct":2127,"نت":2128,"صل":2129,"▁near":2130,"رية":2131,"usic":2132,"erson":2133,"▁produ":2134,"ange":2135,"▁bel":2136,"ared":2137,"▁Nov":2138,"ility":2139,"2.":2140,"▁Ge":2141,"▁bro":2142,"▁بين":2143,"▁Pr":2144,"pect":2145,"▁could":2146,"▁South":2147,"▁Par":2148,"▁early":2149,"▁13":2150,"ذه":2151,"▁against":2152,"▁appe":2153,"وع":2154,"▁contin":2155,"▁وه":2156,"▁called":2157,"▁الل":2158,"▁II":2159,"▁14":2160,".S":2161,"الم":2162,"ital":2163,"▁August":2164,"رف":2165,"▁go":2166,"the":2167,"▁small":2168,"▁record":2169,"▁public":2170,"▁Can":2171,"▁eff":2172,"led":2173,"▁rep":2174,"▁تم":2175,"▁وا":2176,"▁name":2177,"▁مت":2178,"▁government":2179,"▁film":2180,"▁same":2181,"amed":2182,"▁چ":2183,"▁أم":2184,"عل":2185,"ional":2186,"eptember":2187,"vent":2188,"▁pass":2189,"ott":2190,"▁After":2191,"▁Oct":2192,"rop":2193,"وز":2194,"▁British":2195,"ارة":2196,"▁several":2197,"▁192":2198,"▁Be":2199,"ris":2200,"ilit":2201,"ters":2202,"con":2203,"▁بر":2204,"o,":2205,"▁بعد":2206,"pril":2207,"reet":2208,"▁March":2209,"▁لا":2210,"▁dep":2211,"▁Re":2212,"▁North":2213,"انية":2214,"mber":2215,"▁sl":2216,"5.":2217,"▁occ":2218,"ولا":2219,"ung":2220,"ically":2221,"o.":2222,"▁Europe":2223,"▁مد":2224,"▁وم":2225,"▁did":2226,"ers,":2227,"▁state":2228,"▁September":2229,"خر":2230,"بد":2231,"▁writ":2232,"er.":2233,"oci":2234,"ox":2235,"▁ان":2236,"▁dr":2237,"els":2238,"هد":2239,"▁July":2240,"for":2241,"لف":2242,"▁هي":2243,"▁ann":2244,"rict":2245,"ried":2246,"▁Ed":2247,"▁October":2248,"ided":2249,"▁Pol":2250,"▁January":2251,"▁fin":2252,"▁eng":2253,"▁exp":2254,"▁Gu":2255,"▁11":2256,"raft":2257,"▁المتحدة":2258,"▁area":2259,"ty":2260,"▁built":2261,"6.":2262,"aking":2263,"arm":2264,"▁Man":2265,"▁April":2266,"▁sim":2267,"ars":2268,"8.":2269,"cember":2270,"▁support":2271,"gest":2272,"yl":2273,"ator":2274,"arch":2275,"3.":2276,"▁States":2277,"201":2278,"af":2279,"▁differ":2280,"chn":2281,"▁now":2282,"iving":2283,"▁organ":2284,"ret":2285,"on,":2286,"▁run":2287,"▁Ex":2288,"▁Se":2289,"وري":2290,"▁rele":2291,"▁June":2292,"7.":2293,"▁گ":2294,"▁City":2295,"▁prog":2296,"▁Will":2297,"عت":2298,"le,":2299,"ives":2300,"ued":2301,"▁suc":2302,"▁start":2303,"▁لم":2304,"طة":2305,"▁since":2306,"▁town":2307,"omen":2308,"▁around":2309,"▁There":2310,"▁بد":2311,"ised":2312,"-s":2313,"▁ins":2314,"ps":2315,"▁عد":2316,"illion":2317,"▁Bar":2318,"erg":2319,"▁disc":2320,"ulation":2321,"ene":2322,"▁They":2323,"urg":2324,"▁str":2325,"▁large":2326,"aint":2327,"▁School":2328,"▁US":2329,"–1":2330,"▁December":2331,"▁result":2332,"▁season":2333,"▁water":2334,"▁Count":2335,"▁met":2336,"ograph":2337,"▁major":2338,"اً":2339,"بة":2340,"ior":2341,"▁Hist":2342,"▁world":2343,"▁''C":2344,"duced":2345,"▁head":2346,"▁sing":2347,"▁direct":2348,"▁November":2349,"-b":2350,"ains":2351,"لال":2352,"cent":2353,"▁commun":2354,"-d":2355,"rench":2356,"رت":2357,"▁cur":2358,"جل":2359,"▁along":2360,"حة":2361,"رض":2362,"ية.":2363,"اص":2364,"▁rest":2365,"ادي":2366,"▁line":2367,"▁partic":2368,"9.":2369,"▁King":2370,"▁Christ":2371,"▁began":2372,"▁rece":2373,"rent":2374,"▁elect":2375,"وك":2376,"▁ty":2377,"que":2378,"ival":2379,"▁All":2380,"eter":2381,"▁tr":2382,"iod":2383,"▁each":2384,"يرة":2385,"▁Am":2386,"rol":2387,"▁Rep":2388,"▁أي":2389,"يث":2390,"▁said":2391,"▁old":2392,"رن":2393,"ese":2394,"▁gu":2395,"useum":2396,"يز":2397,"▁Te":2398,"▁la":2399,"hor":2400,"▁return":2401,"ers.":2402,"atic":2403,"▁Em":2404,"by":2405,"▁par":2406,"ants":2407,".S.":2408,"aus":2409,"▁place":2410,"inc":2411,"كون":2412,"get":2413,"▁190":2414,"ham":2415,"ble":2416,"▁establ":2417,"▁بود":2418,"though":2419,"▁Af":2420,"▁former":2421,"▁point":2422,"▁right":2423,"ebru":2424,"isc":2425,"row":2426,"oard":2427,"ebruary":2428,"▁Har":2429,"مال":2430,"جا":2431,"▁French":2432,"aced":2433,"uck":2434,"let":2435,"▁Fl":2436,"تي":2437,"reen":2438,"yn":2439,"ove":2440,"ثل":2441,"▁desc":2442,"▁local":2443,"▁الو":2444,"ينة":2445,"▁And":2446,"▁mark":2447,"▁Park":2448,"aster":2449,"ended":2450,"▁following":2451,"▁incre":2452,"عض":2453,"▁bus":2454,"▁الأم":2455,"▁appro":2456,"ages":2457,"▁set":2458,"▁Austral":2459,"▁Min":2460,"▁ref":2461,"ington":2462,"ien":2463,"▁child":2464,"▁Geor":2465,"ments":2466,"▁West":2467,"ience":2468,"▁Lond":2469,"▁down":2470,"ane":2471,"▁'s":2472,"▁February":2473,"▁because":2474,"p.":2475,"anc":2476,"▁report":2477,"▁ض":2478,"hes":2479,"▁house":2480,"كر":2481,"▁Ab":2482,"ology":2483,"▁هذه":2484,"▁$":2485,"med":2486,"▁requ":2487,"▁Ass":2488,"▁publ":2489,"▁bas":2490,"▁vis":2491,"rew":2492,"▁''M":2493,"alk":2494,"▁trad":2495,"ia,":2496,"▁av":2497,"▁polit":2498,"min":2499,"▁series":2500,"▁State":2501,"amb":2502,"▁very":2503,"aving":2504,"ادة":2505,"ruction":2506,"▁book":2507,"▁took":2508,"ians":2509,"▁allow":2510,"قل":2511,"▁His":2512,"▁dem":2513,"▁rev":2514,"▁still":2515,"▁consid":2516,"ole":2517,"▁الذي":2518,"▁last":2519,"▁هم":2520,"ية،":2521,"▁''P":2522,"▁located":2523,"lege":2524,"▁Cal":2525,"▁prom":2526,"apan":2527,"▁Bro":2528,"ony":2529,"▁cour":2530,"ged":2531,"▁mat":2532,"ثر":2533,"▁if":2534,"ford":2535,"estern":2536,"▁term":2537,"ae":2538,"عي":2539,"ording":2540,"▁189":2541,"▁Char":2542,"▁pos":2543,"▁building":2544,"▁left":2545,"▁det":2546,"ilitary":2547,"▁Russ":2548,"oor":2549,"▁Art":2550,"▁(''":2551,"▁camp":2552,"▁However,":2553,"▁William":2554,"▁program":2555,"▁period":2556,"▁what":2557,"▁Reg":2558,"▁like":2559,"فا":2560,"▁class":2561,"▁soc":2562,"▁Comp":2563,"▁leg":2564,"ridge":2565,"attle":2566,"▁hel":2567,"-t":2568,"ديد":2569,"▁within":2570,"ery":2571,"▁hand":2572,"▁music":2573,"ified":2574,"ball":2575,"▁event":2576,"ring":2577,"ald":2578,"▁memb":2579,"▁family":2580,"▁El":2581,"ague":2582,"oad":2583,"▁این":2584,"▁those":2585,"▁north":2586,"i,":2587,"▁present":2588,"▁due":2589,"aim":2590,"رق":2591,"اريخ":2592,"وان":2593,"▁often":2594,"▁X":2595,"▁By":2596,"ues":2597,"ices":2598,"▁''L":2599,"uff":2600,"▁U.S.":2601,"resent":2602,"▁هذا":2603,"▁import":2604,"stit":2605,"ately":2606,"par":2607,"▁stand":2608,"▁home":2609,"▁ولد":2610,"lish":2611,"iety":2612,"ww":2613,"در":2614,"ration":2615,"▁held":2616,"ief":2617,"▁25":2618,"▁different":2619,"▁Her":2620,"idd":2621,"alth":2622,"me":2623,"▁though":2624,"يع":2625,"▁علي":2626,"ument":2627,"ولة":2628,"uk":2629,"eder":2630,"▁power":2631,"▁Sy":2632,"▁even":2633,"▁arch":2634,"▁Sw":2635,"▁تق":2636,"صر":2637,"▁وب":2638,"ounc":2639,"▁(18":2640,"read":2641,"▁كل":2642,"▁Japan":2643,"ently":2644,"▁charact":2645,"▁adv":2646,"▁(200":2647,"ولايات":2648,"▁الغ":2649,"▁app":2650,"سر":2651,"▁ذلك":2652,"▁just":2653,"▁million":2654,"ality":2655,"▁tim":2656,"a''":2657,"▁person":2658,"▁port":2659,"▁centur":2660,"iven":2661,"لب":2662,"▁south":2663,"▁River":2664,"▁Cor":2665,"▁game":2666,"▁cor":2667,"ored":2668,"▁much":2669,"▁death":2670,"▁del":2671,"uman":2672,"augh":2673,"▁ship":2674,"ays":2675,"▁During":2676,"ille":2677,"oyal":2678,"ront":2679,"▁equ":2680,"olution":2681,"▁es":2682,"▁Co":2683,"ured":2684,"خص":2685,"ets":2686,"ner":2687,"دا":2688,"ext":2689,"▁''B":2690,"▁tem":2691,"▁Soc":2692,"-l":2693,"aul":2694,"ger":2695,"▁Res":2696,"▁Canad":2697,"▁success":2698,"▁En":2699,"▁Afric":2700,"سط":2701,"▁vers":2702,"▁national":2703,"▁pat":2704,"lev":2705,"▁law":2706,"ze":2707,"▁اله":2708,"ides":2709,"وية":2710,",000":2711,"▁188":2712,"omb":2713,"▁English":2714,"conom":2715,"ively":2716,"ster":2717,"ats":2718,"ily":2719,"▁based":2720,"ining":2721,"ته":2722,"ies,":2723,"▁addition":2724,"fess":2725,"▁repl":2726,"▁named":2727,"▁آن":2728,"ially":2729,"▁Med":2730,"ه‌":2731,"▁include":2732,"▁Sec":2733,"▁2010":2734,"▁2000":2735,"وات":2736,"of":2737,"▁أك":2738,"▁الولايات":2739,"▁poss":2740,"▁prot":2741,"i-":2742,"▁attack":2743,"▁London":2744,"▁30":2745,"▁Ital":2746,"ales":2747,"▁Mc":2748,"▁Church":2749,"omin":2750,"▁fac":2751,".,":2752,"نية":2753,"▁الأول":2754,"▁sold":2755,"▁تع":2756,"ies.":2757,"craft":2758,"▁cult":2759,"▁''D":2760,"▁fore":2761,"ampion":2762,"زي":2763,"na":2764,"▁أب":2765,"▁Br":2766,"▁stat":2767,"▁sk":2768,"sk":2769,"▁Phil":2770,"ize":2771,"iness":2772,"ison":2773,"▁وج":2774,"ivision":2775,"artment":2776,"▁tit":2777,"eneral":2778,"ركة":2779,"▁i":2780,"–19":2781,"▁six":2782,"ourn":2783,"▁سنة":2784,"sc":2785,"▁Street":2786,"iter":2787,"▁among":2788,"▁;":2789,"▁population":2790,"▁service":2791,"▁gl":2792,"angu":2793,"ization":2794,"فس":2795,"ense":2796,"▁والم":2797,"▁men":2798,"▁short":2799,"▁access":2800,"▁San":2801,"▁common":2802,"▁resp":2803,"alf":2804,"▁International":2805,"▁another":2806,"▁history":2807,"تر":2808,"▁(b":2809,"▁station":2810,"▁vol":2811,"ouncil":2812,"-c":2813,"▁House":2814,"▁five":2815,"يك":2816,"alt":2817,"work":2818,"ion,":2819,"▁Acc":2820,"أن":2821,"hem":2822,"ius":2823,"▁عدد":2824,"▁المح":2825,"ney":2826,"▁تو":2827,"▁ی":2828,"▁histor":2829,"▁186":2830,"▁These":2831,"ilar":2832,"tain":2833,"ivil":2834,"▁age":2835,"ريق":2836,"▁حيث":2837,"▁Island":2838,"▁المن":2839,"wards":2840,"▁country":2841,"iment":2842,"▁post":2843,"▁top":2844,"▁ين":2845,"▁company":2846,"▁every":2847,"▁fact":2848,"▁my":2849,"'t":2850,"▁cr":2851,"▁High":2852,"▁members":2853,"50":2854,"اه":2855,"▁val":2856,"osp":2857,"ling":2858,"▁Gl":2859,"▁late":2860,"صب":2861,"▁vill":2862,"▁Part":2863,"▁effect":2864,"▁kill":2865,"▁Dav":2866,"uel":2867,"▁East":2868,"line":2869,"ape":2870,"vers":2871,"eh":2872,"ray":2873,"▁great":2874,"خل":2875,"▁Port":2876,"▁Mon":2877,"▁iss":2878,"▁original":2879,"▁way":2880,"▁sett":2881,"ورة":2882,"▁level":2883,"iber":2884,"▁included":2885,"▁conc":2886,"▁المع":2887,"ctions":2888,"o-":2889,"//":2890,"▁published":2891,"▁led":2892,"▁Sch":2893,"اج":2894,"hip":2895,"▁''T":2896,"افة":2897,"▁make":2898,"ربية":2899,"▁pp.":2900,"▁قد":2901,"side":2902,"▁Dep":2903,"▁exper":2904,"lin":2905,"day":2906,"▁care":2907,"hern":2908,"▁Ang":2909,"▁21":2910,"▁Roman":2911,"▁rail":2912,"urs":2913,"▁beg":2914,"▁Museum":2915,"بار":2916,"از":2917,"omet":2918,"urb":2919,"▁author":2920,"▁Ag":2921,"▁expl":2922,"▁clos":2923,"▁describ":2924,"▁won":2925,"akes":2926,"▁fre":2927,"▁turn":2928,"▁187":2929,"▁Tr":2930,"▁La":2931,"avy":2932,"ploy":2933,"irc":2934,"عية":2935,"مان":2936,"▁project":2937,"▁position":2938,"ering":2939,"urther":2940,"▁techn":2941,"▁list":2942,"://":2943,"▁military":2944,"▁few":2945,"iron":2946,"▁\"The":2947,"▁كانت":2948,"▁قبل":2949,"ata":2950,"▁tradition":2951,"ning":2952,"0s":2953,"راء":2954,"▁order":2955,"▁بل":2956,"▁month":2957,"▁(S":2958,"▁sit":2959,"-f":2960,"ead":2961,"▁Pal":2962,"سية":2963,"an,":2964,"▁current":2965,"ler":2966,"ript":2967,"▁engine":2968,"▁died":2969,"▁أمريك":2970,"▁لت":2971,"▁ون":2972,"▁side":2973,"▁came":2974,"tal":2975,"oph":2976,"ody":2977,"▁refer":2978,"▁rad":2979,"ush":2980,"▁24":2981,"ched":2982,"orthern":2983,"umb":2984,"r.":2985,"▁infl":2986,"ries":2987,"app":2988,"ches":2989,"▁women":2990,"▁activ":2991,"▁وع":2992,"astern":2993,"adem":2994,"▁Army":2995,"▁وك":2996,"▁established":2997,"▁need":2998,"▁Royal":2999,"▁2011":3000,"ia.":3001,"▁song":3002,"▁France":3003,"▁using":3004,"ness":3005,"epend":3006,"ino":3007,"▁100":3008,"outher":3009,"▁President":3010,"rag":3011,"ion.":3012,"▁One":3013,"▁bre":3014,"▁England":3015,"▁When":3016,"▁received":3017,"bor":3018,"▁(A":3019,"▁chang":3020,"oon":3021,"reg":3022,"▁ter":3023,"▁released":3024,"▁يت":3025,"▁جم":3026,"aff":3027,"دة":3028,"outhern":3029,"ana":3030,"▁site":3031,"▁Pe":3032,"en,":3033,"▁non":3034,"▁خلال":3035,"itect":3036,"▁prev":3037,"▁Ant":3038,"▁Sup":3039,"enc":3040,"▁''H":3041,"▁final":3042,"posed":3043,"▁College":3044,"ibr":3045,"بات":3046,"▁كرة":3047,"empt":3048,"▁development":3049,"▁manag":3050,"▁take":3051,"▁aff":3052,"▁تش":3053,"▁without":3054,"اط":3055,"lear":3056,"▁light":3057,"▁field":3058,"▁control":3059,"▁compet":3060,"▁We":3061,"▁crit":3062,"▁children":3063,"hib":3064,"▁popular":3065,"ask":3066,"▁Gro":3067,"aken":3068,"▁''.":3069,"▁century":3070,"inning":3071,"▁Indian":3072,"ittle":3073,"▁bar":3074,"ara":3075,"▁العالم":3076,"▁third":3077,"إن":3078,"▁band":3079,"▁gr":3080,"ves":3081,"▁مس":3082,"self":3083,"▁represent":3084,"▁sw":3085,"▁دي":3086,"2)":3087,"▁arm":3088,"▁يق":3089,"ليم":3090,"pecial":3091,"ean":3092,"▁إن":3093,"▁various":3094,"lex":3095,"▁County":3096,"ones":3097,"ode":3098,"▁perform":3099,"▁للم":3100,"▁become":3101,"▁important":3102,"ركز":3103,"▁conf":3104,"unic":3105,"▁تح":3106,"▁Ap":3107,"▁road":3108,"ffic":3109,"riend":3110,"ribut":3111,"▁dest":3112,"▁General":3113,"▁History":3114,"وار":3115,"▁Ear":3116,"reek":3117,"▁s,":3118,"▁hig":3119,"▁origin":3120,"ة.":3121,"▁كما":3122,"ote":3123,"▁areas":3124,"▁بم":3125,"▁played":3126,"leg":3127,"▁similar":3128,"▁عبد":3129,"▁الز":3130,"or,":3131,"▁St.":3132,"▁2008":3133,"▁foot":3134,"▁حت":3135,"bum":3136,"30":3137,"▁المم":3138,"atter":3139,"▁او":3140,"سك":3141,"▁يم":3142,"▁2009":3143,"▁Per":3144,"▁educ":3145,"ارك":3146,"▁George":3147,"ander":3148,"▁claim":3149,"rain":3150,"▁production":3151,"كم":3152,"َّ":3153,"اض":3154,"ological":3155,"▁web":3156,"▁(C":3157,"▁سب":3158,"▁Hol":3159,"▁Rev":3160,"▁should":3161,"فر":3162,"▁single":3163,"ef":3164,"▁indust":3165,"▁econom":3166,"▁special":3167,"uf":3168,"▁species":3169,"▁ant":3170,"▁1,":3171,"▁church":3172,"▁init":3173,"icle":3174,"▁المد":3175,"▁له":3176,"يب":3177,"سبة":3178,"▁''R":3179,"field":3180,"▁comb":3181,"sp":3182,"hel":3183,"▁member":3184,"▁With":3185,"ده":3186,"▁Republic":3187,"▁European":3188,"-p":3189,"▁moved":3190,"dom":3191,"olic":3192,"▁intro":3193,"▁jo":3194,"▁fire":3195,"▁lim":3196,"▁Val":3197,"rick":3198,"▁given":3199,"mit":3200,"ivid":3201,"co":3202,"ops":3203,"▁/":3204,"▁cover":3205,"▁Des":3206,"▁ام":3207,"rest":3208,"▁الي":3209,"▁Arch":3210,"برا":3211,"ournal":3212,"raw":3213,"▁view":3214,"▁Mich":3215,"▁life":3216,"aur":3217,"▁announ":3218,"▁قدم":3219,"▁Vol":3220,"▁modern":3221,"rated":3222,"▁2013":3223,"▁Rober":3224,"▁وفي":3225,"ency":3226,"▁وقد":3227,"بن":3228,"▁invol":3229,"▁beh":3230,"▁Thom":3231,"5)":3232,"▁po":3233,"ئي":3234,"▁week":3235,"▁general":3236,"ached":3237,"▁typ":3238,"▁low":3239,"ة،":3240,"وش":3241,"▁mag":3242,"-19":3243,"▁official":3244,"▁win":3245,"▁served":3246,"ارس":3247,"uit":3248,"abor":3249,"▁Act":3250,"▁2012":3251,"▁langu":3252,"anish":3253,"▁good":3254,"▁less":3255,"dition":3256,"▁(199":3257,"’s":3258,"▁ground":3259,"▁el":3260,"ards":3261,"▁Rail":3262,"▁next":3263,"▁غير":3264,"▁tri":3265,"▁عند":3266,"▁بش":3267,"▁دا":3268,"ably":3269,"▁total":3270,"▁tw":3271,"▁فر":3272,"▁tro":3273,"وض":3274,"rab":3275,"▁caus":3276,"▁22":3277,"▁inf":3278,"▁2007":3279,"يش":3280,"-m":3281,"yle":3282,"▁prim":3283,"duct":3284,"ذلك":3285,"ipp":3286,"bert":3287,"▁young":3288,"▁appear":3289,"▁political":3290,"-A":3291,"▁et":3292,"▁Hen":3293,"▁sum":3294,"▁struct":3295,"▁red":3296,"▁fem":3297,"▁process":3298,"ica":3299,"▁character":3300,"ention":3301,"▁Qu":3302,"ampionship":3303,"▁aircraft":3304,"حي":3305,"▁Que":3306,"▁''E":3307,"ئيس":3308,"قط":3309,"▁having":3310,"4)":3311,"▁club":3312,"▁sent":3313,"▁Hall":3314,"طل":3315,"▁James":3316,"▁z":3317,"▁considered":3318,"mp":3319,"▁تت":3320,"yd":3321,"▁Ac":3322,"▁انت":3323,"idence":3324,"▁influ":3325,"رم":3326,"emor":3327,"▁Lou":3328,"ither":3329,"▁Dist":3330,"ani":3331,"▁بعض":3332,"▁23":3333,"▁ep":3334,"▁العام":3335,"▁created":3336,"-2":3337,"ورية":3338,"أس":3339,"الة":3340,"▁son":3341,"▁went":3342,"▁pract":3343,"▁surv":3344,"▁avail":3345,"▁community":3346,"ظم":3347,"▁Jew":3348,"▁further":3349,"itor":3350,"▁best":3351,"اح":3352,"formation":3353,"▁From":3354,"▁مثل":3355,"▁imp":3356,"rap":3357,"ناء":3358,"▁Sm":3359,"iforn":3360,"▁father":3361,"ogn":3362,"▁grow":3363,"▁2006":3364,"most":3365,"▁album":3366,"▁League":3367,"وال":3368,"لكة":3369,"▁particular":3370,"burg":3371,"-w":3372,"▁Bel":3373,"▁Ber":3374,"3)":3375,"▁Nor":3376,"nect":3377,"▁الآ":3378,"▁Rec":3379,"lement":3380,"ستخ":3381,"aut":3382,"▁مق":3383,"▁ident":3384,"men":3385,"▁''N":3386,"▁(M":3387,"▁test":3388,"▁تاريخ":3389,"▁fun":3390,"طقة":3391,"iddle":3392,"▁opened":3393,"▁continued":3394,"▁attempt":3395,"▁previous":3396,"های":3397,"▁(201":3398,"▁born":3399,"▁squ":3400,"▁front":3401,"▁''G":3402,"▁human":3403,"▁بت":3404,"▁Mor":3405,"▁Rich":3406,"-S":3407,"▁مج":3408,"▁examp":3409,"▁rese":3410,"10":3411,"▁تن":3412,"▁der":3413,"istic":3414,"▁associ":3415,"▁half":3416,"▁Council":3417,"ارت":3418,"▁حتى":3419,"▁signific":3420,"go":3421,"▁(2":3422,"▁رو":3423,"unt":3424,"ope":3425,"ael":3426,"وقع":3427,"▁construction":3428,"▁).":3429,"▁decl":3430,"▁أيض":3431,"now":3432,"ways":3433,"ه،":3434,"▁sug":3435,"▁mater":3436,"▁Some":3437,"a's":3438,"▁ren":3439,"▁er":3440,"van":3441,"▁برا":3442,"iqu":3443,"▁remain":3444,"ij":3445,"▁Great":3446,"▁proper":3447,"▁lif":3448,"ly,":3449,"▁لاع":3450,"▁exist":3451,"▁According":3452,"▁Stat":3453,"▁Californ":3454,"▁\"S":3455,"▁2014":3456,"▁Tra":3457,"وفي":3458,"▁Road":3459,"ico":3460,"sequ":3461,"▁host":3462,"▁profess":3463,"▁أف":3464,"▁بي":3465,"▁26":3466,"▁hous":3467,"ots":3468,"▁island":3469,"الية":3470,"▁والت":3471,"▁Paul":3472,"minist":3473,"▁priv":3474,"▁full":3475,"atural":3476,"berg":3477,"▁compos":3478,"1)":3479,"▁وق":3480,"▁offer":3481,"▁ste":3482,"ination":3483,"8)":3484,"▁read":3485,"▁largest":3486,"▁''F":3487,"▁never":3488,"▁Cour":3489,"▁business":3490,"▁role":3491,"▁bo":3492,"forman":3493,"▁interest":3494,"▁27":3495,"▁نم":3496,"▁28":3497,"▁social":3498,"حص":3499,"▁“":3500,"خرى":3501,"ای":3502,"▁Associ":3503,"atch":3504,"ending":3505,"▁Instit":3506,"▁Jos":3507,"oe":3508,"6)":3509,"ividual":3510,"نس":3511,"in,":3512,"arn":3513,"▁park":3514,"اس":3515,"▁pri":3516,"▁ثم":3517,"▁Mount":3518,"▁available":3519,"▁east":3520,"تاب":3521,"7)":3522,"▁tre":3523,"iol":3524,"is,":3525,"صف":3526,"▁Robert":3527,"كرة":3528,"▁although":3529,"▁announced":3530,"يط":3531,"▁ول":3532,"▁أول":3533,"▁started":3534,"▁Trans":3535,"▁يع":3536,"▁ce":3537,"▁west":3538,"▁belie":3539,"▁Red":3540,"gy":3541,"▁sol":3542,"رس":3543,"▁2004":3544,"ume":3545,"▁You":3546,"▁know":3547,"▁hold":3548,"▁arr":3549,"▁ord":3550,"▁feature":3551,"ertain":3552,"قات":3553,"'')":3554,"▁mot":3555,"▁international":3556,"▁dev":3557,"▁gen":3558,"▁وهو":3559,"▁feat":3560,"▁Mal":3561,"▁\"A":3562,"ream":3563,"وسط":3564,"▁cost":3565,"▁how":3566,"▁\"I":3567,"▁David":3568,"▁First":3569,"itz":3570,"یم":3571,"▁cross":3572,"▁mount":3573,"off":3574,"▁black":3575,"ibrary":3576,"انيا":3577,"▁see":3578,"ashington":3579,"عداد":3580,"▁—":3581,"▁185":3582,"▁let":3583,"mb":3584,"-y":3585,"رجع":3586,"▁sour":3587,"▁Charles":3588,"▁election":3589,"ensive":3590,"▁must":3591,"▁Stud":3592,"▁2015":3593,"▁بح":3594,"▁184":3595,"rote":3596,"val":3597,"▁circ":3598,"▁across":3599,"▁separ":3600,"▁Union":3601,"elt":3602,"ks":3603,"▁produced":3604,"▁تحت":3605,"▁ومن":3606,"ule":3607,"here":3608,"roy":3609,"ising":3610,"▁relig":3611,"▁dam":3612,"▁di":3613,"▁deb":3614,"▁strong":3615,"''',":3616,"▁meet":3617,"دام":3618,"▁mult":3619,"-C":3620,"aign":3621,"aval":3622,"▁award":3623,"etwork":3624,"▁architect":3625,"▁Me":3626,"▁البر":3627,"▁کرد":3628,"▁والأ":3629,"بلغ":3630,"II":3631,"roll":3632,"▁seen":3633,"ases":3634,"▁plant":3635,"ama":3636,"▁wind":3637,"▁plan":3638,"▁Mart":3639,"▁ide":3640,"یر":3641,"▁appl":3642,"hold":3643,"ament":3644,"▁material":3645,"▁market":3646,"▁rock":3647,"gin":3648,"▁Mary":3649,"▁individual":3650,"wood":3651,"▁region":3652,"▁model":3653,"ishing":3654,"ened":3655,"▁Hill":3656,"▁Im":3657,"▁Mag":3658,"blem":3659,"▁invest":3660,"▁track":3661,"used":3662,"ee":3663,"▁real":3664,"▁مي":3665,"rian":3666,"iation":3667,"▁محمد":3668,"▁Franc":3669,"▁compan":3670,"▁لاعب":3671,"▁toget":3672,"▁To":3673,"▁together":3674,"▁word":3675,"ه.":3676,"htt":3677,"arent":3678,"arian":3679,"iles":3680,"▁Mex":3681,"ictor":3682,"ges":3683,"inese":3684,"ique":3685,"▁Force":3686,"▁press":3687,"▁president":3688,"BC":3689,"▁Christian":3690,"▁look":3691,"▁مست":3692,"ights":3693,"ائل":3694,"▁designed":3695,"▁(w":3696,"▁developed":3697,"udd":3698,"▁Bra":3699,"▁2016":3700,"ellow":3701,"▁Serv":3702,"▁Department":3703,"less":3704,"▁lost":3705,"▁himself":3706,"▁time,":3707,"ارات":3708,"بع":3709,"viron":3710,"▁Thomas":3711,"omm":3712,"غير":3713,"▁significant":3714,"▁وح":3715,"▁Cath":3716,"امعة":3717,"وعة":3718,"rem":3719,"fic":3720,"يني":3721,"▁village":3722,"▁),":3723,"▁Bay":3724,"▁Pat":3725,"erb":3726,"▁Cap":3727,"▁friend":3728,"▁version":3729,"▁mid":3730,"▁coll":3731,"▁fail":3732,"shire":3733,"rael":3734,"لام":3735,"▁impro":3736,"▁دار":3737,"▁Ne":3738,"▁أع":3739,"▁نظ":3740,"جد":3741,"▁described":3742,"الت":3743,"▁returned":3744,"leb":3745,"▁(P":3746,"unicip":3747,"irm":3748,"▁But":3749,"▁50":3750,"نوب":3751,"▁find":3752,"▁Grand":3753,"▁Russian":3754,"ership":3755,"▁taken":3756,"▁الأمريك":3757,"9)":3758,"▁wrote":3759,"play":3760,"▁reported":3761,"▁Washington":3762,"▁title":3763,"▁command":3764,"pire":3765,"▁India":3766,"▁grad":3767,"▁district":3768,"▁تا":3769,"▁District":3770,"ston":3771,"▁suff":3772,"▁employ":3773,"▁cast":3774,"▁div":3775,"▁performan":3776,"▁usually":3777,"li":3778,"▁making":3779,"▁Western":3780,"▁fund":3781,"▁Alex":3782,"-M":3783,"ought":3784,"افظ":3785,"cher":3786,"▁does":3787,"ha":3788,"▁phot":3789,"زة":3790,"▁put":3791,"رات":3792,"▁Squ":3793,"▁aver":3794,"ma":3795,"▁مص":3796,"▁laun":3797,"ederal":3798,"▁Histor":3799,"▁عشر":3800,"▁students":3801,"-g":3802,"▁gun":3803,"w.":3804,"▁however,":3805,"▁Black":3806,"ضم":3807,"11":3808,"▁المص":3809,"▁29":3810,"▁independ":3811,"▁Division":3812,"oviet":3813,"ari":3814,"estival":3815,"▁anim":3816,"وى":3817,"▁سن":3818,"al,":3819,"...":3820,"-st":3821,"▁Sl":3822,"xt":3823,"▁وف":3824,"▁help":3825,"ports":3826,"▁range":3827,"onst":3828,"▁Tur":3829,"ethod":3830,"▁ات":3831,"itte":3832,"▁works":3833,"▁Group":3834,"▁Sal":3835,"ours":3836,"ference":3837,"▁free":3838,"گر":3839,"▁Company":3840,"▁أكثر":3841,"▁recogn":3842,"▁ويب":3843,"iding":3844,"▁أمريكي":3845,"cast":3846,"to":3847,"▁suggest":3848,"▁سي":3849,"▁خود":3850,"▁tour":3851,"نم":3852,"▁أغ":3853,"▁days":3854,"▁Central":3855,"▁wid":3856,"vironment":3857,"▁Bu":3858,"▁Henry":3859,"serv":3860,"▁''I":3861,"▁Che":3862,"eph":3863,".''":3864,"▁(م":3865,"ential":3866,"▁يمكن":3867,"جة":3868,"▁Kh":3869,"▁(N":3870,"▁s.":3871,"▁Chinese":3872,"▁Vir":3873,"imately":3874,"▁once":3875,"▁away":3876,"▁round":3877,"▁Cup":3878,"face":3879,"▁Dem":3880,"ification":3881,"ago":3882,"بت":3883,"▁wall":3884,"aughter":3885,"ability":3886,"▁البح":3887,"▁paint":3888,"0s,":3889,"▁throughout":3890,"ئة":3891,"▁agre":3892,"▁product":3893,"▁الدول":3894,"عا":3895,"12":3896,"iers":3897,"pite":3898,"▁condition":3899,"▁Spanish":3900,"▁particip":3901,"▁formed":3902,"iting":3903,"▁say":3904,"de":3905,"▁study":3906,"irl":3907,"imate":3908,"ceed":3909,"vert":3910,"▁Met":3911,"ump":3912,"8%":3913,"▁می":3914,"▁capt":3915,"▁Center":3916,"▁rul":3917,"▁While":3918,"iction":3919,"▁مش":3920,"فة":3921,"▁Gr":3922,"▁hon":3923,"ilities":3924,"ثة":3925,"عم":3926,"▁research":3927,"▁مدينة":3928,"ريط":3929,"AA":3930,"▁أس":3931,"▁سكان":3932,"▁race":3933,"▁white":3934,"▁Sen":3935,"▁ill":3936,"▁room":3937,"▁br":3938,"▁che":3939,"▁don":3940,"▁Cong":3941,"s:":3942,"▁Although":3943,"60":3944,"lected":3945,"▁No.":3946,"▁Cont":3947,"▁Other":3948,"ure,":3949,"▁عمل":3950,"▁(ال":3951,"سلام":3952,"atory":3953,"▁either":3954,"ufact":3955,"▁civil":3956,"▁defe":3957,"▁Minister":3958,"▁appoint":3959,"▁الله":3960,"وة":3961,"ym":3962,"▁ولا":3963,"rd":3964,"aces":3965,"قاط":3966,"▁''W":3967,"levision":3968,"adron":3969,"ctor":3970,"anted":3971,"arter":3972,"▁Israel":3973,"▁Mad":3974,"aper":3975,"▁ten":3976,"▁Sam":3977,"▁2.":3978,"▁Society":3979,"ثير":3980,"▁تأ":3981,"och":3982,"40":3983,"▁entire":3984,"▁مم":3985,"▁fall":3986,"▁Soviet":3987,"▁founded":3988,"us,":3989,"كوم":3990,"oted":3991,"▁لي":3992,"▁space":3993,".C":3994,"head":3995,"▁Louis":3996,"-h":3997,"▁remained":3998,"▁Pri":3999,"▁Japanese":4000,"▁California":4001,"▁لأ":4002,"icated":4003,"▁fig":4004,"asing":4005,"▁hom":4006,"▁married":4007,".com":4008,"▁occur":4009,"ories":4010,"▁Inter":4011,"▁Mus":4012,"▁pain":4013,"▁produc":4014,"اند":4015,"▁problem":4016,"▁Mer":4017,"▁Mark":4018,"▁phys":4019,"▁Court":4020,"اق":4021,"▁2005":4022,"▁reb":4023,"rought":4024,"▁central":4025,"age,":4026,"▁coast":4027,"▁least":4028,"▁body":4029,"▁Italian":4030,"mar":4031,"خب":4032,"▁2017":4033,"▁court":4034,"▁الوط":4035,"ux":4036,"بية":4037,"duction":4038,"▁Award":4039,"▁pur":4040,"▁brother":4041,"▁Mac":4042,"هة":4043,"جلس":4044,"▁Saint":4045,"▁المملكة":4046,"▁broad":4047,"ocr":4048,"oul":4049,"▁bank":4050,"▁ولك":4051,"▁Cro":4052,"unn":4053,"-B":4054,"▁Law":4055,"▁force":4056,"اك":4057,"▁stri":4058,"80":4059,"راق":4060,"www.":4061,"▁یک":4062,"▁resident":4063,"be":4064,"▁\"C":4065,"ude":4066,"وني":4067,"▁(d":4068,"itch":4069,"▁المس":4070,"▁collection":4071,"▁little":4072,"▁pot":4073,"ربي":4074,"ify":4075,"ergy":4076,"▁occup":4077,"ply":4078,"اش":4079,"▁Academ":4080,"▁times":4081,"▁Times":4082,"eck":4083,"وط":4084,"▁treat":4085,"riev":4086,"▁able":4087,"▁Catholic":4088,"▁upon":4089,"▁successful":4090,"▁wood":4091,"ateg":4092,"▁written":4093,"▁وهي":4094,"▁وس":4095,"▁campaign":4096,"▁forces":4097,"▁deg":4098,"ospital":4099,"▁God":4100,"▁far":4101,"overnor":4102,"▁player":4103,"▁نسم":4104,"▁cell":4105,"▁Sim":4106,"▁conduct":4107,"aps":4108,"رش":4109,"▁food":4110,"▁مؤ":4111,"▁language":4112,"▁close":4113,"▁ست":4114,"▁gave":4115,"://www.":4116,"eep":4117,"▁connect":4118,"ography":4119,"utes":4120,"▁0":4121,"▁saw":4122,"pecially":4123,"▁Australian":4124,"itive":4125,"▁Battle":4126,"وبر":4127,"ها.":4128,"▁(B":4129,"apt":4130,"iff":4131,"▁40":4132,"▁ولكن":4133,"صد":4134,"▁above":4135,"▁acqu":4136,"▁China":4137,"▁African":4138,"▁polic":4139,"▁Cast":4140,"ores":4141,"▁183":4142,"▁get":4143,"▁anc":4144,"غة":4145,"▁story":4146,"▁Lat":4147,"▁Australia":4148,"▁past":4149,"▁veh":4150,"▁night":4151,"incip":4152,"▁doc":4153,"ences":4154,"▁Kingdom":4155,"erous":4156,"road":4157,"▁Party":4158,"ville":4159,"▁Green":4160,"rel":4161,"cle":4162,"▁Germany":4163,"▁\"M":4164,"stand":4165,"▁\"B":4166,"اير":4167,"ورد":4168,"▁Book":4169,"▁services":4170,"▁years.":4171,"nes":4172,"رح":4173,"▁Championship":4174,"olf":4175,"rial":4176,"ecut":4177,"liam":4178,"▁rather":4179,"as,":4180,"▁here":4181,"▁America":4182,"oz":4183,"▁mass":4184,"▁destroy":4185,"▁train":4186,"▁eight":4187,"▁completed":4188,"امل":4189,"▁unit":4190,"▁movement":4191,"▁working":4192,"i.":4193,"▁Bas":4194,"▁includes":4195,"bour":4196,"▁mother":4197,"▁exhib":4198,"▁Town":4199,"▁Sir":4200,"ometimes":4201,"▁football":4202,"▁أنه":4203,"▁private":4204,"▁live":4205,"▁provided":4206,"▁White":4207,"▁bi":4208,"ication":4209,"▁almost":4210,"el,":4211,"▁بط":4212,"▁Sk":4213,"atal":4214,"▁المست":4215,"liament":4216,"▁Pet":4217,"mercial":4218,"▁وكان":4219,"▁Richard":4220,"▁type":4221,"org":4222,"elling":4223,"atre":4224,"▁consist":4225,"▁enc":4226,"▁followed":4227,"▁star":4228,"▁Association":4229,"▁Angel":4230,"سن":4231,"▁possible":4232,"راف":4233,"فاع":4234,"▁case":4235,"▁mean":4236,"▁nov":4237,"▁section":4238,"▁change":4239,"ows":4240,"▁living":4241,"▁Mont":4242,"▁(in":4243,"▁Institute":4244,"جت":4245,"▁الجز":4246,"▁average":4247,"سبب":4248,"▁المغ":4249,"زب":4250,"▁respect":4251,"▁provide":4252,"chie":4253,"يه":4254,"▁bur":4255,"ula":4256,"▁31":4257,"▁Frank":4258,"▁sil":4259,"rup":4260,"ranch":4261,"▁Ir":4262,"▁lower":4263,"▁manufact":4264,"rey":4265,"▁Fore":4266,"▁becom":4267,"▁Since":4268,"▁أح":4269,"▁worked":4270,"aged":4271,"▁Mod":4272,"عود":4273,"▁Paris":4274,"ناك":4275,"▁Greek":4276,"azine":4277,"▁Camp":4278,"AS":4279,"-in":4280,"▁Lake":4281,"▁Most":4282,"▁leading":4283,"▁UK":4284,"asc":4285,"▁km":4286,"▁ري":4287,"▁meas":4288,"urity":4289,"▁Don":4290,"%D":4291,"istry":4292,"▁cou":4293,"▁Sant":4294,"▁subject":4295,"oid":4296,"▁discover":4297,"▁المج":4298,"ستر":4299,"▁Gold":4300,"▁southern":4301,"▁Wil":4302,"▁travel":4303,"igned":4304,"view":4305,"▁لع":4306,"▁administ":4307,"▁''O":4308,"▁Jack":4309,"er's":4310,"يين":4311,"▁Press,":4312,"▁cut":4313,"▁وز":4314,"▁Ter":4315,"▁حال":4316,"یش":4317,"▁express":4318,"gen":4319,"▁northern":4320,"▁«":4321,"isl":4322,"▁situ":4323,"▁وإ":4324,"▁Year":4325,"-year":4326,"▁lik":4327,"▁Miss":4328,"▁hard":4329,"▁النا":4330,"▁king":4331,"▁الجم":4332,"بير":4333,"▁foc":4334,"▁Old":4335,"▁liter":4336,"▁student":4337,"عات":4338,"يلة":4339,"▁respons":4340,"▁standard":4341,"medi":4342,"▁Club":4343,"▁replaced":4344,"▁brought":4345,"▁يتم":4346,"▁سر":4347,"▁Tex":4348,"یز":4349,"▁(\"":4350,"ift":4351,"▁health":4352,"ideo":4353,"▁natural":4354,"▁Land":4355,"yr":4356,"▁يون":4357,"▁street":4358,"▁تص":4359,"ya":4360,"sel":4361,"ength":4362,"وح":4363,"-0":4364,"ein":4365,"▁capital":4366,"▁2018":4367,"▁board":4368,"▁bord":4369,"مرجع":4370,"▁river":4371,"▁1.":4372,"▁complet":4373,"▁style":4374,"▁Victor":4375,"▁Michael":4376,"▁especially":4377,"▁الرا":4378,"ena":4379,"hood":4380,"▁Peter":4381,"▁gra":4382,"▁transport":4383,"unk":4384,"يان":4385,"utch":4386,"ving":4387,"▁Empire":4388,"▁dou":4389,"راض":4390,"bur":4391,"▁accept":4392,"oney":4393,"▁Cons":4394,"irth":4395,"▁frequ":4396,"اث":4397,"acy":4398,"▁effort":4399,"▁territ":4400,"▁relation":4401,"▁text":4402,"سات":4403,"▁(the":4404,"▁assist":4405,"▁come":4406,"وائ":4407,"▁Many":4408,"yp":4409,"وه":4410,"حاد":4411,"▁ser":4412,"▁الاست":4413,"▁century,":4414,"▁vict":4415,"25":4416,"▁appeared":4417,"ware":4418,"70":4419,"▁(L":4420,"▁farm":4421,"▁outside":4422,"cript":4423,"▁Op":4424,"▁daughter":4425,"▁viol":4426,"▁Day":4427,"▁fav":4428,"gl":4429,"ishop":4430,"ure.":4431,"uz":4432,"hest":4433,"▁method":4434,"▁killed":4435,"▁fight":4436,"▁(198":4437,"▁remov":4438,"▁cop":4439,"▁الض":4440,"بط":4441,"rieved":4442,"▁\"the":4443,"▁Up":4444,"▁thought":4445,"كس":4446,"بال":4447,"▁contract":4448,"▁rank":4449,"▁Scott":4450,"▁miss":4451,"▁للت":4452,"ances":4453,"▁stop":4454,"صول":4455,"ounter":4456,"▁higher":4457,"▁Oper":4458,"▁cal":4459,"▁(R":4460,"▁وقت":4461,"▁plann":4462,"▁Fort":4463,"▁account":4464,"▁arg":4465,"▁Virgin":4466,"▁Ze":4467,"▁Tor":4468,"▁network":4469,"▁2,":4470,"▁فت":4471,"etic":4472,"▁...":4473,"chan":4474,"▁added":4475,"ria":4476,"▁office":4477,"▁parts":4478,"▁protect":4479,"ators":4480,"ختلف":4481,"▁Ret":4482,"▁tax":4483,"ندا":4484,"▁railway":4485,"يخ":4486,"▁joined":4487,"▁اليم":4488,"olk":4489,"▁Bur":4490,"▁بـ":4491,"▁equip":4492,"▁pred":4493,"▁required":4494,"▁observ":4495,"▁تعداد":4496,"▁Government":4497,"umn":4498,"▁Off":4499,"▁أحد":4500,"لاح":4501,"14":4502,"ين،":4503,"▁cy":4504,"▁جز":4505,"▁gold":4506,"▁opt":4507,"▁itself":4508,"▁stated":4509,"▁traditional":4510,"▁seven":4511,"▁introduced":4512,"▁critic":4513,"▁anal":4514,"راد":4515,"▁للأ":4516,"▁Arab":4517,"▁increased":4518,"18":4519,"▁Rad":4520,"abit":4521,"حصاء":4522,"lim":4523,"جر":4524,"▁ظ":4525,"▁يناير":4526,"amous":4527,"▁pay":4528,"15":4529,"▁regular":4530,"▁Aut":4531,"▁features":4532,"▁بشكل":4533,"ini":4534,"ريل":4535,"lam":4536,"▁ge":4537,"ity.":4538,"▁municip":4539,"▁نفس":4540,"▁surround":4541,"▁originally":4542,"▁placed":4543,"▁Lord":4544,"▁time.":4545,"arden":4546,"▁recorded":4547,"▁eventually":4548,"▁mer":4549,"▁Second":4550,"-P":4551,"▁(D":4552,"inent":4553,"▁allowed":4554,"واج":4555,"▁می‌ک":4556,"▁purch":4557,"لت":4558,"▁منت":4559,"ity,":4560,"rim":4561,"▁link":4562,"ين.":4563,"▁ask":4564,"▁object":4565,"▁\"T":4566,"▁your":4567,"▁Rock":4568,"n't":4569,"كي":4570,"▁epis":4571,"▁(s":4572,"▁mus":4573,"▁Av":4574,"▁instit":4575,"▁centre":4576,"lymp":4577,"oo":4578,"▁construct":4579,"ror":4580,"▁instead":4581,"lant":4582,"▁achie":4583,"ستخدم":4584,"▁inj":4585,"▁Music":4586,"aching":4587,"ires":4588,"▁neigh":4589,"arily":4590,"▁information":4591,"▁action":4592,"aries":4593,"▁via":4594,"west":4595,"band":4596,"▁transl":4597,"ican":4598,"طف":4599,"▁performance":4600,"ها،":4601,"ابة":4602,"cer":4603,"well":4604,"▁neg":4605,"ولوج":4606,"▁Du":4607,"oper":4608,"▁Kore":4609,"▁regard":4610,"▁أد":4611,"isk":4612,"▁whose":4613,"aves":4614,"▁Pac":4615,"▁My":4616,"▁below":4617,"▁\"W":4618,"▁prote":4619,"انون":4620,"▁center":4621,"▁sometimes":4622,"not":4623,"▁imm":4624,"▁it.":4625,"▁towards":4626,"راج":4627,"amer":4628,"enth":4629,"▁behind":4630,"▁complex":4631,"افظة":4632,"▁العربية":4633,"▁ball":4634,"ems":4635,"cite":4636,"▁fle":4637,"rich":4638,"▁Wal":4639,"▁television":4640,"▁خط":4641,"▁كم":4642,"▁Smith":4643,"isher":4644,"ate,":4645,"▁Two":4646,"قر":4647,"▁Sur":4648,"oice":4649,"nder":4650,"▁کن":4651,"ades":4652,"alled":4653,"▁according":4654,"ارد":4655,"ittee":4656,"▁commercial":4657,"asion":4658,"▁transfer":4659,"ida":4660,"bon":4661,"▁emb":4662,"▁celeb":4663,"c.":4664,"ليل":4665,"earch":4666,"lying":4667,"▁مجم":4668,"▁mission":4669,"porary":4670,"▁edition":4671,"▁artist":4672,"amm":4673,"▁fa":4674,"▁temper":4675,"▁match":4676,"press":4677,"▁colon":4678,"▁fort":4679,"▁لكرة":4680,"▁sound":4681,"0,000":4682,"▁الات":4683,"ضل":4684,"▁Arm":4685,"9%":4686,"ements":4687,"ready":4688,"▁page":4689,"▁ها":4690,"▁(I":4691,"▁Public":4692,"uter":4693,"▁training":4694,"▁لعب":4695,"▁(E":4696,"▁approx":4697,"▁Del":4698,"▁Olymp":4699,"▁generally":4700,"▁block":4701,"▁clear":4702,"وير":4703,"▁too":4704,"▁hor":4705,")،":4706,"▁الري":4707,"▁states":4708,"قية":4709,"▁lay":4710,"-3":4711,"ping":4712,"▁Gra":4713,"ficult":4714,"▁cit":4715,"ricult":4716,"▁Sing":4717,"ras":4718,"▁2003":4719,"sy":4720,"▁police":4721,"▁subsequ":4722,"▁industry":4723,"▁عم":4724,"▁sch":4725,"emorial":4726,"▁Commun":4727,"▁today":4728,"ecess":4729,"▁keep":4730,"itan":4731,"▁دو":4732,"▁key":4733,"▁years,":4734,"ala":4735,"▁economic":4736,"▁ever":4737,"urt":4738,"▁نسمة":4739,"▁المؤ":4740,"▁Commission":4741,"▁المش":4742,"ples":4743,"kn":4744,"▁Ma":4745,"▁year,":4746,"▁Mos":4747,"▁du":4748,"به":4749,"▁pers":4750,"▁مارس":4751,"▁difficult":4752,"▁شخص":4753,"▁Ben":4754,"site":4755,"▁party":4756,"ارج":4757,"▁base":4758,"▁reached":4759,"▁Britain":4760,"▁Ob":4761,"▁den":4762,"mark":4763,"▁certain":4764,"▁som":4765,"▁دول":4766,"acher":4767,"▁Canadian":4768,"position":4769,"▁Railway":4770,"▁fut":4771,"ياً":4772,"▁environment":4773,"aker":4774,"▁Its":4775,"قدر":4776,"ند.":4777,"▁Academy":4778,"▁performed":4779,"ros":4780,"▁III":4781,"▁Chic":4782,"▁J.":4783,"▁bomb":4784,"▁display":4785,"▁conv":4786,"▁Canada":4787,"i''":4788,"ios":4789,"▁List":4790,"▁Ann":4791,"pan":4792,"▁decided":4793,"lands":4794,"▁oil":4795,"▁size":4796,"▁Navy":4797,"▁Mil":4798,"▁Bo":4799,"▁our":4800,"رائ":4801,"▁لح":4802,"▁function":4803,"▁contain":4804,"فع":4805,"▁Leg":4806,"▁المنا":4807,"▁batt":4808,"ensus":4809,"ليز":4810,"▁Scot":4811,"▁aud":4812,"▁esc":4813,"▁soon":4814,"▁appointed":4815,"▁pie":4816,"▁mach":4817,"ground":4818,"▁حد":4819,"▁Ire":4820,"icles":4821,"▁حسب":4822,"▁BC":4823,"▁الأس":4824,"rate":4825,"زل":4826,"▁ele":4827,"▁buildings":4828,"ندي":4829,"هل":4830,"▁Post":4831,"▁\"P":4832,"erve":4833,"▁Carl":4834,"وروب":4835,"ibility":4836,"▁Mill":4837,"▁radio":4838,"▁Joseph":4839,"▁بأن":4840,"▁Gall":4841,"▁Kar":4842,"ustom":4843,"▁stage":4844,"▁hot":4845,"▁months":4846,"het":4847,"▁battle":4848,"▁prob":4849,"▁Library":4850,"▁sus":4851,"ension":4852,"▁باش":4853,"▁العلم":4854,"▁caused":4855,"▁Ott":4856,"▁قام":4857,"icro":4858,"▁sex":4859,"ka":4860,"▁Prov":4861,"▁percent":4862,"17":4863,"▁surface":4864,"▁already":4865,"ماء":4866,"al.":4867,"▁princip":4868,"▁(born":4869,"▁جميع":4870,"وسي":4871,"▁vot":4872,"▁فيها":4873,"▁popul":4874,"▁''K":4875,"84":4876,"▁concern":4877,"▁passeng":4878,"▁Work":4879,"▁thus":4880,"▁2001":4881,"AR":4882,"▁beginning":4883,"▁except":4884,"ician":4885,"حو":4886,"▁year.":4887,"يران":4888,"clus":4889,"-G":4890,"▁summer":4891,"▁Jewish":4892,"▁mix":4893,"▁involved":4894,"▁others":4895,"▁creat":4896,"▁western":4897,"▁tar":4898,"▁19th":4899,"▁Penn":4900,"▁Swed":4901,"▁sat":4902,"▁(F":4903,"▁2002":4904,"▁forest":4905,"▁الإسلام":4906,"ether":4907,"▁Line":4908,"sec":4909,"كتوبر":4910,"ón":4911,"▁نش":4912,"ضع":4913,"▁والتي":4914,"▁Flor":4915,"▁القرن":4916,"et,":4917,"▁Kn":4918,"▁القدم":4919,"▁document":4920,"▁(T":4921,"▁means":4922,"▁Bank":4923,"olar":4924,"▁وتوفي":4925,"حية":4926,"right":4927,"▁Tom":4928,"▁اون":4929,"سين":4930,"ations.":4931,"▁Class":4932,"▁وجود":4933,"▁Carol":4934,"inct":4935,"فل":4936,"▁الأولى":4937,"wer":4938,"▁أخرى":4939,"▁lack":4940,"▁army":4941,"▁lo":4942,"ributed":4943,"▁Dr":4944,"airs":4945,"▁length":4946,"gypt":4947,"▁مركز":4948,"▁Fin":4949,"▁religious":4950,"or.":4951,"▁century.":4952,"son,":4953,"▁saf":4954,"▁Mass":4955,"-H":4956,"▁games":4957,"ighter":4958,"▁التع":4959,"▁female":4960,"s'":4961,"▁pow":4962,"antry":4963,"▁larger":4964,"▁كتاب":4965,"نان":4966,"▁يكون":4967,"▁cas":4968,"وليو":4969,"▁دون":4970,"▁wife":4971,"لی":4972,"ancial":4973,"▁مر":4974,"▁لكن":4975,"▁القد":4976,"\")":4977,"▁loss":4978,"▁emer":4979,"▁1st":4980,"▁better":4981,"▁Service":4982,"▁groups":4983,"الات":4984,"▁Ros":4985,"▁فقط":4986,"aland":4987,"لق":4988,"▁household":4989,"lier":4990,"▁signed":4991,"▁exc":4992,"mon":4993,"▁180":4994,"▁course":4995,"▁Civil":4996,"▁pil":4997,"نج":4998,"صبح":4999,"▁lab":5000,"rying":5001,"imb":5002,"▁museum":5003,"▁Ireland":5004,"▁Texas":5005,"ette":5006,"▁active":5007,"NA":5008,"enced":5009,"▁exam":5010,"▁Mel":5011,"▁Just":5012,"▁هناك":5013,"اده":5014,"fit":5015,"put":5016,"ارية":5017,"▁sem":5018,"▁determ":5019,"▁Def":5020,"ations,":5021,"▁give":5022,"▁No":5023,"▁العديد":5024,"▁مايو":5025,"صة":5026,"لط":5027,"▁Jun":5028,"▁أكتوبر":5029,"ay,":5030,"▁abs":5031,"-e":5032,"▁منها":5033,"▁associated":5034,"▁expand":5035,"ano":5036,"ice,":5037,"▁prevent":5038,"▁''J":5039,"▁ey":5040,"▁competition":5041,"▁العمل":5042,"ويك":5043,"book":5044,"▁اين":5045,"rown":5046,"irt":5047,"▁might":5048,"تمبر":5049,"▁الملك":5050,"▁constit":5051,"▁Edward":5052,"ona":5053,"▁Pacific":5054,"ريد":5055,"▁Techn":5056,"▁adop":5057,"ulf":5058,"elled":5059,"▁منطقة":5060,"▁von":5061,"▁News":5062,"22":5063,"اي":5064,"▁Northern":5065,"adium":5066,"▁prop":5067,"▁consider":5068,"▁If":5069,"xford":5070,"يمة":5071,"▁Press":5072,"▁Georg":5073,"غم":5074,"▁Turk":5075,"ياسي":5076,"13":5077,"venue":5078,"▁draw":5079,"▁Er":5080,"▁جامعة":5081,"▁events":5082,"▁trade":5083,"▁Los":5084,"▁Bi":5085,"▁\"H":5086,"ipl":5087,"uth":5088,"▁har":5089,"5%":5090,"▁(197":5091,"uge":5092,"▁primary":5093,"▁review":5094,"▁foreign":5095,"قع":5096,"heast":5097,"▁Pre":5098,"▁professional":5099,"▁quest":5100,"عتبر":5101,"-D":5102,"-T":5103,"▁visit":5104,"▁sal":5105,"atives":5106,"16":5107,"▁education":5108,"irit":5109,"▁countries":5110,"▁شد":5111,"اصة":5112,"▁Airport":5113,"▁evidence":5114,"ends":5115,"chen":5116,"ulpt":5117,"▁\"L":5118,"▁think":5119,"90":5120,"iant":5121,"▁Educ":5122,"▁گفت":5123,"▁منذ":5124,"▁رئيس":5125,"ingu":5126,"▁bridge":5127,"▁amount":5128,"▁famous":5129,"ady":5130,"retary":5131,"▁عض":5132,"▁Ol":5133,"reater":5134,"طور":5135,"تش":5136,"▁increase":5137,"▁particularly":5138,"▁route":5139,"▁remains":5140,"▁approximately":5141,"▁flow":5142,"▁Ev":5143,"-L":5144,"▁Wood":5145,"روف":5146,"▁plat":5147,"▁نوف":5148,"▁additional":5149,"▁Fre":5150,"▁استخ":5151,"▁التق":5152,"aring":5153,"▁سبتمبر":5154,"known":5155,"ises":5156,"den":5157,"rig":5158,"▁Fred":5159,"▁career":5160,"hi":5161,"▁(G":5162,"▁prison":5163,"▁operated":5164,"▁points":5165,"▁إد":5166,"امج":5167,"▁قر":5168,"▁scient":5169,"▁Egypt":5170,"▁cities":5171,"▁بأ":5172,"▁Spain":5173,"▁break":5174,"▁Direct":5175,"جتما":5176,"ili":5177,"▁التح":5178,"▁lived":5179,"▁bene":5180,"▁changed":5181,"▁Pan":5182,"▁journal":5183,"erem":5184,"▁Dutch":5185,"oke":5186,"ada":5187,"▁closed":5188,"▁elected":5189,"uan":5190,"وی":5191,"▁Go":5192,"▁Democr":5193,"▁تقع":5194,"ola":5195,"▁60":5196,"ance,":5197,"▁whom":5198,"ternal":5199,"▁date":5200,"▁rights":5201,"▁highest":5202,"▁longer":5203,"قاطعة":5204,"ado":5205,"AF":5206,"تها":5207,"▁trib":5208,"▁structure":5209,"مبر":5210,"▁dom":5211,"▁video":5212,"s)":5213,"za":5214,"ocal":5215,"▁أش":5216,"cel":5217,"board":5218,"▁d'":5219,"▁relationship":5220,"هورية":5221,"rack":5222,"▁director":5223,"سمبر":5224,"▁believed":5225,"ming":5226,"action":5227,"سطس":5228,"ينية":5229,"▁taking":5230,"▁2019":5231,"aud":5232,"▁فإن":5233,"▁الثاني":5234,"▁estim":5235,"ally,":5236,"ribution":5237,"▁Ro":5238,"▁eas":5239,"an.":5240,"▁indic":5241,"▁A.":5242,"▁data":5243,"ine,":5244,"▁pen":5245,"http":5246,"aily":5247,"reme":5248,"▁speed":5249,"▁Congress":5250,"▁news":5251,"aled":5252,"▁woman":5253,"annel":5254,"▁Rob":5255,"ar,":5256,"▁related":5257,"▁Spe":5258,"▁حول":5259,"▁Queen":5260,"▁عندما":5261,"▁TV":5262,"ئية":5263,"▁()":5264,"▁quick":5265,"▁\"D":5266,"▁Bus":5267,"▁بدأ":5268,"ands":5269,"▁Den":5270,"▁awarded":5271,"▁self":5272,"▁نادي":5273,"▁Gar":5274,"▁''V":5275,"-4":5276,"براير":5277,"urban":5278,"▁Fer":5279,"▁دور":5280,"▁(H":5281,"▁grand":5282,"▁big":5283,"▁Middle":5284,"▁carried":5285,"▁Atlant":5286,"▁continu":5287,"▁expect":5288,"▁الذين":5289,"oir":5290,"obal":5291,"▁موقع":5292,"▁featured":5293,"▁going":5294,"▁division":5295,"ذي":5296,"▁Tem":5297,"▁Found":5298,"▁Const":5299,"▁Africa":5300,"ly.":5301,"اة":5302,"▁drop":5303,"ites":5304,"▁themsel":5305,"▁Alb":5306,"▁يوم":5307,"undred":5308,"▁limited":5309,"▁finished":5310,"▁Offic":5311,"▁sea":5312,"rast":5313,"▁cand":5314,"▁example,":5315,"▁happ":5316,"ids":5317,"▁سا":5318,"▁example":5319,"▁reason":5320,"▁university":5321,"▁bird":5322,"ita":5323,"-R":5324,"▁troops":5325,"▁يوليو":5326,"▁ديسمبر":5327,"ylvan":5328,"▁يُ":5329,"▁Sum":5330,"▁أبريل":5331,"▁detail":5332,"▁source":5333,"23":5334,"▁(17":5335,"ومات":5336,"▁Martin":5337,"▁threat":5338,"▁فرن":5339,"▁تد":5340,"خط":5341,"▁1999":5342,"ging":5343,"▁Southern":5344,"▁How":5345,"us''":5346,"▁1920":5347,"▁2010,":5348,"▁Science":5349,"▁fif":5350,"▁Research":5351,"lor":5352,"سمي":5353,"▁Sub":5354,"▁novel":5355,"▁always":5356,"▁forced":5357,"24":5358,"▁3,":5359,"▁print":5360,"▁immedi":5361,"ender":5362,"▁ens":5363,"▁ded":5364,"ills":5365,"▁يونيو":5366,"▁nar":5367,"har":5368,"▁'''''":5369,"rance":5370,"uments":5371,"▁eastern":5372,"▁super":5373,"▁3.":5374,"change":5375,"ura":5376,"▁mostly":5377,"▁minor":5378,"▁jud":5379,"▁earlier":5380,"رجة":5381,"▁flight":5382,"ned":5383,"▁فقد":5384,"▁حق":5385,"▁Best":5386,"واب":5387,"▁release":5388,"▁Bre":5389,"▁execut":5390,"▁deal":5391,"▁بع":5392,"▁Zealand":5393,"ينا":5394,"يدة":5395,"▁Inf":5396,"▁numerous":5397,"itage":5398,"▁Valley":5399,"plement":5400,"سون":5401,"▁نوفمبر":5402,"ياء":5403,"▁activities":5404,"▁Long":5405,"–18":5406,"▁هر":5407,"▁rate":5408,"▁أغسطس":5409,"zil":5410,"▁Rh":5411,"▁annual":5412,"▁Eastern":5413,"لاف":5414,"orpor":5415,"▁wide":5416,"▁بج":5417,"▁referred":5418,"▁Liber":5419,"▁deep":5420,"▁Not":5421,"▁complete":5422,"▁Record":5423,"▁نسبة":5424,"▁ancient":5425,"▁heavy":5426,"▁investig":5427,"▁establish":5428,"▁owned":5429,"▁units":5430,"▁Super":5431,"back":5432,"▁stre":5433,"ca":5434,"▁Mot":5435,"▁step":5436,"▁مو":5437,"AT":5438,"اره":5439,"▁Over":5440,"▁بها":5441,"▁البي":5442,"ection":5443,"▁System":5444,"▁historical":5445,"▁Portug":5446,"▁mention":5447,"▁179":5448,"riage":5449,"inary":5450,"▁website":5451,"▁gradu":5452,"onn":5453,"▁فبراير":5454,"▁دست":5455,"▁influence":5456,"▁Sea":5457,"▁personal":5458,"imum":5459,"▁Francisc":5460,"▁السكان":5461,"▁Camb":5462,"▁commission":5463,"▁norm":5464,"▁chap":5465,"عدة":5466,"▁\"F":5467,"▁move":5468,"له":5469,"زم":5470,"▁Do":5471,"▁Sil":5472,"▁65":5473,"▁passed":5474,"▁'''ال":5475,"▁Field":5476,"قتص":5477,"▁الحرب":5478,"راك":5479,"▁energy":5480,"▁currently":5481,"▁بسبب":5482,"▁Prince":5483,"inter":5484,"▁بالم":5485,"ota":5486,"▁newsp":5487,"0s.":5488,"▁Festival":5489,"▁college":5490,"▁instr":5491,"▁target":5492,"A.":5493,"▁Brown":5494,"▁Ver":5495,"house":5496,"utt":5497,"▁العلا":5498,"▁increasing":5499,"▁فيه":5500,"▁Play":5501,"▁More":5502,"burgh":5503,"ulated":5504,"▁and,":5505,"▁20th":5506,"▁adj":5507,"▁contains":5508,"▁Are":5509,"▁birth":5510,"▁(J":5511,"iy":5512,"▁rap":5513,"▁Cult":5514,"▁اسم":5515,"anced":5516,"izing":5517,"la":5518,"▁'''S":5519,"▁create":5520,"▁Islam":5521,"iled":5522,"▁independent":5523,"▁floor":5524,"▁shown":5525,"كومة":5526,"add":5527,"hat":5528,"▁parent":5529,"▁shows":5530,"▁mountain":5531,"▁Irish":5532,"▁gas":5533,"▁cultural":5534,"▁2011,":5535,"▁Lu":5536,"▁Tim":5537,"▁log":5538,"atively":5539,"▁face":5540,"▁Follow":5541,"onse":5542,"▁(U":5543,"mission":5544,"igr":5545,"▁location":5546,"▁reve":5547,"▁bod":5548,"▁letter":5549,"illa":5550,"واليد":5551,"▁Main":5552,"▁سم":5553,"▁2009,":5554,"▁enough":5555,"onic":5556,"▁2008,":5557,"▁poor":5558,"▁اخت":5559,"▁hit":5560,"قليم":5561,"▁Dou":5562,"▁require":5563,"▁mechan":5564,"▁Haw":5565,"▁والس":5566,"▁fourth":5567,"tained":5568,"▁Governor":5569,"▁Arts":5570,"ings,":5571,"▁got":5572,"▁concept":5573,"ledge":5574,"▁launched":5575,"▁2nd":5576,"ضافة":5577,"▁ذات":5578,"ادر":5579,"▁accom":5580,"ault":5581,"جي":5582,"▁him.":5583,"▁chief":5584,"▁majority":5585,"ella":5586,"طي":5587,"▁1998":5588,"▁وش":5589,"▁operations":5590,"mitted":5591,"▁Gen":5592,"▁pal":5593,"urd":5594,"▁Board":5595,"▁running":5596,"iple":5597,"▁Engine":5598,"perial":5599,"▁dire":5600,"see":5601,"▁تلك":5602,"▁مجلس":5603,"▁prior":5604,"▁That":5605,"▁bound":5606,"▁discuss":5607,"▁کار":5608,"▁custom":5609,"stra":5610,"▁supported":5611,"▁necess":5612,"▁crew":5613,"▁citiz":5614,"acing":5615,"tar":5616,"▁phil":5617,"▁Mexico":5618,"▁باسم":5619,"▁برای":5620,"▁goal":5621,"oral":5622,"ّة":5623,"▁آخر":5624,"▁فوق":5625,"▁Polish":5626,"▁domin":5627,"45":5628,"وجد":5629,"▁non-":5630,"▁دی":5631,"▁Office":5632,"ظر":5633,"▁يح":5634,"▁إس":5635,"▁عليه":5636,"▁عمر":5637,"▁ver":5638,"▁qual":5639,"inet":5640,"▁separate":5641,"ests":5642,"▁dig":5643,"▁Series":5644,"▁ألم":5645,"▁لد":5646,"▁لإ":5647,"▁Berlin":5648,"▁done":5649,"▁Bul":5650,"▁تج":5651,"▁Squadron":5652,"ظمة":5653,"لس":5654,"gar":5655,"▁eth":5656,"ersey":5657,"t.":5658,"▁Another":5659,"▁Mat":5660,"▁Ha":5661,"27":5662,"كو":5663,"ابات":5664,"انه":5665,"▁2007,":5666,"35":5667,"▁staff":5668,"▁color":5669,"▁Centre":5670,"▁Following":5671,"▁schools":5672,"▁Spr":5673,"▁walk":5674,"▁ran":5675,"▁them.":5676,"▁للإ":5677,"▁nature":5678,"كا":5679,"شف":5680,"▁Columb":5681,"ero":5682,"▁cause":5683,"ech":5684,"ment,":5685,"▁decision":5686,"▁(196":5687,"▁2012,":5688,"▁Journal":5689,"▁Mo":5690,"flict":5691,"iro":5692,"▁تكون":5693,"▁corn":5694,"‌ها":5695,"agn":5696,"▁Parliament":5697,"illed":5698,"▁للس":5699,"rief":5700,"astic":5701,"rat":5702,"▁Oxford":5703,"▁ثلا":5704,"ells":5705,"▁players":5706,"جب":5707,"▁whole":5708,"▁أق":5709,"▁nearly":5710,"▁kind":5711,"▁future":5712,"▁playing":5713,"▁\"R":5714,"▁opening":5715,"▁financial":5716,"ken":5717,"uten":5718,"ist,":5719,"▁listed":5720,"▁Est":5721,"▁capac":5722,"▁الوق":5723,"▁Life":5724,"▁specific":5725,"abeth":5726,"▁Women":5727,"▁Star":5728,"والي":5729,"طب":5730,"▁Revolution":5731,"▁مه":5732,"man,":5733,"▁turned":5734,"▁variety":5735,"راً":5736,"▁Hung":5737,"ويل":5738,"on.":5739,"▁Bill":5740,"▁electric":5741,"▁Film":5742,"istan":5743,"merican":5744,"▁van":5745,"▁Chief":5746,"ih":5747,"bl":5748,"▁Gal":5749,"cing":5750,"▁Water":5751,"▁Russia":5752,"ugg":5753,"▁noted":5754,"▁Ill":5755,"واس":5756,"ورت":5757,"▁Latin":5758,"وث":5759,"واء":5760,"▁sculpt":5761,"▁إلي":5762,"▁bring":5763,"▁Jac":5764,"▁claimed":5765,"▁Brazil":5766,"قب":5767,"ervation":5768,"pose":5769,"iance":5770,"ضاء":5771,"▁practice":5772,"▁مصر":5773,"▁Cross":5774,"▁ri":5775,"▁(f":5776,"▁area.":5777,"▁prem":5778,"يدي":5779,"▁Di":5780,"▁tank":5781,"▁demonst":5782,"een":5783,"▁Hel":5784,"داد":5785,"▁بی":5786,"▁Of":5787,"▁weap":5788,"▁seat":5789,"▁ابن":5790,"الب":5791,"▁مما":5792,"▁Social":5793,"▁integ":5794,"itation":5795,"AC":5796,"غي":5797,"▁إلا":5798,"light":5799,"ares":5800,"▁green":5801,"vention":5802,"▁affect":5803,"▁Rom":5804,"▁Sun":5805,"▁Chap":5806,"▁smaller":5807,"▁Rel":5808,"sylvan":5809,"▁Mah":5810,"500":5811,"▁previously":5812,"▁والع":5813,"▁recent":5814,"لاق":5815,"▁Scotland":5816,"▁proposed":5817,"▁mainly":5818,"ario":5819,"▁يد":5820,"طق":5821,"▁أما":5822,"azz":5823,"▁likely":5824,"▁Jean":5825,"sych":5826,"aught":5827,"▁stay":5828,"▁symb":5829,"g.":5830,"▁Guard":5831,"▁offered":5832,"▁Tour":5833,"▁girl":5834,"▁changes":5835,"▁shot":5836,"▁poet":5837,"mir":5838,"▁organization":5839,"▁People":5840,"▁لها":5841,"▁Tri":5842,"▁Ram":5843,"ment.":5844,"▁numb":5845,"ho":5846,"▁Chicago":5847,"▁ended":5848,"ider":5849,"kin":5850,"ils":5851,"uty":5852,"26":5853,"▁2013,":5854,"امي":5855,"▁income":5856,"''':":5857,"▁Retrieved":5858,"ua":5859,",\"":5860,"▁الأع":5861,"▁focus":5862,"can":5863,"هي":5864,"▁Jes":5865,"▁Order":5866,"quar":5867,"▁ang":5868,"▁Iran":5869,"▁legal":5870,"ات.":5871,"▁\"G":5872,"▁growth":5873,"ائية":5874,"ربع":5875,"▁middle":5876,"▁Jul":5877,"▁nuc":5878,"peror":5879,"ental":5880,"▁Bridge":5881,"▁Belg":5882,"nam":5883,"▁stone":5884,"▁leader":5885,"▁Uk":5886,"▁cred":5887,"وص":5888,"▁altern":5889,"▁spread":5890,"▁4,":5891,"▁Regiment":5892,"▁constructed":5893,"▁Jo":5894,"ابل":5895,"▁hum":5896,"جز":5897,"▁told":5898,"▁Ser":5899,"cean":5900,"▁entered":5901,"▁Sar":5902,"mond":5903,"▁sister":5904,"oped":5905,"▁hall":5906,"▁2004.":5907,"usband":5908,"odes":5909,"حل":5910,"▁lines":5911,"▁Bet":5912,"▁arran":5913,"▁houses":5914,"gent":5915,"BA":5916,"▁Foot":5917,"▁الخام":5918,"):":5919,"ليزية":5920,"▁Budd":5921,"▁Hot":5922,"▁أث":5923,"▁medical":5924,"▁(O":5925,"▁Their":5926,"▁pan":5927,"▁بلد":5928,"▁علم":5929,"win":5930,"▁hyd":5931,"▁Viet":5932,"▁Major":5933,"▁2014,":5934,"▁الإم":5935,"ائزة":5936,"75":5937,"athed":5938,"▁Station":5939,"▁dise":5940,"oud":5941,"iences":5942,"vement":5943,"▁Wall":5944,"▁بار":5945,"حدث":5946,"▁dead":5947,"▁Elect":5948,"▁Committee":5949,"28":5950,"▁Corps":5951,"قم":5952,"edy":5953,"▁culture":5954,"rative":5955,"igan":5956,"ropol":5957,"emporary":5958,"▁Mur":5959,"▁Muslim":5960,"▁يقدر":5961,"▁\"s":5962,"ato":5963,"نتاج":5964,"▁Coast":5965,"▁pric":5966,"▁collect":5967,"▁produce":5968,"▁Oh":5969,"▁later,":5970,"ais":5971,"▁remaining":5972,"ky":5973,"▁35":5974,"▁federal":5975,"▁chem":5976,"▁رس":5977,"▁runs":5978,"▁provides":5979,"bury":5980,"▁الوطني":5981,"%D8%":5982,"▁Angeles":5983,"نين":5984,"▁ضمن":5985,"▁hundred":5986,"▁Prog":5987,"▁Stev":5988,"rait":5989,"esh":5990,"▁sen":5991,"ronic":5992,"▁وكانت":5993,"▁(3":5994,"▁latter":5995,"كة":5996,"ساس":5997,"▁1997":5998,"▁القر":5999,"▁heart":6000,"▁autom":6001,"▁ني":6002,"mann":6003,"eff":6004,"rier":6005,"ore,":6006,"▁inh":6007,"▁Earth":6008,"▁Philipp":6009,"▁(p":6010,"▁candid":6011,"ue,":6012,"ظام":6013,"▁systems":6014,"▁Build":6015,"▁Develop":6016,"s.\"":6017,"▁لن":6018,"ابق":6019,"▁M.":6020,"عر":6021,"▁cle":6022,"▁agricult":6023,"▁wor":6024,"▁probably":6025,"▁Alexander":6026,"▁Under":6027,"▁counter":6028,"▁التج":6029,"ودة":6030,"▁ordered":6031,"▁soft":6032,"▁directly":6033,"▁So":6034,"itting":6035,"▁قط":6036,"لاً":6037,"▁طريق":6038,"▁spent":6039,"▁larg":6040,"▁meeting":6041,"21":6042,"▁Tod":6043,"itted":6044,"▁£":6045,"▁Later":6046,"▁Pennsylvan":6047,"ES":6048,"▁\"ال":6049,"▁Bern":6050,"▁Brig":6051,"cycl":6052,"umber":6053,"▁Bost":6054,"ias":6055,"▁Despite":6056,"oring":6057,"▁Publ":6058,"▁path":6059,"▁اما":6060,"▁Italy":6061,"▁initially":6062,"ance.":6063,"م.":6064,"▁شما":6065,"▁quarter":6066,"alle":6067,"▁2006,":6068,"▁box":6069,"▁Jud":6070,"▁Rout":6071,"▁Both":6072,"▁Pers":6073,"▁1996":6074,"ate.":6075,"▁الانت":6076,"▁belong":6077,"نب":6078,"▁Albert":6079,"▁prec":6080,"▁money":6081,"▁ess":6082,"وغ":6083,"كتب":6084,"▁بإ":6085,"▁response":6086,"▁subst":6087,"▁teams":6088,"تب":6089,"▁status":6090,"room":6091,"▁Virginia":6092,"▁arrived":6093,"adel":6094,"▁property":6095,"▁becoming":6096,"▁بالإ":6097,"▁الفت":6098,"▁thous":6099,"ظهر":6100,"▁companies":6101,"▁Jer":6102,"▁قائ":6103,"eball":6104,"▁dyn":6105,"ces.":6106,"-based":6107,"که":6108,"اليا":6109,"▁Command":6110,"ees":6111,"▁الأف":6112,"▁management":6113,"0%":6114,"▁facilities":6115,"▁uses":6116,"▁المدينة":6117,"د.":6118,"rupt":6119,"▁داشت":6120,"▁2015,":6121,"قيق":6122,"▁appears":6123,"▁issue":6124,"ellig":6125,"▁upper":6126,"▁Cr":6127,"▁incorpor":6128,"▁inside":6129,"▁Ur":6130,"▁fish":6131,"▁500":6132,"▁issued":6133,"▁whether":6134,"▁McC":6135,"▁terms":6136,"▁الأد":6137,"▁los":6138,"▁بير":6139,"▁Hon":6140,"les,":6141,"▁asked":6142,"▁husband":6143,"▁'''C":6144,"oration":6145,"▁heav":6146,"▁boy":6147,"▁ود":6148,"obile":6149,"ysis":6150,"▁forms":6151,"standing":6152,"iring":6153,"▁direction":6154,"ione":6155,"▁1990":6156,"abb":6157,"eds":6158,"▁resist":6159,"-up":6160,"▁mill":6161,"▁science":6162,"stein":6163,"▁لدي":6164,"ياة":6165,"▁blood":6166,"▁raised":6167,"29":6168,"▁(or":6169,"enty":6170,"▁الأخ":6171,"▁degree":6172,"▁arrest":6173,"است":6174,"en.":6175,"▁أخ":6176,"▁الان":6177,"ieuten":6178,"-se":6179,"▁ور":6180,"like":6181,"-cent":6182,"▁S.":6183,"ully":6184,"▁Eliz":6185,"▁Luc":6186,"بح":6187,"قال":6188,"ي.":6189,"embly":6190,"▁anti-":6191,"▁Out":6192,"▁conflict":6193,"▁academ":6194,"osoph":6195,"isation":6196,"▁أيضًا":6197,"edom":6198,"▁article":6199,"ening":6200,"▁magazine":6201,"–0":6202,"▁مجموعة":6203,"لع":6204,"▁names":6205,"aches":6206,"ي،":6207,"▁Pen":6208,"▁rat":6209,"ols":6210,"▁platform":6211,"ستان":6212,"▁Int":6213,"▁Dev":6214,"▁Bor":6215,"▁درا":6216,"▁المو":6217,"nic":6218,"▁families":6219,"▁45":6220,"ingham":6221,"▁univers":6222,"ائر":6223,"▁organiz":6224,"▁media":6225,"▁motor":6226,"ضة":6227,"▁الثام":6228,"جه":6229,"▁peace":6230,"رير":6231,"at,":6232,"▁estimated":6233,"istics":6234,"▁presented":6235,"▁بريط":6236,"▁لس":6237,"▁Federal":6238,"▁Also":6239,"▁demand":6240,"stone":6241,"▁diss":6242,"▁talk":6243,"▁firm":6244,"itar":6245,"▁\",":6246,"IS":6247,"▁sail":6248,"▁Theatre":6249,"▁hours":6250,"le.":6251,"▁مسا":6252,"ić":6253,"▁1992":6254,"▁typically":6255,"ces,":6256,"ری":6257,"▁streng":6258,"ression":6259,"oma":6260,"▁multiple":6261,"▁Tro":6262,"لية":6263,"▁cerem":6264,"resp":6265,"▁unc":6266,"cul":6267,"▁ships":6268,"▁conver":6269,"itions":6270,"▁card":6271,"▁بالت":6272,"عيش":6273,"▁بخ":6274,"▁wear":6275,"inner":6276,"▁territory":6277,"ype":6278,"▁enem":6279,"inated":6280,"▁yet":6281,"▁themselves":6282,"65":6283,"▁broadcast":6284,"▁hospital":6285,"▁industrial":6286,"-F":6287,"▁Batt":6288,"▁flag":6289,"▁concent":6290,".C.":6291,"sw":6292,"▁amb":6293,"▁victory":6294,"u,":6295,"▁neighbor":6296,"ieutenant":6297,"▁يش":6298,"▁compl":6299,"▁hour":6300,"▁inn":6301,"▁htt":6302,"thing":6303,"▁0.":6304,"▁لأن":6305,"▁acquired":6306,"▁Tre":6307,"▁league":6308,"▁تس":6309,"▁إذا":6310,"▁نمی‌":6311,"▁الرئيس":6312,"▁defeated":6313,"▁فل":6314,"duce":6315,"▁Corn":6316,"لاء":6317,"▁Wind":6318,"ois":6319,"▁coach":6320,"ter,":6321,"▁Avenue":6322,"▁(a":6323,"▁depict":6324,"▁2016,":6325,"▁Sat":6326,"▁finally":6327,"rolled":6328,"ive.":6329,"▁traffic":6330,"▁\"N":6331,"▁Far":6332,"▁meaning":6333,"▁Stan":6334,"vest":6335,"▁responsible":6336,"oura":6337,"itude":6338,"▁withd":6339,"▁temple":6340,"▁county":6341,"▁soldiers":6342,"▁square":6343,"ez":6344,"yal":6345,"▁Wales":6346,"▁الدين":6347,"athedral":6348,"▁makes":6349,"▁promot":6350,"▁covered":6351,"▁brand":6352,"▁الجنوب":6353,"▁Dis":6354,"▁highly":6355,"ao":6356,"▁interview":6357,"ube":6358,"▁Prime":6359,"andon":6360,"▁plans":6361,"▁أبو":6362,"▁Duke":6363,"▁native":6364,"▁Boy":6365,"▁1994":6366,"-day":6367,"thur":6368,"▁1995":6369,"▁dedicated":6370,"uts":6371,"ry,":6372,"▁Poland":6373,"▁الجديد":6374,"icient":6375,"▁Sol":6376,"▁directed":6377,"▁male":6378,"▁Hor":6379,"▁dark":6380,"▁experience":6381,"▁Cur":6382,"نه":6383,"▁ut":6384,"▁scen":6385,"▁مل":6386,"▁الثانية":6387,"امة":6388,"thlet":6389,"▁leave":6390,"▁want":6391,"▁sens":6392,"▁العم":6393,"▁musical":6394,"▁استخدام":6395,"ائرة":6396,"يلي":6397,"▁Corpor":6398,"▁consists":6399,"▁Step":6400,"▁consum":6401,"ER":6402,"▁wanted":6403,"▁Young":6404,"▁job":6405,"▁leaving":6406,"fort":6407,"aters":6408,"isions":6409,"-5":6410,"▁Prot":6411,"▁(W":6412,"3%":6413,"▁accessed":6414,"▁replace":6415,"https":6416,"uted":6417,"▁nine":6418,"▁البحر":6419,"▁Van":6420,"▁insp":6421,"▁الأح":6422,"اعت":6423,"▁أيضا":6424,"ying":6425,"▁minister":6426,"ta":6427,"anda":6428,"▁learn":6429,"▁Ven":6430,"age.":6431,"▁largely":6432,"▁ult":6433,"▁council":6434,"▁campus":6435,"▁الفرن":6436,"▁takes":6437,"▁تر":6438,"▁pattern":6439,"▁الثال":6440,"▁blue":6441,"pre":6442,"▁والد":6443,"▁theory":6444,"▁partn":6445,"▁quality":6446,"▁shop":6447,"▁البلد":6448,"▁نوع":6449,"▁\".":6450,"▁Bow":6451,"▁Dar":6452,"▁الأك":6453,"iano":6454,"▁helped":6455,"va":6456,"▁Dr.":6457,"▁gam":6458,"ressed":6459,"▁discovered":6460,"▁(c":6461,"▁Four":6462,"ليات":6463,"▁depart":6464,"▁O'":6465,"▁despite":6466,"ety":6467,"2),":6468,"iana":6469,"fect":6470,"▁serve":6471,"▁Education":6472,"▁2017,":6473,"▁جان":6474,"▁sn":6475,"▁bott":6476,"▁Special":6477,"▁Sund":6478,"▁greater":6479,"▁السيا":6480,"agon":6481,"ny":6482,"▁جنوب":6483,"▁inform":6484,"بيرة":6485,"▁الأرض":6486,"▁Sever":6487,"▁impact":6488,"▁border":6489,"aped":6490,"-time":6491,"▁Jim":6492,"▁intended":6493,"▁rare":6494,"onom":6495,"▁types":6496,"▁Secretary":6497,"stitution":6498,"▁studies":6499,"▁mem":6500,".M":6501,"▁contact":6502,"▁spl":6503,"▁چه":6504,"▁اعت":6505,"هاد":6506,"▁disp":6507,"ador":6508,"▁'''M":6509,"فق":6510,"war":6511,"▁(195":6512,"▁Sand":6513,"ثم":6514,"▁صح":6515,"ريب":6516,"▁vess":6517,"▁results":6518,"ession":6519,"▁شده":6520,"▁operating":6521,"▁metal":6522,"▁wild":6523,"▁Jersey":6524,"ür":6525,"نگ":6526,"▁Det":6527,"▁rule":6528,"▁map":6529,"▁extended":6530,"▁الرسمي":6531,"▁legisl":6532,"▁جون":6533,"edd":6534,"-W":6535,"▁continue":6536,"▁episode":6537,"▁writing":6538,"▁primarily":6539,"33":6540,"▁fuel":6541,"▁potential":6542,"i's":6543,"▁Rome":6544,"▁تط":6545,"▁captured":6546,"▁ضد":6547,"▁suppl":6548,"s''":6549,"▁presence":6550,"▁Elizabeth":6551,"ثي":6552,"ait":6553,"هما":6554,"▁surrounding":6555,"▁أحمد":6556,"▁security":6557,"▁settlement":6558,"▁urban":6559,"▁واحد":6560,"erc":6561,"rac":6562,"▁1991":6563,"▁nearby":6564,"85":6565,"▁Ira":6566,"▁share":6567,"portun":6568,"m.":6569,"▁الأمريكية":6570,"انات":6571,"▁attract":6572,"أة":6573,"onent":6574,"▁\"E":6575,"واسطة":6576,"range":6577,"▁Florida":6578,"▁it,":6579,"▁pressure":6580,"heim":6581,"▁commonly":6582,"▁double":6583,"amber":6584,"▁(b.":6585,"▁Max":6586,"rong":6587,"▁Wild":6588,"▁divided":6589,"▁Tw":6590,"▁5,":6591,"▁susp":6592,"▁اليوم":6593,"▁2011.":6594,"▁subs":6595,"rical":6596,"▁chall":6597,"FA":6598,"era":6599,"▁animal":6600,"omot":6601,"▁feel":6602,"hist":6603,"6),":6604,"▁reform":6605,"ليون":6606,"▁screen":6607,"▁online":6608,"▁regional":6609,"▁Colon":6610,"2%":6611,"▁بود.":6612,"▁hol":6613,"▁agreement":6614,"▁لعام":6615,"▁store":6616,"▁Bal":6617,"▁Mid":6618,"▁conne":6619,"▁السعود":6620,"▁season,":6621,"▁Ham":6622,"▁love":6623,"▁rear":6624,"ns":6625,"▁declared":6626,"▁C.":6627,"▁Military":6628,"▁ir":6629,"▁بواسطة":6630,"▁Bec":6631,"▁destroyed":6632,"ورا":6633,"▁Francisco":6634,"▁province":6635,"▁initial":6636,"▁therefore":6637,"▁الشيخ":6638,"ographic":6639,"ide,":6640,"64":6641,"▁مختلف":6642,"▁compared":6643,"▁تسم":6644,"▁1993":6645,"▁dram":6646,"▁المر":6647,"▁Po":6648,"▁وخ":6649,"▁Big":6650,"▁جديد":6651,"force":6652,"سان":6653,"▁officially":6654,"▁earth":6655,"7%":6656,"طفال":6657,"wan":6658,"▁failed":6659,"ely,":6660,"6%":6661,"▁Men":6662,"▁occurred":6663,"▁bad":6664,"▁UN":6665,"▁billion":6666,"▁Creek":6667,"▁policy":6668,"▁Form":6669,"ogue":6670,"lem":6671,"-n":6672,"▁don't":6673,"▁سكانها":6674,"▁Hind":6675,"8),":6676,"▁sequ":6677,"▁table":6678,"▁aim":6679,"▁Pak":6680,"▁العل":6681,"▁Head":6682,"▁ومع":6683,"▁overall":6684,"▁Mu":6685,"▁attended":6686,"▁(l":6687,"http://www.":6688,"‌های":6689,"▁وذلك":6690,"án":6691,"▁Health":6692,"o''":6693,"▁Conf":6694,"▁كبير":6695,"▁sand":6696,"▁perman":6697,"▁starting":6698,"▁fell":6699,"▁rapid":6700,"▁abandon":6701,"▁planned":6702,"99":6703,"▁Andrew":6704,"▁idea":6705,"▁Pop":6706,"رفت":6707,"▁الوقت":6708,"▁resour":6709,"▁fast":6710,"▁Compan":6711,"▁Three":6712,"▁\"a":6713,"▁يقع":6714,"▁books":6715,"▁widely":6716,"▁BBC":6717,"ريم":6718,"ously":6719,"iated":6720,"اتب":6721,"▁kept":6722,"حدى":6723,"▁'''م":6724,"▁renamed":6725,"▁reach":6726,"▁numbers":6727,"ويت":6728,"▁subsequently":6729,"▁recover":6730,"emeter":6731,"▁magn":6732,"▁لج":6733,"▁teacher":6734,"▁الشرق":6735,"wide":6736,"▁الدولة":6737,"▁brief":6738,"▁''U":6739,"قتصاد":6740,"▁winning":6741,"▁Common":6742,"land,":6743,"7),":6744,"illery":6745,"▁pick":6746,"▁branch":6747,"▁rain":6748,"rog":6749,"ething":6750,"▁Pennsylvania":6751,"ications":6752,"1%":6753,"▁الإنس":6754,"lav":6755,"▁Vill":6756,"▁نا":6757,"▁pict":6758,"▁Lim":6759,"▁Serb":6760,"▁2010.":6761,"هود":6762,"▁الشر":6763,"▁Santa":6764,"▁master":6765,"▁prominent":6766,"▁Ly":6767,"▁الاتحاد":6768,"▁value":6769,"نى":6770,"▁conducted":6771,"▁Anton":6772,"▁مغ":6773,"▁nomin":6774,"▁instrument":6775,"ruit":6776,"ati":6777,"▁max":6778,"ht":6779,"agement":6780,"quarters":6781,"▁للد":6782,"4%":6783,"▁temperature":6784,"▁\"O":6785,"▁joint":6786,"▁seem":6787,"▁Naz":6788,"▁slow":6789,"nce":6790,"bre":6791,"▁liber":6792,"▁distinct":6793,"▁الوا":6794,"▁prep":6795,"حم":6796,"▁Football":6797,"یست":6798,"شرة":6799,"ley,":6800,"▁Nap":6801,"ظيم":6802,"gu":6803,"'''.":6804,"▁supply":6805,"▁spirit":6806,"▁الطبي":6807,"is.":6808,"▁purchased":6809,"ting":6810,"ريف":6811,"▁Card":6812,"▁Dan":6813,"▁المركز":6814,"▁محافظة":6815,"▁Philip":6816,"▁2018,":6817,"▁ice":6818,"iger":6819,"1),":6820,"respond":6821,"▁painting":6822,"▁speak":6823,"▁Adam":6824,"estic":6825,"▁Nether":6826,"▁figure":6827,"amin":6828,"▁Memorial":6829,"▁كار":6830,"'m":6831,"SA":6832,"▁ple":6833,"▁النس":6834,"ers'":6835,"▁178":6836,"▁Lab":6837,"▁Forest":6838,"▁Ep":6839,"▁Profess":6840,"▁العد":6841,"aya":6842,"▁Az":6843,"▁maintain":6844,"اذ":6845,"▁fr":6846,"▁Os":6847,"▁Castle":6848,"حق":6849,"▁الاجتما":6850,"aging":6851,"▁Iraq":6852,"ocated":6853,"▁managed":6854,"ثال":6855,"▁feet":6856,"▁المق":6857,"ibly":6858,"▁quickly":6859,"chester":6860,"▁iron":6861,"▁Historic":6862,"▁comment":6863,"▁Radio":6864,"▁pap":6865,"▁artists":6866,"▁Charl":6867,"▁lic":6868,"باب":6869,"resh":6870,"▁needed":6871,"▁department":6872,"▁أنها":6873,"▁Asia":6874,"▁الأن":6875,"▁suit":6876,"سی":6877,"▁re-":6878,"▁illust":6879,"▁2005,":6880,"▁attend":6881,"teen":6882,"ence,":6883,"تل":6884,"▁Development":6885,"▁opportun":6886,"▁removed":6887,"▁Hospital":6888,"ceeded":6889,"▁وص":6890,"▁god":6891,"▁قرية":6892,"▁Kong":6893,"▁Police":6894,"▁Democratic":6895,"واع":6896,"▁championship":6897,"▁sports":6898,"▁Matt":6899,"▁Ministry":6900,"▁reduced":6901,"▁3rd":6902,"▁sport":6903,"▁image":6904,"هور":6905,"جوم":6906,"▁خوا":6907,"▁risk":6908,"iform":6909,"hy":6910,"asons":6911,"▁physical":6912,"▁residents":6913,"▁repe":6914,"▁adopted":6915,"▁parish":6916,"▁peak":6917,"ented":6918,"▁6,":6919,"▁Cy":6920,"▁that,":6921,"▁حم":6922,"▁merg":6923,"اية":6924,"▁نق":6925,"▁micro":6926,"▁Team":6927,"▁weight":6928,"▁flood":6929,"▁Econom":6930,"▁Kent":6931,"ندية":6932,"▁Kenn":6933,"▁80":6934,"s\"":6935,"rak":6936,"▁chair":6937,"▁communities":6938,"esc":6939,"▁شركة":6940,"▁Mountain":6941,"▁مقاطعة":6942,"▁felt":6943,"utions":6944,"▁relatively":6945,"▁مط":6946,"ابع":6947,"▁transferred":6948,"▁pack":6949,"▁الرياض":6950,"▁ability":6951,"▁sched":6952,"ine.":6953,"▁Bell":6954,"down":6955,"▁حوالي":6956,"▁Ul":6957,"وريا":6958,"▁cab":6959,"▁'''A":6960,"▁Broad":6961,"ropolitan":6962,"▁climate":6963,"▁2009.":6964,"▁season.":6965,"gg":6966,"▁(al":6967,"awa":6968,"▁Att":6969,"▁cars":6970,"▁داخل":6971,"on's":6972,"water":6973,"3),":6974,"▁composed":6975,"ويس":6976,"alion":6977,"▁element":6978,"▁royal":6979,"▁resulted":6980,"▁مرة":6981,"▁reserv":6982,"رو":6983,"▁elev":6984,"▁Freder":6985,"▁charge":6986,"▁احت":6987,"▁forward":6988,"▁المجم":6989,"▁immediately":6990,"▁\"c":6991,"▁Syd":6992,"ski":6993,"ties":6994,"▁city.":6995,"▁Asian":6996,"خرج":6997,"تين":6998,"▁collabor":6999,"aniel":7000,"▁festival":7001,"غل":7002,"▁1989":7003,"adelph":7004,"▁marriage":7005,"▁giving":7006,"ograp":7007,"▁نه":7008,"▁burn":7009,"▁library":7010,"▁'''B":7011,"ansas":7012,"▁resulting":7013,"igen":7014,"▁bal":7015,"ستون":7016,"▁wound":7017,"AN":7018,"▁قال":7019,"37":7020,"▁Little":7021,"نامج":7022,"ropical":7023,"▁Ell":7024,"ton,":7025,"▁horse":7026,"مس":7027,"CO":7028,"▁إي":7029,"▁tree":7030,"شي":7031,"▁expans":7032,"▁Univers":7033,"گی":7034,"level":7035,"زيز":7036,"▁Holy":7037,"▁ونادي":7038,"▁approach":7039,"o's":7040,"iat":7041,"pedition":7042,"▁grew":7043,"▁stra":7044,"ماعة":7045,"▁تُ":7046,"▁request":7047,"▁Fall":7048,"▁question":7049,"▁Child":7050,"▁labor":7051,"اقة":7052,"▁Atlantic":7053,"▁roll":7054,"39":7055,"▁agreed":7056,"تمع":7057,"achus":7058,"▁Ash":7059,"▁قص":7060,"overs":7061,"▁Nic":7062,"▁Chin":7063,"▁(أ":7064,"▁مك":7065,"ée":7066,"▁Argent":7067,"ard,":7068,"ولي":7069,"▁winter":7070,"▁هـ":7071,"▁2008.":7072,"▁historic":7073,"▁4.":7074,"▁honor":7075,"▁Modern":7076,"▁decor":7077,"▁represented":7078,"▁notable":7079,"▁Die":7080,"▁oldest":7081,"met":7082,"▁Cop":7083,"vey":7084,"کر":7085,"▁Brook":7086,"▁Lar":7087,"ism,":7088,"▁vehicle":7089,"▁behav":7090,"yan":7091,"▁operation":7092,"▁العراق":7093,"▁wing":7094,"جن":7095,"▁2012.":7096,"عادة":7097,"▁الأش":7098,"▁Som":7099,"فن":7100,"▁(t":7101,"4),":7102,"▁Light":7103,"uls":7104,"▁شر":7105,"▁Ca":7106,"▁Show":7107,"فض":7108,"▁slight":7109,"▁هست":7110,"▁عدة":7111,"▁التص":7112,"-E":7113,"▁Fe":7114,"الح":7115,"▁stock":7116,":'''":7117,"▁Route":7118,"▁Organ":7119,"▁rid":7120,"▁300":7121,"▁municipality":7122,"▁177":7123,"D.":7124,"▁elements":7125,"▁جد":7126,"▁extra":7127,"▁Fair":7128,"وذ":7129,"▁officers":7130,"▁المه":7131,"▁المنطقة":7132,"▁\"d":7133,"▁miles":7134,"▁enter":7135,"▁mom":7136,"nel":7137,"باد":7138,"▁Lee":7139,"▁(d.":7140,"▁songs":7141,"▁studied":7142,"▁appearance":7143,"hew":7144,"▁Project":7145,"y's":7146,"▁shoot":7147,"▁categ":7148,"▁actually":7149,"▁Queens":7150,"▁Mov":7151,"▁Abb":7152,"umed":7153,"eral":7154,"▁70":7155,"▁Blue":7156,"▁ec":7157,"▁12,":7158,"▁implement":7159,"▁والإ":7160,"▁الطب":7161,"▁أكبر":7162,"etball":7163,"▁Lady":7164,"▁Cambridge":7165,"▁Hong":7166,"▁Human":7167,");":7168,"▁suffered":7169,"mas":7170,"ali":7171,"▁su":7172,"▁الأخرى":7173,"▁thr":7174,"ki":7175,"▁نها":7176,"▁نظام":7177,"▁pet":7178,"▁Early":7179,"▁identified":7180,"▁Scottish":7181,"▁Bob":7182,"▁التش":7183,"▁End":7184,"▁ولاية":7185,"no":7186,"▁ترك":7187,"ora":7188,"▁pit":7189,"عرف":7190,"▁uns":7191,"▁Johnson":7192,"rovers":7193,"▁serious":7194,"▁fully":7195,"يار":7196,"زا":7197,"▁Boston":7198,"BS":7199,"▁Ohio":7200,"▁التن":7201,"ضر":7202,"▁Alf":7203,"t,":7204,"opher":7205,"دمة":7206,"ه‌ای":7207,"▁x":7208,"▁7,":7209,"95":7210,"▁العربي":7211,"vis":7212,"▁Conference":7213,"▁Indust":7214,"▁Ke":7215,"oured":7216,"▁studio":7217,"كتش":7218,"▁Cub":7219,"ينغ":7220,"▁selected":7221,"▁Olympic":7222,"▁Good":7223,"ريقة":7224,"unte":7225,"▁2013.":7226,"نع":7227,"bit":7228,"▁writer":7229,"▁بق":7230,"▁entrance":7231,"▁Independ":7232,"▁roof":7233,"▁الثق":7234,"زر":7235,"▁world.":7236,"▁poll":7237,"▁levels":7238,"ila":7239,"▁Carolina":7240,"▁الشمال":7241,"▁\"f":7242,"▁والذي":7243,"▁Victoria":7244,"▁rot":7245,"▁Because":7246,"▁W.":7247,"▁conditions":7248,"rawn":7249,"iced":7250,"▁Ford":7251,"▁IV":7252,"aft":7253,"▁dog":7254,"orning":7255,"',":7256,"MS":7257,"▁بب":7258,"▁individuals":7259,"▁Republican":7260,"FL":7261,"▁2007.":7262,"▁أل":7263,"▁overs":7264,"CC":7265,"▁Sev":7266,"sen":7267,"▁completely":7268,"گاه":7269,"▁coal":7270,"z,":7271,"▁mal":7272,"▁buried":7273,"▁Sa":7274,"▁أصل":7275,"▁إقليم":7276,"ips":7277,"▁capacity":7278,"▁propos":7279,"▁day,":7280,"▁يبلغ":7281,"▁necessary":7282,"▁Ste":7283,"grad":7284,"رام":7285,"▁scholar":7286,"▁Islands":7287,"ieval":7288,"▁ox":7289,"▁hy":7290,"▁protection":7291,"▁1945":7292,"▁2006.":7293,"▁paid":7294,"▁suggested":7295,"▁مار":7296,"هاز":7297,"قى":7298,"ورك":7299,"▁Open":7300,"▁البل":7301,"▁Fire":7302,"▁column":7303,"▁scored":7304,"▁squadron":7305,"▁Each":7306,"▁Jeff":7307,"▁growing":7308,"\"،":7309,"▁serving":7310,"▁Report":7311,"▁visited":7312,"▁Captain":7313,"▁أص":7314,"▁18th":7315,"rm":7316,"▁paper":7317,"▁syn":7318,"▁التاريخ":7319,"▁1980":7320,"▁Orig":7321,"▁cannot":7322,"طلق":7323,"iplom":7324,"inem":7325,"▁fix":7326,"▁حين":7327,"▁expected":7328,"-18":7329,"ضا":7330,"hens":7331,"▁oppos":7332,"▁Song":7333,"▁actor":7334,"▁حزب":7335,"fall":7336,"▁الثامنة":7337,"ela":7338,"66":7339,"yt":7340,"▁meant":7341,"▁(194":7342,"▁R.":7343,"▁mentioned":7344,"شار":7345,"▁moving":7346,"کن":7347,"▁الصح":7348,"ja":7349,"▁Web":7350,"▁اليمن":7351,"▁connected":7352,"▁adult":7353,"▁Volume":7354,"rect":7355,"▁officer":7356,"ستخدام":7357,"▁لب":7358,"'''''":7359,"▁إحدى":7360,"34":7361,"▁الحدي":7362,"'re":7363,"▁score":7364,"▁‘":7365,"▁Transport":7366,"▁Mir":7367,"▁providing":7368,"ent,":7369,"▁nation":7370,"-century":7371,"▁cases":7372,"▁Point":7373,"in.":7374,"▁CE":7375,"▁seek":7376,"▁allowing":7377,"▁H.":7378,"asty":7379,"▁عبر":7380,"▁Massachus":7381,"▁إم":7382,"▁Michigan":7383,"les.":7384,"سلسل":7385,"▁عضو":7386,"▁والح":7387,"▁something":7388,"▁Beach":7389,"▁بيت":7390,"▁Philadelph":7391,"▁1988":7392,"▁2014.":7393,"ant,":7394,"ان،":7395,"▁marked":7396,"▁Rog":7397,"▁5.":7398,"issance":7399,"▁gar":7400,"▁Lew":7401,"ive,":7402,"uv":7403,"▁States.":7404,"▁tried":7405,"▁Way":7406,"inger":7407,"▁search":7408,"▁spring":7409,"▁occupied":7410,"▁experiment":7411,"▁Vi":7412,"▁however":7413,"▁Home":7414,"▁silver":7415,"hich":7416,"▁عليها":7417,"▁Ger":7418,"▁showed":7419,"▁Rod":7420,"كار":7421,"▁Coll":7422,"▁Pier":7423,"-N":7424,"▁Power":7425,"▁وتم":7426,"▁register":7427,"▁Maria":7428,"▁minutes":7429,"▁London,":7430,"ات،":7431,"▁accident":7432,"▁الخط":7433,"aling":7434,"St":7435,"▁ارت":7436,"ava":7437,"▁existing":7438,"amily":7439,"▁pra":7440,"▁combined":7441,"▁drug":7442,"▁1900":7443,"▁Historical":7444,"enz":7445,"▁دیگر":7446,"شم":7447,"▁موا":7448,"▁18,":7449,"▁Mr.":7450,"▁Jon":7451,"وما":7452,"▁Angl":7453,"▁Program":7454,"oln":7455,"▁airport":7456,"riz":7457,"▁Clark":7458,"▁exhibition":7459,"▁authorities":7460,"▁citizens":7461,"ients":7462,"▁Dam":7463,"▁correspond":7464,"▁1919":7465,"▁الأص":7466,"وجه":7467,"▁Temple":7468,"▁nob":7469,"aug":7470,"▁tourn":7471,"eding":7472,"يفة":7473,"38":7474,"pet":7475,"rie":7476,"▁Polit":7477,"علومات":7478,"▁Pu":7479,"unction":7480,"▁stations":7481,"الد":7482,"▁nuclear":7483,"uct":7484,"▁recently":7485,"▁Highway":7486,"▁prof":7487,"▁بني":7488,"▁ولي":7489,"▁bul":7490,"ko":7491,"▁height":7492,"▁showing":7493,"▁glass":7494,"▁fleet":7495,"▁بينما":7496,"▁occasion":7497,"▁municipal":7498,"ic,":7499,"▁بول":7500,"▁combat":7501,"▁Earl":7502,"ache":7503,"▁كأس":7504,"▁arms":7505,"CA":7506,"onna":7507,"▁distance":7508,"▁Among":7509,"▁Ak":7510,"▁saying":7511,"▁90":7512,"▁E.":7513,"▁Aff":7514,"▁(K":7515,"is''":7516,"▁facility":7517,"▁institution":7518,"67":7519,"imal":7520,"onia":7521,"▁habit":7522,"▁Several":7523,"▁8,":7524,"▁restaur":7525,"▁technology":7526,"جمع":7527,"▁concert":7528,"▁يست":7529,"▁Review":7530,"يلم":7531,"▁organized":7532,"▁2015.":7533,"▁mm":7534,"▁بما":7535,"han":7536,"▁deploy":7537,"▁11,":7538,"▁area,":7539,"essed":7540,"▁Emperor":7541,"▁issues":7542,"▁purpose":7543,"▁older":7544,"▁10,":7545,"▁models":7546,"ie,":7547,"▁garden":7548,"▁بلغ":7549,"▁places":7550,"▁literature":7551,"▁Arthur":7552,"▁records":7553,"▁machine":7554,"▁guitar":7555,"اهد":7556,"▁Jews":7557,"▁\"w":7558,"▁2004,":7559,"▁Age":7560,"راب":7561,"▁Han":7562,"▁recomm":7563,"ثافة":7564,"cluding":7565,"▁fair":7566,"▁stor":7567,"▁him,":7568,"▁equipment":7569,"▁earli":7570,"ology,":7571,"▁psych":7572,"انا":7573,"▁Nations":7574,"▁efforts":7575,"▁load":7576,"▁alt":7577,"aver":7578,"▁expanded":7579,"▁Bang":7580,"▁Band":7581,"▁mess":7582,"▁favor":7583,"iling":7584,"ologist":7585,"▁extensive":7586,"زام":7587,"▁Dun":7588,"▁همه":7589,"▁الموا":7590,"▁laws":7591,"ker":7592,"▁العالمية":7593,"▁launch":7594,"▁الألم":7595,"▁Harris":7596,"▁task":7597,"▁effects":7598,"▁figures":7599,"▁applied":7600,"لات":7601,"▁Director":7602,"▁داد":7603,"▁contribut":7604,"hr":7605,"▁تضم":7606,"▁treatment":7607,"▁politician":7608,"ربعة":7609,"aka":7610,"▁matter":7611,"aven":7612,"▁الأسر":7613,"▁الحم":7614,"▁Mas":7615,"itzer":7616,"▁purs":7617,"▁قسم":7618,"▁Square":7619,"RA":7620,"ii":7621,"▁computer":7622,"▁Marsh":7623,"يادة":7624,"▁problems":7625,"▁Well":7626,"▁decre":7627,"aining":7628,"▁knowledge":7629,"▁offers":7630,"▁لمد":7631,"سته":7632,"ابت":7633,"▁symbol":7634,"شد":7635,"▁Ottoman":7636,"68":7637,"place":7638,"▁1970":7639,"▁حجم":7640,"hing":7641,"▁incident":7642,"lan":7643,"lines":7644,"▁addition,":7645,"▁damage":7646,"▁D.":7647,"▁Vietnam":7648,"خوا":7649,"▁shall":7650,"▁للح":7651,"pass":7652,"▁converted":7653,"زال":7654,"▁granted":7655,"▁فرنسا":7656,"rence":7657,"▁اح":7658,"ics,":7659,"▁Jackson":7660,"orb":7661,"▁debut":7662,"▁Infantry":7663,"▁secret":7664,"ownt":7665,"▁العلمي":7666,"▁شمال":7667,"▁pun":7668,"worth":7669,"IA":7670,"▁sac":7671,"▁Stand":7672,"uilt":7673,"▁Cas":7674,"rum":7675,"agu":7676,"irmed":7677,"▁''Ch":7678,"▁Vol.":7679,"یت":7680,"ables":7681,"▁controvers":7682,"rec":7683,"▁(for":7684,"▁Sher":7685,"▁الجن":7686,"▁Es":7687,"▁allows":7688,"▁assigned":7689,"orph":7690,"osa":7691,"▁Ray":7692,"▁صف":7693,"▁unique":7694,"▁coming":7695,"▁Williams":7696,"▁median":7697,"▁می‌کرد":7698,"olved":7699,"▁products":7700,"▁كون":7701,"▁علا":7702,"▁34":7703,"گه":7704,"icy":7705,"غر":7706,"▁trains":7707,"onym":7708,"▁measure":7709,"▁spect":7710,"▁Hal":7711,"▁cart":7712,"▁programs":7713,"iable":7714,"isted":7715,"▁لق":7716,"outheast":7717,"▁Tay":7718,"▁gained":7719,"ركات":7720,"ines,":7721,"joy":7722,"-sh":7723,"odox":7724,"بدأ":7725,"▁(n":7726,"▁چیز":7727,"acc":7728,"▁الدولية":7729,"etts":7730,"▁contemporary":7731,"▁bill":7732,"▁Bab":7733,"▁15,":7734,"▁Top":7735,"▁comes":7736,"-J":7737,"▁newly":7738,"▁simply":7739,"▁Bishop":7740,"▁الخامسة":7741,"▁1986":7742,"arp":7743,"▁lot":7744,"iot":7745,"▁touch":7746,"web":7747,"زد":7748,"aria":7749,"▁steel":7750,"▁150":7751,"erse":7752,"▁شب":7753,"شاء":7754,"ipe":7755,"▁rout":7756,"▁Bol":7757,"▁characters":7758,"▁true":7759,"inity":7760,"itness":7761,"zech":7762,"69":7763,"▁Fle":7764,"▁بك":7765,"lo":7766,"▁1985":7767,"▁distribution":7768,"▁gall":7769,"▁mis":7770,"▁1987":7771,"55":7772,"▁الهند":7773,"ictionary":7774,"▁أهم":7775,"EC":7776,"▁Treat":7777,"▁Community":7778,".com/":7779,"▁عالم":7780,"aret":7781,"▁storm":7782,"▁2019,":7783,"لعاب":7784,"dam":7785,"▁Bad":7786,"In":7787,"omer":7788,"▁day.":7789,"▁Gi":7790,"▁\"b":7791,"▁boat":7792,"78":7793,"ohn":7794,"▁Indones":7795,"▁الشخص":7796,"▁leaders":7797,"▁Us":7798,"▁hydro":7799,"▁Mun":7800,"▁rang":7801,"▁receive":7802,"illy":7803,"▁Time":7804,"▁Francis":7805,"▁singer":7806,".B":7807,"▁senior":7808,"▁اللا":7809,"▁bey":7810,"▁portion":7811,"▁Wars":7812,"▁Cape":7813,"▁أستر":7814,"▁avoid":7815,"iate":7816,"▁activity":7817,"▁sources":7818,"▁(m":7819,"▁.\"":7820,"OS":7821,"ian,":7822,"usion":7823,"▁البريط":7824,"▁Space":7825,"▁Bh":7826,"ولد":7827,"▁accepted":7828,"▁designated":7829,"▁Ba":7830,"ويكبات":7831,"ثلة":7832,"▁passenger":7833,"▁Inst":7834,"▁''St":7835,"▁becomes":7836,"▁Naval":7837,"▁mind":7838,"▁voice":7839,"خذ":7840,"▁Kir":7841,"scape":7842,"▁24,":7843,"▁ven":7844,"▁منتخب":7845,"▁Armen":7846,"▁الحكومة":7847,"اته":7848,"class":7849,"▁قب":7850,"▁pilot":7851,"▁العامة":7852,"zy":7853,"▁14,":7854,"▁basic":7855,"writ":7856,"▁Palace":7857,"-pro":7858,"▁\"m":7859,"ارب":7860,"akh":7861,"▁Heritage":7862,"ibb":7863,"ima":7864,"▁locomot":7865,"▁shape":7866,"ogen":7867,"ivity":7868,"▁واحدة":7869,"''),":7870,"▁yellow":7871,"ence.":7872,"col":7873,"▁باز":7874,"▁society":7875,"▁frequently":7876,"▁beaut":7877,"ــ":7878,"▁الجيش":7879,"▁life.":7880,"▁beyond":7881,"نف":7882,"▁install":7883,"▁Pass":7884,"▁Jones":7885,"▁scientific":7886,"شرين":7887,"▁sun":7888,"▁'''P":7889,"▁situated":7890,"▁tow":7891,"▁Tenn":7892,"-8":7893,"وروبا":7894,"▁Test":7895,"as.":7896,"hol":7897,"▁Columbia":7898,"▁1984":7899,"▁عب":7900,"▁narrow":7901,"▁hands":7902,"▁Imperial":7903,"▁interior":7904,"▁عل":7905,"▁Palest":7906,"▁خان":7907,"▁نحو":7908,"ifying":7909,"ياه":7910,"▁join":7911,"▁Game":7912,"–200":7913,"▁countri":7914,"olished":7915,"pri":7916,"▁fifth":7917,"▁door":7918,"▁عاماً":7919,"ternet":7920,"chestra":7921,"▁4th":7922,"▁Feder":7923,"ahn":7924,"▁disease":7925,"▁survey":7926,"▁Balt":7927,"▁وفق":7928,"▁إيران":7929,"▁Supreme":7930,"-201":7931,"▁words":7932,"rete":7933,"▁خوب":7934,"▁32":7935,"▁recognized":7936,"▁leadership":7937,"شروع":7938,"▁editor":7939,"▁ذكر":7940,"برت":7941,"incoln":7942,"▁hill":7943,"iel":7944,"▁sexual":7945,"ونية":7946,"izes":7947,"▁CD":7948,"▁retired":7949,"▁Barb":7950,"mouth":7951,"▁Stephen":7952,"▁About":7953,"ريت":7954,"▁Tai":7955,"▁Marg":7956,"▁advant":7957,"▁administration":7958,"ureau":7959,"▁Corporation":7960,"▁Sus":7961,"اری":7962,"claim":7963,"▁وغير":7964,"ancy":7965,"▁هن":7966,"▁Marine":7967,"▁Les":7968,"eget":7969,"جات":7970,"▁preserv":7971,"▁da":7972,"▁Hu":7973,"▁Pope":7974,"▁روز":7975,"▁Hay":7976,"▁simple":7977,"▁Dec":7978,"os,":7979,"▁بطولة":7980,"▁bow":7981,"▁dial":7982,"▁ast":7983,"cow":7984,"▁أبي":7985,"▁estate":7986,"ensity":7987,"idae":7988,"▁bor":7989,"▁batter":7990,"one,":7991,"▁Foundation":7992,"▁عملية":7993,"sch":7994,"▁تف":7995,"36":7996,"▁Justice":7997,"▁revealed":7998,"▁للع":7999,"▁alongside":8000,"osh":8001,"▁9,":8002,"▁census":8003,"▁Pap":8004,"▁govern":8005,"▁creation":8006,"▁newspaper":8007,"inate":8008,"▁system.":8009,"▁ألمانيا":8010,"▁Stadium":8011,"▁بو":8012,"IN":8013,"▁(and":8014,"ye":8015,"▁drive":8016,"▁Toront":8017,"▁weeks":8018,"▁B.":8019,"▁rein":8020,"▁tower":8021,"cles":8022,"قيقة":8023,"▁13,":8024,"▁Brad":8025,"▁inhabit":8026,"▁حصل":8027,"▁Lt":8028,"▁Georgia":8029,"ockey":8030,"▁bought":8031,"IC":8032,"gn":8033,"▁مُ":8034,"iar":8035,"▁negot":8036,"▁وط":8037,"wick":8038,"▁die":8039,"wa":8040,"ager":8041,"ographer":8042,"ressive":8043,"ré":8044,"▁(with":8045,"▁أعمال":8046,"9),":8047,"ubb":8048,"▁Administ":8049,"▁address":8050,"igration":8051,"▁لكل":8052,"ira":8053,"▁شي":8054,"انی":8055,"iner":8056,"inder":8057,"▁weather":8058,"una":8059,"▁المنت":8060,"▁Mr":8061,"▁crim":8062,"-spe":8063,"قاً":8064,"usal":8065,"▁defin":8066,"▁deliver":8067,"44":8068,"▁seg":8069,"▁Anth":8070,"▁monument":8071,"pton":8072,"▁Conc":8073,"emetery":8074,"▁tend":8075,"▁conclud":8076,"▁piece":8077,"▁nam":8078,"▁tor":8079,"▁2016.":8080,"▁contrast":8081,"▁Ken":8082,"-10":8083,"▁كبيرة":8084,"▁powerful":8085,"وء":8086,"haps":8087,"زيل":8088,"▁Building":8089,"▁حل":8090,"▁memory":8091,"▁دم":8092,"▁people,":8093,"▁Sydney":8094,"▁فترة":8095,"lig":8096,"▁Czech":8097,"77":8098,"rav":8099,"ليف":8100,"▁Inc":8101,"▁شهر":8102,"▁rough":8103,"▁العائل":8104,"thodox":8105,"▁Foreign":8106,"▁Ok":8107,"▁Magazine":8108,"uese":8109,"▁Through":8110,"▁doub":8111,"▁نشر":8112,"▁وبعد":8113,"▁Tar":8114,"ه‌ی":8115,"▁2000,":8116,"▁sense":8117,"▁stream":8118,"▁wheel":8119,"▁carry":8120,"ائي":8121,"▁States,":8122,"▁basis":8123,"elle":8124,"▁Id":8125,"org/":8126,"▁نت":8127,"عيد":8128,"ile,":8129,"▁گفت:":8130,"▁Architect":8131,"▁Sav":8132,"phas":8133,"▁Tal":8134,"▁400":8135,"▁الدرا":8136,"▁Illino":8137,"▁Lieutenant":8138,"uther":8139,"▁أثناء":8140,"وند":8141,"▁guard":8142,"▁quite":8143,"▁fighting":8144,"32":8145,"▁alone":8146,"''')":8147,"▁Dor":8148,"▁opposition":8149,"▁window":8150,"▁Province":8151,"TV":8152,"▁etc.":8153,"▁workers":8154,"▁الثالث":8155,"ulate":8156,"rowd":8157,"▁societ":8158,"ite,":8159,"▁bask":8160,"▁fellow":8161,"▁Master":8162,"▁عز":8163,"▁aspect":8164,"▁المغربية":8165,"ronze":8166,"elligence":8167,"ines.":8168,"▁Plan":8169,"▁mur":8170,"owntown":8171,"▁شارك":8172,"▁الكتاب":8173,"▁twenty":8174,"▁العرب":8175,"rot":8176,"▁Frederick":8177,"▁الاحت":8178,"TA":8179,"▁25,":8180,"▁Vis":8181,"اما":8182,"▁(now":8183,"etting":8184,"▁أمريكية":8185,"▁spot":8186,"هيم":8187,"▁IS":8188,"▁theatre":8189,"▁Swedish":8190,"▁Confeder":8191,"▁الحد":8192,"▁says":8193,"▁الحر":8194,"▁County,":8195,"ighth":8196,"▁cong":8197,"▁sle":8198,"▁attention":8199,"علام":8200,"▁سنوات":8201,"ورن":8202,"▁formation":8203,"kins":8204,"▁sites":8205,"▁enjoy":8206,"▁فما":8207,"▁featuring":8208,"▁(ت":8209,"▁this,":8210,"▁الآن":8211,"▁kil":8212,"▁جهة":8213,"uild":8214,"سيس":8215,"▁plants":8216,"▁Even":8217,"▁Area":8218,"ception":8219,"▁cru":8220,"▁critical":8221,"▁إسب":8222,"▁youth":8223,"▁Baron":8224,"▁Golden":8225,"▁(V":8226,"his":8227,"▁Nav":8228,"▁creating":8229,"▁الإحصاء":8230,"▁Free":8231,"▁الدم":8232,"▁Assembly":8233,"▁dang":8234,"▁ونسبة":8235,"▁revolution":8236,"▁poly":8237,"▁prepar":8238,"▁AD":8239,"▁dism":8240,"▁expansion":8241,"▁painted":8242,"aux":8243,"▁tournament":8244,"▁Before":8245,"▁headquarters":8246,"▁طب":8247,"Ar":8248,"▁mut":8249,"▁Ho":8250,"ضي":8251,"▁Daniel":8252,"▁channel":8253,"▁Marc":8254,"▁cat":8255,"▁distingu":8256,"erto":8257,"inburgh":8258,"▁(4":8259,"31":8260,"▁جائزة":8261,"rip":8262,"▁maximum":8263,"▁1982":8264,"▁1968":8265,"▁domestic":8266,"▁rise":8267,"▁why":8268,"رفة":8269,"▁tail":8270,"▁reference":8271,"▁عرض":8272,"▁convers":8273,"▁فيما":8274,"▁attempted":8275,"▁vehicles":8276,"▁films":8277,"▁Lev":8278,"باط":8279,"an's":8280,"رائيل":8281,"هـ":8282,"▁كال":8283,"ge,":8284,"▁conqu":8285,"▁victim":8286,"اول":8287,"▁Forces":8288,"▁settled":8289,"غط":8290,"ary,":8291,"▁Spring":8292,"▁Win":8293,"▁reject":8294,"▁Walk":8295,"▁wealth":8296,"▁gives":8297,"قرا":8298,"اسم":8299,"▁onto":8300,"هاب":8301,"ابعة":8302,"▁يوجد":8303,"▁advanced":8304,"▁extrem":8305,"itter":8306,")'''":8307,"▁compar":8308,"▁Massachusetts":8309,"lyn":8310,"ید.":8311,"▁1983":8312,"▁36":8313,"ga":8314,"▁Gh":8315,"▁Jr.":8316,"▁rob":8317,"▁Color":8318,"zen":8319,"▁Circ":8320,"▁Due":8321,"▁them,":8322,"▁الفترة":8323,"ورج":8324,"و.":8325,"ante":8326,"▁strength":8327,"▁Lincoln":8328,"ريا":8329,"▁respond":8330,"osen":8331,"▁drum":8332,"حديد":8333,"▁academic":8334,"▁connection":8335,"▁Between":8336,"▁16,":8337,"ذكر":8338,"▁lake":8339,"▁drink":8340,"unnel":8341,"vin":8342,"▁1960":8343,"▁lies":8344,"oms":8345,"▁dim":8346,"▁manager":8347,"▁القط":8348,"▁people.":8349,"wich":8350,"▁Dougl":8351,"▁Ball":8352,"cycloped":8353,"▁attacked":8354,"▁permanent":8355,"ille,":8356,"فاق":8357,"▁global":8358,"TC":8359,"je":8360,"▁emerg":8361,"▁النم":8362,"غيرة":8363,"▁apparent":8364,"▁toward":8365,"▁لسنة":8366,"▁أجل":8367,"▁volume":8368,"▁analysis":8369,"oven":8370,"▁factory":8371,"ريس":8372,"▁Ah":8373,"▁camer":8374,"▁طول":8375,"▁1979":8376,"▁application":8377,"▁2003,":8378,"▁aid":8379,"ia''":8380,"▁spons":8381,"▁1981":8382,"▁Prem":8383,"▁العلاقات":8384,"▁Bat":8385,"▁ولدت":8386,"▁Native":8387,"acent":8388,"▁exchange":8389,"▁vent":8390,"▁merch":8391,"clos":8392,"▁Studies":8393,"100":8394,"▁opposed":8395,"%D9%":8396,"▁limit":8397,"▁steam":8398,"▁recording":8399,"▁sym":8400,"▁1967":8401,"▁Senate":8402,"▁refused":8403,"▁Ont":8404,"▁1972":8405,"▁Moscow":8406,"▁Author":8407,"ينات":8408,"III":8409,"▁''New":8410,"htm":8411,"▁العسك":8412,"▁متوسط":8413,"▁Leon":8414,"▁(190":8415,"▁content":8416,"كتشاف":8417,"▁mixed":8418,"▁38":8419,"▁strugg":8420,"▁1975":8421,"▁الوسط":8422,"▁techniqu":8423,"ancing":8424,"▁Jacob":8425,"▁Stock":8426,"▁اللغة":8427,"▁الولوج":8428,"▁دولار":8429,"▁secondary":8430,"▁nort":8431,"▁Gree":8432,"رسة":8433,"▁diplom":8434,"نی":8435,"▁background":8436,"▁7.":8437,"▁Kal":8438,"98":8439,"▁pair":8440,"▁Records":8441,"▁reflect":8442,"onents":8443,"▁san":8444,"صور":8445,"raction":8446,"▁unknown":8447,"▁York,":8448,"mad":8449,"ishes":8450,"▁هی":8451,"▁Awards":8452,"onald":8453,"organ":8454,"ques":8455,"▁واست":8456,"▁حر":8457,"▁نيو":8458,"▁Mexican":8459,"▁Portuguese":8460,"▁NY":8461,"▁structures":8462,"▁(which":8463,"▁الأز":8464,"▁البط":8465,"▁تون":8466,"▁\"t":8467,"▁Var":8468,"▁Prize":8469,"▁thick":8470,"▁protest":8471,"▁draft":8472,"▁افت":8473,"▁regions":8474,"▁1944":8475,"▁Front":8476,"▁بات":8477,"یده":8478,"▁governor":8479,"▁Medical":8480,"مي":8481,"▁neighborhood":8482,"icine":8483,"ism.":8484,"▁country.":8485,"▁Six":8486,"▁straight":8487,"ID":8488,"هم.":8489,"▁Korean":8490,"antine":8491,"▁Ast":8492,"▁وضع":8493,"▁Night":8494,"▁Constitution":8495,"▁attacks":8496,"▁قدر":8497,"▁الوز":8498,"▁Gil":8499,"▁بالأ":8500,"▁\"''":8501,"▁Eth":8502,"▁بالإضافة":8503,"▁women's":8504,"▁Business":8505,"▁ethnic":8506,"▁begin":8507,"▁internal":8508,"▁reduce":8509,"▁Cab":8510,"char":8511,"car":8512,"▁diam":8513,"ryst":8514,"▁أوروبا":8515,"ova":8516,"enh":8517,"ظمات":8518,"▁virt":8519,"▁castle":8520,"▁Further":8521,"▁ميل":8522,"▁17th":8523,"▁الخارج":8524,"▁housing":8525,"▁USA":8526,"لين":8527,"▁الأوروب":8528,"▁dry":8529,"net":8530,"48":8531,"▁Represent":8532,"ربة":8533,"▁كه":8534,"▁fer":8535,"load":8536,"ors,":8537,"▁servic":8538,"▁Trust":8539,"▁rural":8540,"-K":8541,"▁advert":8542,"▁things":8543,"▁detect":8544,"▁Mic":8545,"allel":8546,"▁dance":8547,"%D8%A":8548,"▁cond":8549,"olas":8550,"▁earliest":8551,"–2":8552,"▁prefer":8553,"▁believe":8554,"▁Summer":8555,"▁Technology":8556,"eller":8557,"▁المسي":8558,"▁aer":8559,"▁1974":8560,"▁broke":8561,"▁chemical":8562,"▁ere":8563,"▁بگ":8564,"▁رفت":8565,"زيد":8566,"▁(مواليد":8567,"▁17,":8568,"▁Games":8569,"▁181":8570,"▁strateg":8571,"▁holding":8572,"aza":8573,"▁laid":8574,"▁فيلم":8575,"▁digital":8576,"▁claims":8577,"▁MP":8578,"▁speech":8579,"▁elim":8580,"▁continues":8581,"▁experien":8582,"▁shell":8583,"udget":8584,"كال":8585,"▁الرغم":8586,"▁L.":8587,"▁positive":8588,"▁respectively":8589,"▁resc":8590,"oat":8591,"وبة":8592,"uled":8593,"▁20,":8594,"-7":8595,"▁معظم":8596,"▁أر":8597,"▁سط":8598,"▁purpos":8599,"اهرة":8600,"▁materials":8601,"▁الدوري":8602,"شق":8603,"▁emphas":8604,"▁architecture":8605,"ervative":8606,"ía":8607,"▁Bon":8608,"ليا":8609,"حف":8610,"▁Bureau":8611,"▁6.":8612,"ند،":8613,"ifically":8614,"▁fought":8615,"ption":8616,"▁Brigade":8617,"جال":8618,"▁walls":8619,"▁Ltd":8620,"enge":8621,"▁آل":8622,"▁entry":8623,"▁cho":8624,"تون":8625,"47":8626,"pret":8627,"▁1973":8628,"▁constitution":8629,"▁inspired":8630,"bro":8631,"▁influenced":8632,"▁slightly":8633,"▁subsequent":8634,"▁Ts":8635,"hu":8636,"▁Wilson":8637,"▁acid":8638,"olt":8639,"▁Garden":8640,"▁خی":8641,"rade":8642,"▁valley":8643,"ban":8644,"▁plays":8645,"▁المرك":8646,"▁Su":8647,"▁eld":8648,"▁effective":8649,"-old":8650,"▁confirmed":8651,"ashion":8652,"▁ax":8653,"iversary":8654,"ages.":8655,"▁vote":8656,"▁photograph":8657,"▁Ontario":8658,"▁war,":8659,"▁Greece":8660,"▁ru":8661,"amic":8662,"▁الوطنية":8663,"▁الناس":8664,"▁بريطاني":8665,"▁NAS":8666,"OR":8667,"▁Short":8668,"▁scene":8669,"▁السن":8670,"▁منه":8671,"▁serves":8672,"▁الياب":8673,"ji":8674,"▁cold":8675,"▁\"p":8676,"ulty":8677,"▁flying":8678,"▁l'":8679,"▁safety":8680,"▁1976":8681,"▁Greg":8682,"ommod":8683,"▁normal":8684,"▁hotel":8685,"PS":8686,"rations":8687,"▁relations":8688,"▁Week":8689,"▁participated":8690,"▁Der":8691,"ريات":8692,"▁approved":8693,"▁sought":8694,"▁founder":8695,"▁37":8696,"▁روی":8697,"▁الترك":8698,"rik":8699,"▁exclus":8700,"▁القانون":8701,"▁ند":8702,"PA":8703,"▁Love":8704,"▁conference":8705,"▁القوات":8706,"agen":8707,"s/":8708,"itled":8709,"▁convent":8710,"▁manufactur":8711,"▁التعليم":8712,"▁Raj":8713,"▁Like":8714,"▁سياسي":8715,"▁carbon":8716,"atures":8717,"bourne":8718,"▁defense":8719,"▁heat":8720,"illing":8721,"▁defeat":8722,"▁historian":8723,"▁contest":8724,"▁agricultural":8725,"▁philosoph":8726,"▁Ocean":8727,"us.":8728,"▁Lead":8729,"▁Bos":8730,"▁containing":8731,"▁للا":8732,"▁Philadelphia":8733,"▁وما":8734,"97":8735,"opter":8736,"▁corpor":8737,"▁Design":8738,"▁Cathedral":8739,"▁جن":8740,"▁العمر":8741,"اصمة":8742,"da":8743,"▁است.":8744,"▁Network":8745,"▁Tok":8746,"▁harm":8747,"▁النبات":8748,"acter":8749,"▁parliament":8750,"▁Trib":8751,"▁Wel":8752,"▁armed":8753,"▁hero":8754,"▁Nich":8755,"▁tall":8756,"▁'''أ":8757,"▁والن":8758,"▁للسكان":8759,"▁unable":8760,"عضاء":8761,"وين":8762,"ão":8763,"▁Fox":8764,"ages,":8765,"iary":8766,"%D8%A7":8767,"▁lives":8768,"نيسة":8769,"▁السل":8770,"▁1978":8771,"▁تب":8772,"▁reports":8773,"uate":8774,"▁المخ":8775,"▁2017.":8776,"▁Harry":8777,"▁182":8778,"▁22,":8779,"anning":8780,"▁21,":8781,"osaur":8782,"▁era":8783,"▁daily":8784,"▁Turkish":8785,"▁Lo":8786,"antly":8787,"-6":8788,"▁wa":8789,"▁(بال":8790,"▁officials":8791,"▁liv":8792,"▁المل":8793,"▁sevent":8794,"cription":8795,"▁Walter":8796,"▁sales":8797,"▁Dal":8798,"▁Let":8799,"▁flat":8800,"▁promoted":8801,"▁Rem":8802,"▁Alexand":8803,"aine":8804,"▁naval":8805,"▁hosted":8806,"▁Norway":8807,"▁movie":8808,"▁كر":8809,"▁sust":8810,"▁الموقع":8811,"▁portray":8812,"▁كانوا":8813,"▁الحزب":8814,"▁installed":8815,"▁murder":8816,"▁1969":8817,"miral":8818,"▁trav":8819,"▁1942":8820,"/0":8821,"▁مليون":8822,"▁sides":8823,"▁flu":8824,"ester":8825,"▁York:":8826,"MA":8827,"▁Pot":8828,"هن":8829,"▁trail":8830,"▁Addition":8831,"▁Security":8832,"▁Americans":8833,"دف":8834,"phy":8835,"▁Gard":8836,"▁pull":8837,"▁2020":8838,"▁F.":8839,"▁formerly":8840,"▁مان":8841,"▁ذلك،":8842,"▁chart":8843,"عى":8844,"▁يؤ":8845,"ase,":8846,"▁provin":8847,"aded":8848,"ikh":8849,"IT":8850,"lywood":8851,"▁fresh":8852,"secut":8853,"▁Now":8854,"▁Sports":8855,"▁heard":8856,"▁Lind":8857,"▁Johann":8858,"irty":8859,"▁اگر":8860,"▁proved":8861,"sect":8862,"▁ولم":8863,"▁adapt":8864,"enna":8865,"▁authority":8866,"▁couple":8867,"▁'''D":8868,"▁hair":8869,"▁الإنسان":8870,"▁1965":8871,"▁nothing":8872,"▁animals":8873,"ON":8874,"▁union":8875,"▁P.":8876,"▁بغ":8877,"rine":8878,"▁commander":8879,"uing":8880,"▁split":8881,"▁Hou":8882,"▁stadium":8883,"pool":8884,"▁residence":8885,"▁السعودية":8886,"ruce":8887,"▁فران":8888,"▁النق":8889,"▁الشعب":8890,"iang":8891,"▁veget":8892,"▁Only":8893,"تمد":8894,"▁بالن":8895,"▁chur":8896,"–201":8897,"▁انضم":8898,"▁1964":8899,"▁really":8900,"▁chain":8901,"▁ped":8902,"▁pages":8903,"▁حس":8904,"▁Islamic":8905,"▁bottom":8906,"▁مبار":8907,"▁1948":8908,"sey":8909,"▁لو":8910,"ographical":8911,"cient":8912,"▁\"J":8913,"▁ألف":8914,"▁خارج":8915,"▁memorial":8916,"يون":8917,"eenth":8918,"anth":8919,"▁أفضل":8920,"▁champion":8921,"iful":8922,"▁1940":8923,"weg":8924,"jo":8925,"▁egg":8926,"▁175":8927,"▁What":8928,"2019":8929,"▁Korea":8930,"▁1971":8931,"ميم":8932,"▁متر":8933,"اهر":8934,"صار":8935,"▁Singap":8936,"incess":8937,"ياس":8938,"▁towns":8939,"▁principal":8940,"ell,":8941,"▁Swiss":8942,"▁colour":8943,"▁watch":8944,"icted":8945,"▁Ker":8946,"▁Cam":8947,"▁Girl":8948,"▁signal":8949,"-200":8950,"خي":8951,"▁الإنج":8952,"▁moment":8953,"▁achieved":8954,"▁Pit":8955,"ونت":8956,"▁folk":8957,"▁corner":8958,"▁Register":8959,"▁introduction":8960,"inian":8961,"▁mil":8962,"-American":8963,"▁heavily":8964,"▁Express":8965,"inth":8966,"▁19,":8967,"sky":8968,"rant":8969,"▁edge":8970,"▁shared":8971,"▁accommod":8972,"▁Sem":8973,"ouri":8974,"▁الظ":8975,"▁Low":8976,"▁30,":8977,"▁Hy":8978,"▁swe":8979,"▁cool":8980,"▁consisted":8981,"▁Ut":8982,"▁dat":8983,"ريقيا":8984,"▁الدا":8985,"▁Collection":8986,"▁professor":8987,"▁beat":8988,"▁trees":8989,"▁enemy":8990,"agan":8991,"▁earned":8992,"▁phase":8993,"ُو":8994,"▁Labor":8995,"appe":8996,"urric":8997,"▁soil":8998,"▁Edinburgh":8999,"▁Israeli":9000,"لمة":9001,"▁اس":9002,"ghan":9003,"▁environmental":9004,"طار":9005,"▁reign":9006,"▁snow":9007,"▁Moh":9008,"▁2001,":9009,"▁well.":9010,"▁تعد":9011,"▁maintained":9012,"inson":9013,"▁ميد":9014,"▁operate":9015,"▁1943":9016,"وست":9017,"▁23,":9018,"▁cris":9019,"▁system,":9020,"▁driver":9021,"▁Netherlands":9022,"▁والش":9023,"▁يک":9024,"unc":9025,"▁typical":9026,"▁Orthodox":9027,"▁Co.":9028,"▁Hans":9029,"▁painter":9030,"ings.":9031,"▁association":9032,"ushed":9033,"▁16th":9034,"▁درجة":9035,"رحلة":9036,"▁exerc":9037,"▁alle":9038,"يج":9039,"82":9040,"حات":9041,"▁2002,":9042,"▁looking":9043,"ated.":9044,"▁2005.":9045,"▁''In":9046,"aph":9047,"▁وبلغ":9048,"▁formal":9049,"inus":9050,"m,":9051,"▁Hart":9052,"▁graph":9053,"▁مرت":9054,"▁بناء":9055,"▁Bou":9056,"▁script":9057,"▁projects":9058,"otic":9059,"▁Railroad":9060,"umin":9061,"▁restored":9062,"▁الشع":9063,"▁1950":9064,"صبحت":9065,"ania":9066,"▁possibly":9067,"▁period,":9068,"▁uniform":9069,"▁Gallery":9070,"▁it's":9071,"▁Son":9072,"▁1977":9073,"وقف":9074,"▁رم":9075,"▁causing":9076,"▁highway":9077,"▁75":9078,"▁(The":9079,"▁co-":9080,"stream":9081,"▁there.":9082,"▁lands":9083,"ئيسي":9084,"▁renov":9085,"▁rich":9086,"▁employed":9087,"▁Base":9088,"▁attached":9089,"▁Joe":9090,"▁obtained":9091,"▁33":9092,"▁substant":9093,"ugby":9094,"n,":9095,"▁Operation":9096,"▁أصبح":9097,"▁parents":9098,"ms":9099,"▁cycl":9100,"ife,":9101,"ión":9102,"▁technical":9103,"▁economy":9104,"▁فع":9105,"ivered":9106,"▁controlled":9107,"▁تل":9108,"▁SS":9109,"▁1966":9110,"real":9111,"▁Ren":9112,"كنى":9113,"▁Census":9114,"▁divers":9115,"set":9116,"▁defined":9117,"▁crown":9118,"ants,":9119,"▁quant":9120,"▁Illinois":9121,"▁مرد":9122,"inals":9123,"▁Minn":9124,"▁5th":9125,"under":9126,"orf":9127,"رز":9128,"▁يجب":9129,"▁compris":9130,"▁إيط":9131,"ونه":9132,"▁archae":9133,"كور":9134,"افت":9135,"▁killing":9136,"raine":9137,"▁erect":9138,"وكب":9139,"wh":9140,"▁hyp":9141,"▁'''N":9142,"▁(5":9143,"▁(15":9144,"▁descript":9145,"iments":9146,"▁1939":9147,"▁solid":9148,"▁guns":9149,"▁reaction":9150,"اغ":9151,"وجود":9152,"▁fly":9153,"▁ليس":9154,"▁Professor":9155,"▁Brother":9156,"واد":9157,"▁administrative":9158,"▁pros":9159,"▁Li":9160,"▁لبن":9161,"حافظة":9162,"▁sty":9163,"▁مهم":9164,"bec":9165,"▁adjacent":9166,"▁28,":9167,"▁Medal":9168,"elve":9169,"race":9170,"IV":9171,"▁regiment":9172,"م،":9173,"▁tele":9174,"king":9175,"lers":9176,"▁ancest":9177,"-th":9178,"▁crowd":9179,"▁Od":9180,"▁expressed":9181,"شن":9182,"iny":9183,"▁G.":9184,"rif":9185,"▁قائمة":9186,"eler":9187,"نيف":9188,"ضط":9189,"▁region.":9190,"▁contained":9191,"▁invasion":9192,"▁شكل":9193,"▁Ty":9194,"oto":9195,"avalry":9196,"sex":9197,"▁nor":9198,"▁'''T":9199,"▁doing":9200,"حا":9201,":00":9202,"▁mort":9203,"▁Guide":9204,"▁Washington,":9205,"▁'''ج":9206,"▁حالة":9207,"▁موس":9208,"igenous":9209,"▁lov":9210,"ba":9211,"▁(as":9212,"▁situation":9213,"▁establishment":9214,"▁اليمنية":9215,"▁alternative":9216,"rell":9217,"▁Staff":9218,"agh":9219,"usalem":9220,"التالي":9221,"جاز":9222,"ِّ":9223,"▁Nob":9224,"▁hors":9225,"▁''An":9226,"▁(193":9227,"\"),":9228,"ومة":9229,"▁Anne":9230,"▁Though":9231,"▁challeng":9232,"▁impl":9233,"▁Oak":9234,"▁1941":9235,"▁الخاصة":9236,"▁'''R":9237,"▁trial":9238,"▁exact":9239,"▁الراب":9240,"▁pup":9241,"▁stories":9242,"▁climb":9243,"▁Management":9244,"▁faith":9245,"▁Leb":9246,"▁succeeded":9247,"▁clean":9248,"▁وأن":9249,"▁commemor":9250,"fully":9251,"▁للش":9252,"▁النها":9253,"▁پس":9254,"▁Queensland":9255,"▁Hamil":9256,"▁Samuel":9257,"ED":9258,"▁الدولي":9259,"▁colonial":9260,"iser":9261,"▁ترت":9262,"pir":9263,"ليين":9264,"▁bed":9265,"▁agg":9266,"▁26,":9267,"▁إذ":9268,"▁captain":9269,"▁versions":9270,"▁الحيو":9271,"▁Ross":9272,"▁Karl":9273,"▁Gulf":9274,"▁Rena":9275,"▁Manchester":9276,"▁encoura":9277,"▁Story":9278,"▁التأ":9279,"▁Da":9280,"ناة":9281,"▁sed":9282,"▁تك":9283,"▁Hard":9284,"▁الكويكبات":9285,"▁نب":9286,"▁Enter":9287,"▁Jesus":9288,"ابقة":9289,"▁Sunday":9290,"96":9291,"▁improved":9292,"▁والسكنى":9293,"▁مجال":9294,"▁Douglas":9295,"▁الإد":9296,"▁opin":9297,"افي":9298,"▁fear":9299,"▁ed.":9300,"▁27,":9301,"▁incorporated":9302,"\").":9303,"▁accompan":9304,"lar":9305,"▁cloth":9306,"▁regarded":9307,"▁audience":9308,"print":9309,"زن":9310,"▁observed":9311,"▁letters":9312,"ثار":9313,"▁مؤس":9314,"ors.":9315,"▁قانون":9316,"▁Nik":9317,"▁rival":9318,"ويد":9319,"▁others.":9320,"-of":9321,"▁cooper":9322,"▁''\"":9323,"▁medal":9324,"itors":9325,"▁النظام":9326,"▁Bah":9327,"angel":9328,"▁الرح":9329,"▁improve":9330,"▁genus":9331,"▁developing":9332,"قه":9333,"atur":9334,"▁notes":9335,"▁''La":9336,"▁executive":9337,"ctic":9338,"US":9339,"▁2018.":9340,"▁لديها":9341,"▁abandoned":9342,"▁DC":9343,"illeg":9344,"▁Gord":9345,"▁Christmas":9346,"▁نهاية":9347,"▁dropped":9348,"کی":9349,"وسيا":9350,"▁doll":9351,"entially":9352,"▁Township":9353,"▁Domin":9354,"▁Hun":9355,"▁generation":9356,"ائلة":9357,"▁Juan":9358,"▁derived":9359,"▁Hand":9360,"▁Kel":9361,"▁commissioned":9362,"▁الأمريكيين":9363,"قص":9364,"▁owner":9365,"▁Trad":9366,"▁ثلاث":9367,"5),":9368,"▁Defense":9369,"▁Dig":9370,"▁Country":9371,"osis":9372,"acu":9373,"▁Malays":9374,"▁railroad":9375,"▁pieces":9376,"▁Berg":9377,"▁Ern":9378,"▁44":9379,"gement":9380,"94":9381,"▁المسا":9382,"▁Regional":9383,")''":9384,"▁advance":9385,"ade,":9386,"▁catal":9387,"▁belief":9388,"▁الكثير":9389,"▁delivered":9390,"▁basketball":9391,"▁city,":9392,"▁'''L":9393,"▁leaves":9394,"▁milit":9395,"▁جزء":9396,"▁refuge":9397,"جاه":9398,"▁chosen":9399,"▁Nar":9400,"▁سال":9401,"yer":9402,"▁Oreg":9403,"ليد":9404,"▁Peace":9405,"▁شار":9406,"date":9407,"هب":9408,"▁taught":9409,"▁degre":9410,"oli":9411,"جار":9412,"▁tell":9413,"▁cert":9414,"▁shortly":9415,"▁regarding":9416,"▁medium":9417,"دمات":9418,"▁turb":9419,"itud":9420,"ائق":9421,"ounds":9422,"▁48":9423,"▁expedition":9424,"▁closely":9425,"E.":9426,"▁friends":9427,"▁work,":9428,"يام":9429,"▁freedom":9430,"▁brick":9431,"roit":9432,"▁refers":9433,"ducing":9434,"▁personnel":9435,"▁city's":9436,"▁mouth":9437,"طلاق":9438,"▁passing":9439,"▁determined":9440,"▁France,":9441,"▁consequ":9442,"▁الإس":9443,"run":9444,"▁فکر":9445,"▁importance":9446,"▁Disc":9447,"▁spok":9448,"▁Ec":9449,"iations":9450,"k,":9451,"▁السكانية":9452,"افية":9453,"▁Kl":9454,"جراء":9455,"▁بص":9456,"▁row":9457,"▁birds":9458,"▁fine":9459,"ami":9460,"▁Austria":9461,"ويكب":9462,"▁software":9463,"uscript":9464,"▁Toronto":9465,"▁world's":9466,"▁parallel":9467,"اركة":9468,"▁\"h":9469,"cyclopedia":9470,"▁defend":9471,"▁أيضاً":9472,"▁Hotel":9473,"new":9474,"ated,":9475,"▁tal":9476,"▁عاد":9477,"hetic":9478,"▁accur":9479,"▁Lewis":9480,"▁إدارة":9481,"▁thousands":9482,"▁Metropolitan":9483,"▁equal":9484,"▁fruit":9485,"راع":9486,"▁regul":9487,"'.":9488,"▁Treaty":9489,"▁mole":9490,"come":9491,"▁النو":9492,"▁مخ":9493,"'ve":9494,"▁التد":9495,"low":9496,"▁said,":9497,"▁lat":9498,"▁entirely":9499,"zz":9500,"▁paintings":9501,"-year-old":9502,"▁Stone":9503,"ructure":9504,"▁نظر":9505,"TS":9506,"ading":9507,"▁vo":9508,"▁تمام":9509,"▁medieval":9510,"▁1963":9511,"▁mathem":9512,"▁mist":9513,"▁ic":9514,"▁تي":9515,"▁Gre":9516,"وام":9517,"▁zone":9518,"▁goals":9519,"aved":9520,"▁Chris":9521,"اريس":9522,"ا،":9523,"▁hop":9524,"▁مرا":9525,"▁passengers":9526,"▁اع":9527,"isf":9528,"-like":9529,"▁1962":9530,"َّة":9531,"▁Place":9532,"▁Map":9533,"▁actress":9534,"▁rules":9535,"▁finish":9536,"▁Mike":9537,"▁prepared":9538,"▁younger":9539,"cess.":9540,"▁(also":9541,"يفية":9542,"▁easily":9543,"▁nav":9544,"ويورك":9545,"تيجة":9546,"iva":9547,"▁immigr":9548,"62":9549,"▁الاسم":9550,"يرل":9551,"uration":9552,"خاص":9553,"▁Family":9554,"▁argued":9555,"▁jur":9556,"▁opposite":9557,"▁Str":9558,"-to-":9559,"▁Street,":9560,"▁يس":9561,"aga":9562,"▁Fried":9563,"▁vary":9564,"▁توفي":9565,"enez":9566,"anz":9567,"▁.مرجع":9568,"▁work.":9569,"-sc":9570,"نتر":9571,"▁Liter":9572,"s;":9573,"▁وعلى":9574,"▁Croat":9575,"▁مشت":9576,"▁تست":9577,"▁truck":9578,"▁إنتاج":9579,"▁Turn":9580,"▁contributed":9581,"▁dates":9582,"▁تقد":9583,"▁liqu":9584,"po":9585,"▁core":9586,"▁Pakistan":9587,"▁sector":9588,"▁arrival":9589,"▁فاز":9590,"▁strip":9591,"▁ار":9592,"akers":9593,"▁statement":9594,"▁ring":9595,"وضوع":9596,"▁feed":9597,"▁Burn":9598,"▁coastal":9599,"▁hunt":9600,"▁Sab":9601,"▁wooden":9602,"▁Catal":9603,"aun":9604,"▁Natural":9605,"ricket":9606,"life":9607,"ailed":9608,"▁dut":9609,"▁Whit":9610,"▁kingdom":9611,"▁كيل":9612,"▁poem":9613,"▁Dom":9614,"▁volunte":9615,"ovak":9616,"kh":9617,"▁--":9618,"▁http":9619,"▁Fame":9620,"las":9621,"ennis":9622,"▁ملك":9623,"▁Environment":9624,"▁مواليد":9625,"omy":9626,"ناث":9627,"AM":9628,"▁twice":9629,"ito":9630,"▁trust":9631,"pa":9632,".)":9633,"▁120":9634,"▁classical":9635,"bar":9636,"▁الفل":9637,"▁depos":9638,"order":9639,"▁Jane":9640,"▁Third":9641,"▁29,":9642,"▁baseball":9643,"yst":9644,"wise":9645,"▁stret":9646,"▁مف":9647,"encies":9648,"▁plate":9649,"▁الحياة":9650,"▁الروم":9651,"92":9652,"▁ceremon":9653,"▁methods":9654,"▁positions":9655,"▁attempts":9656,"gers":9657,"lock":9658,"▁fil":9659,"onian":9660,"▁myth":9661,"mosp":9662,"▁canc":9663,"▁كول":9664,"يح":9665,"▁Switzer":9666,"▁Mand":9667,"▁Chair":9668,"▁8.":9669,"▁الفلك":9670,"chers":9671,"▁كلية":9672,"حن":9673,"▁life,":9674,"▁فن":9675,"▁history.":9676,"اعر":9677,"▁shel":9678,"ضمن":9679,"▁المُ":9680,"▁suppor":9681,"▁statue":9682,"▁ويم":9683,"▁Taylor":9684,"▁Wing":9685,"▁actual":9686,"▁affected":9687,"▁vessel":9688,"▁carrying":9689,"▁ويت":9690,"iterran":9691,"يمقرا":9692,"▁Women's":9693,"equ":9694,"رخ":9695,"▁vir":9696,"jan":9697,"▁morning":9698,"ragon":9699,"▁visible":9700,"وسف":9701,"▁Nev":9702,"▁عدم":9703,"▁زند":9704,"انة":9705,"▁price":9706,"جام":9707,"سام":9708,"ants.":9709,"bra":9710,"uccess":9711,"راضي":9712,"هام":9713,"▁Singapore":9714,"▁البعض":9715,"▁transform":9716,"▁independence":9717,"▁combination":9718,"▁greatest":9719,"alo":9720,"▁مال":9721,"rating":9722,"زار":9723,"ous,":9724,"lad":9725,"▁engineering":9726,"▁legend":9727,"▁landing":9728,"▁Ins":9729,"▁label":9730,"▁Afghan":9731,"aska":9732,"agle":9733,"▁Hindu":9734,"▁examples":9735,"▁Jerusalem":9736,"▁مخت":9737,"▁sort":9738,"▁illeg":9739,"orter":9740,"▁''s":9741,"com/":9742,"▁seems":9743,"ونة":9744,"▁ban":9745,"▁Protest":9746,"▁somew":9747,"▁perhaps":9748,"mith":9749,"umes":9750,"▁Sciences":9751,"▁trying":9752,"▁check":9753,"▁weapon":9754,"oster":9755,"▁react":9756,"▁الخاص":9757,"غال":9758,"▁Information":9759,"▁resemb":9760,"▁Brun":9761,"és":9762,"▁Bomb":9763,"▁synt":9764,"▁teaching":9765,"▁Brand":9766,"▁returning":9767,"▁Abd":9768,"▁supporting":9769,"▁scale":9770,"▁cells":9771,"▁Il":9772,"iti":9773,"urance":9774,"▁performing":9775,"e''":9776,"▁visual":9777,"ashed":9778,"▁Amb":9779,"▁escape":9780,"▁Dictionary":9781,"▁Wat":9782,"iver,":9783,"▁NC":9784,"▁Kr":9785,"▁Municip":9786,"▁subsid":9787,"▁vert":9788,"▁الدفاع":9789,"▁titled":9790,"▁wave":9791,"▁religion":9792,"▁recognition":9793,"▁طبي":9794,"ress,":9795,"wealth":9796,"▁infantry":9797,"western":9798,"▁Rid":9799,"▁gain":9800,"▁herself":9801,"▁É":9802,"▁device":9803,"anna":9804,"ori":9805,"▁death,":9806,"▁standing":9807,"apol":9808,"▁ultimately":9809,"▁الفر":9810,"▁swim":9811,"▁Jord":9812,"▁budget":9813,"▁خاصة":9814,"قبل":9815,"▁bond":9816,"▁losing":9817,"▁كتب":9818,"▁1958":9819,"▁fram":9820,"more":9821,"▁Wolf":9822,"▁ranked":9823,"63":9824,"-I":9825,"▁successfully":9826,"▁brown":9827,"▁قا":9828,"anes":9829,"▁1961":9830,"▁composition":9831,"▁Morris":9832,"▁images":9833,"mat":9834,"▁producer":9835,"▁1956":9836,"▁الإسلامية":9837,"▁Puerto":9838,"▁وحدة":9839,"▁الفن":9840,"لفزي":9841,"ét":9842,"▁producing":9843,"ise,":9844,"▁Down":9845,"ائد":9846,"اديم":9847,"▁Hit":9848,"▁Hug":9849,"▁ign":9850,"eman":9851,"▁رقم":9852,"▁lect":9853,"▁undert":9854,"–4":9855,"▁planning":9856,"خراج":9857,"rov":9858,"▁اشت":9859,"▁holds":9860,"▁Official":9861,"▁Territ":9862,"▁كري":9863,"achel":9864,"▁obtain":9865,"ان.":9866,"▁ثلاثة":9867,"otype":9868,"5,000":9869,"▁didn't":9870,"▁160":9871,"oslav":9872,"واية":9873,"▁1918":9874,"▁سل":9875,"olars":9876,"▁Once":9877,"asy":9878,"▁literary":9879,"▁remark":9880,"▁athlet":9881,"▁1946":9882,"rett":9883,"▁sell":9884,"▁doctor":9885,"▁resistance":9886,"▁trip":9887,"باً":9888,"▁Hawai":9889,"▁engineer":9890,"iller":9891,"▁مكتب":9892,"َّار":9893,"▁progress":9894,"▁resear":9895,"iege":9896,"▁depend":9897,"▁weapons":9898,"▁specifically":9899,"▁Sweden":9900,"▁کرده":9901,"آن":9902,"onder":9903,"▁correct":9904,"▁frag":9905,"كمة":9906,"▁winner":9907,"▁someone":9908,"▁FI":9909,"▁الاقتصاد":9910,"▁Upper":9911,"سمى":9912,"▁ly":9913,"▁Khan":9914,"▁semi-":9915,"▁بالق":9916,"▁السنة":9917,"▁Engineering":9918,"جيل":9919,"less,":9920,"▁newspap":9921,"وفر":9922,"▁وزارة":9923,"▁isol":9924,"توان":9925,"▁مض":9926,"insula":9927,"aren":9928,"▁سكانه":9929,"▁Daily":9930,"ئا":9931,"▁retire":9932,"▁10.":9933,"كتور":9934,"idel":9935,"▁\"K":9936,"▁alter":9937,"▁للن":9938,"vo":9939,"▁consisting":9940,"▁Iron":9941,"▁Antonio":9942,"▁son,":9943,"▁Lang":9944,"فظ":9945,"▁premi":9946,"▁war.":9947,"▁Page":9948,"▁الأمير":9949,"▁death.":9950,"ista":9951,"Ch":9952,"▁Beng":9953,"هم،":9954,"▁operates":9955,"زمة":9956,"▁pione":9957,"وارد":9958,"▁يج":9959,"▁Kansas":9960,"▁زوج":9961,"▁والستون":9962,"▁worth":9963,"▁circum":9964,"▁educational":9965,"▁بدأت":9966,"▁racing":9967,"▁الحق":9968,"▁Crown":9969,"▁high-":9970,"▁delay":9971,"▁occurs":9972,"-O":9973,"▁Davis":9974,"▁cook":9975,"ivated":9976,"▁opp":9977,"▁relief":9978,"ives,":9979,"▁goes":9980,"▁People's":9981,"▁vocal":9982,"▁أج":9983,"▁Aud":9984,"▁پیش":9985,"ourney":9986,"ste":9987,"▁Farm":9988,"▁begins":9989,"▁solo":9990,"ونغ":9991,"▁Motor":9992,"olph":9993,"خابات":9994,"▁Mission":9995,"ooth":9996,"-and":9997,"▁Plant":9998,"▁Fa":9999,"▁select":10000,"et.":10001,"▁وفا":10002,"چه":10003,"▁ruled":10004,"باس":10005,"▁parties":10006,"athan":10007,"vard":10008,"▁voc":10009,"▁Kim":10010,"hou":10011,"R.":10012,"▁Mountains":10013,"ika":10014,"▁setting":10015,"▁code":10016,"▁کم":10017,"▁presidential":10018,"anton":10019,"▁residential":10020,"-on":10021,"▁receiving":10022,"▁واس":10023,"▁shift":10024,"inton":10025,"▁alleged":10026,"▁orders":10027,"▁repeated":10028,"rates":10029,"ivalent":10030,"طلب":10031,"roc":10032,"▁'''H":10033,"عمل":10034,"html":10035,"74":10036,"▁Alfred":10037,"▁البلاد":10038,"▁inaug":10039,"▁dies":10040,"▁Ped":10041,"▁Dick":10042,"▁advantage":10043,"coh":10044,"▁معد":10045,"▁(see":10046,"▁ممثل":10047,"▁overl":10048,"'ll":10049,"▁55":10050,"P.":10051,"▁1947":10052,"▁knew":10053,"▁Comple":10054,"▁Minnes":10055,"▁(),":10056,"▁dated":10057,"▁Mississ":10058,"adow":10059,"RC":10060,"▁Denmark":10061,"▁Prim":10062,"▁fighter":10063,"▁apart":10064,"▁1999,":10065,"▁result,":10066,"rin":10067,"88":10068,"ville,":10069,"▁'''G":10070,"▁monaster":10071,"ultan":10072,"▁('''":10073,"93":10074,"▁publisher":10075,"hard":10076,"خة":10077,"▁برنامج":10078,"▁behavior":10079,"▁capable":10080,"rient":10081,"▁Simon":10082,"▁Ariz":10083,"▁depth":10084,"▁extremely":10085,"▁شرق":10086,"▁Aer":10087,"61":10088,"▁assault":10089,"▁City,":10090,"mes":10091,"▁ملا":10092,"▁damaged":10093,"▁64":10094,"▁'''19":10095,"غيير":10096,"▁mand":10097,"▁دُو":10098,"▁$1":10099,"part":10100,"▁Sin":10101,"▁needs":10102,"–5":10103,"▁equipped":10104,"▁Ten":10105,"▁Pow":10106,"▁guest":10107,"▁engaged":10108,"▁villages":10109,"▁Channel":10110,"▁try":10111,"eland":10112,"▁دُوَّار":10113,"▁bes":10114,"▁Silver":10115,"▁Fund":10116,"▁agent":10117,"▁crop":10118,"rome":10119,"امت":10120,"▁fan":10121,"هدف":10122,"▁strike":10123,"▁الحديث":10124,"▁eyes":10125,"wegian":10126,"▁وسط":10127,"▁selection":10128,"orial":10129,"▁stood":10130,"antic":10131,"▁یا":10132,"▁broken":10133,"▁Reb":10134,"▁Rang":10135,"▁femal":10136,"▁electronic":10137,"-the":10138,"▁Jam":10139,"able,":10140,"▁injur":10141,"▁مكان":10142,"▁coord":10143,"▁resources":10144,"▁mir":10145,"aints":10146,"▁scheduled":10147,"▁الأطفال":10148,"▁RAF":10149,"oes":10150,"▁Lis":10151,"▁Key":10152,"▁failure":10153,"▁Fac":10154,"الف":10155,"▁'''F":10156,"▁stands":10157,"state":10158,"anguage":10159,"idden":10160,"مت":10161,"▁Wy":10162,"icit":10163,"ocese":10164,"▁Nazi":10165,"▁les":10166,"▁للإحصاء":10167,"borough":10168,"ه‌های":10169,"▁1952":10170,"rator":10171,"▁السلط":10172,"▁lear":10173,"▁Tennes":10174,"سلحة":10175,"▁artillery":10176,"عار":10177,"▁interpret":10178,"oom":10179,"▁Dyn":10180,"▁protected":10181,"▁Real":10182,"ymn":10183,"▁Media":10184,"▁classes":10185,"▁المك":10186,"▁actions":10187,"▁Writ":10188,"'').":10189,"▁well-":10190,"▁Kat":10191,"رافي":10192,"oa":10193,"▁waters":10194,"▁أنواع":10195,"▁comput":10196,"▁brig":10197,"▁her.":10198,"▁arts":10199,"جان":10200,"ically,":10201,"▁Mediterran":10202,"▁priest":10203,"esign":10204,"ولى":10205,"▁ظهر":10206,"▁العثم":10207,"oen":10208,"▁6th":10209,"▁explos":10210,"▁pray":10211,"▁craft":10212,"لايا":10213,"زوج":10214,"▁Lanc":10215,"▁Global":10216,"▁والف":10217,"Un":10218,"▁entitled":10219,"▁1959":10220,"▁Connect":10221,"يتي":10222,"▁وهذا":10223,"▁transition":10224,"▁گرفت":10225,"▁اللي":10226,"املة":10227,"▁Austrian":10228,"lah":10229,"https://":10230,"▁surre":10231,"-ter":10232,"▁بلا":10233,"▁Saf":10234,"se,":10235,"▁Colonel":10236,"▁partnership":10237,"ucky":10238,"▁مث":10239,"▁evolution":10240,"▁engines":10241,"▁arrested":10242,"91":10243,"▁Ukrain":10244,"▁Championships":10245,"ماع":10246,"ارنة":10247,"▁tick":10248,"▁focused":10249,"▁الأرد":10250,"pson":10251,"▁assemb":10252,"▁باب":10253,"▁tur":10254,"▁Dur":10255,"▁understand":10256,"▁Tower":10257,"مدينة":10258,"▁hang":10259,"▁bit":10260,"▁Phys":10261,"▁purchase":10262,"▁جي":10263,"ists,":10264,"mun":10265,"▁period.":10266,"▁Howard":10267,"لمان":10268,"ًا،":10269,"▁Internet":10270,"▁هیچ":10271,"▁kick":10272,"▁thousand":10273,"▁وكذلك":10274,"▁الصغير":10275,"▁landscape":10276,"▁Rights":10277,"▁سين":10278,"vious":10279,"▁translated":10280,"igation":10281,"▁unus":10282,"▁الأسا":10283,"▁modified":10284,"▁المدر":10285,"▁VI":10286,"▁negative":10287,"▁AF":10288,"سيا":10289,"ithuan":10290,"▁بدور":10291,"▁rom":10292,"صال":10293,"▁committee":10294,"heastern":10295,"EN":10296,"▁Mit":10297,"▁neighbour":10298,"▁world,":10299,"opol":10300,"hibition":10301,"▁worldwide":10302,"fare":10303,"▁Winter":10304,"able.":10305,"▁آن‌ها":10306,"▁Ra":10307,"▁Missouri":10308,"شل":10309,"agg":10310,"▁government.":10311,"▁Commonwealth":10312,"▁Maur":10313,"▁حكم":10314,"▁Ban":10315,"▁Champ":10316,"▁describes":10317,"ندن":10318,"▁bra":10319,"▁يل":10320,"tra":10321,"▁José":10322,"▁mel":10323,"▁ending":10324,"▁Cru":10325,"▁القص":10326,"LA":10327,"▁Pruss":10328,"othe":10329,"▁1930":10330,"▁races":10331,"شان":10332,"▁acting":10333,"iece":10334,"▁celebrated":10335,"▁palace":10336,"▁Ark":10337,"-V":10338,"▁تخ":10339,"▁حرف":10340,"ates,":10341,"▁relative":10342,"رى":10343,"▁routes":10344,"▁stamp":10345,"لسلة":10346,"▁Rand":10347,"▁Hamilton":10348,"▁Canal":10349,"▁1914":10350,"براهيم":10351,"▁الميل":10352,"▁Sri":10353,"▁AM":10354,"▁المناطق":10355,"▁significantly":10356,"حداث":10357,"OC":10358,"▁ahead":10359,"px":10360,"▁Olympics":10361,"din":10362,"▁والق":10363,"én":10364,"▁2000.":10365,"▁7th":10366,"▁Europe,":10367,"owned":10368,"▁(e.":10369,"▁1957":10370,"ricts":10371,"▁Chile":10372,"-off":10373,"▁Buck":10374,"ier,":10375,"جرة":10376,"غا":10377,"iscons":10378,"▁nick":10379,"▁severe":10380,"هتم":10381,"▁نس":10382,"ارا":10383,"▁المسلم":10384,"▁tracks":10385,"▁لش":10386,"anned":10387,"▁Hungarian":10388,"▁water.":10389,"▁لدى":10390,"▁solution":10391,"▁..":10392,"▁عادة":10393,"▁manufacturing":10394,"رشيف":10395,"سرح":10396,"▁dating":10397,"▁Peters":10398,"aki":10399,"▁McG":10400,"▁downtown":10401,"▁Detroit":10402,"▁patron":10403,"▁tomb":10404,"عتقد":10405,"▁Mach":10406,"▁Patrick":10407,"▁lit":10408,"▁furn":10409,"ولوجيا":10410,"▁stores":10411,"ود.":10412,"▁المط":10413,"time":10414,"kes":10415,"▁aware":10416,"▁yard":10417,"▁''Ar":10418,"▁42":10419,"▁grass":10420,"um,":10421,"▁سف":10422,"▁concluded":10423,"يرية":10424,"▁entertain":10425,"▁experienced":10426,"key":10427,"▁Colomb":10428,"VD":10429,"▁AC":10430,"▁Cost":10431,"▁causes":10432,"▁retail":10433,"ellite":10434,"yo":10435,"▁الجهاز":10436,"حدات":10437,"▁Liver":10438,"ceived":10439,"▁Fil":10440,"▁fixed":10441,"▁Prix":10442,"▁Ale":10443,"▁mid-19":10444,"▁bran":10445,"فيذ":10446,"▁Region":10447,"▁wine":10448,"▁Roy":10449,"▁repro":10450,"SP":10451,"▁Mong":10452,"▁doct":10453,"▁II,":10454,"▁cours":10455,"▁Sel":10456,"▁choice":10457,"▁reconst":10458,"▁Pur":10459,"▁rivers":10460,"▁زی":10461,"▁1949":10462,"▁islands":10463,"uj":10464,"▁descend":10465,"▁دولة":10466,"▁حيات":10467,"▁خاص":10468,"▁restrict":10469,"▁promote":10470,"▁الثلا":10471,"poss":10472,"براط":10473,"▁pool":10474,"ities.":10475,"obe":10476,"▁accompanied":10477,"▁Pict":10478,"olid":10479,"▁England,":10480,"▁::":10481,"▁15th":10482,"▁'')":10483,"arc":10484,"▁Mississipp":10485,"hab":10486,"▁collected":10487,"▁Whe":10488,"▁دخل":10489,"▁Edition":10490,"▁benefit":10491,"nold":10492,"▁1998,":10493,"▁Ni":10494,"▁extension":10495,"▁ـ":10496,"▁جمهورية":10497,"▁anniversary":10498,"▁Our":10499,"▁increasingly":10500,"▁المعلومات":10501,"▁series,":10502,"▁withdraw":10503,"عين":10504,"▁Steve":10505,"صوص":10506,"mm":10507,"ui":10508,"▁غر":10509,"▁1955":10510,"ardo":10511,"▁Gab":10512,"▁الأمر":10513,"▁filled":10514,"ئات":10515,"▁write":10516,"▁Belgium":10517,"▁Inn":10518,"cies":10519,"▁(including":10520,"▁cycle":10521,"▁acts":10522,"https://www.":10523,"▁''(":10524,"oyd":10525,"79":10526,"▁Byz":10527,"▁favour":10528,"bach":10529,"▁atmosp":10530,"▁سيا":10531,"تمر":10532,"▁mainten":10533,"▁Hollywood":10534,"▁Pa":10535,"pen":10536,"حمد":10537,"▁Vice":10538,"▁Unit":10539,"▁family.":10540,"▁registered":10541,"-ch":10542,"▁می‌گ":10543,"▁dynasty":10544,"▁bear":10545,"▁للق":10546,"ère":10547,"▁renew":10548,"▁mounted":10549,"▁crossing":10550,"▁ment":10551,"▁Bush":10552,"▁sale":10553,"▁ur":10554,"▁1954":10555,"▁foundation":10556,"▁2019.":10557,"▁portrait":10558,"▁كت":10559,"▁سان":10560,"ET":10561,"point":10562,"▁organizations":10563,"iac":10564,"▁founding":10565,"▁capture":10566,"-class":10567,"▁brain":10568,"odge":10569,"ords":10570,"▁locations":10571,"▁وصل":10572,"▁Reserve":10573,"▁Final":10574,"▁concrete":10575,"prise":10576,"▁حرب":10577,"▁الجزء":10578,"▁فريق":10579,"▁نف":10580,"▁Tel":10581,"▁troop":10582,"▁vol.":10583,"▁زم":10584,"ching":10585,"▁initi":10586,"▁reaching":10587,"▁Battalion":10588,"BI":10589,"▁170":10590,"▁designs":10591,"▁sets":10592,"▁fashion":10593,"▁fired":10594,"لو":10595,"یک":10596,"▁beach":10597,"▁Gran":10598,"سيم":10599,"eor":10600,"▁ceremony":10601,"▁considerable":10602,"▁Ele":10603,"▁indicate":10604,"▁Federation":10605,"▁تسمية":10606,"▁output":10607,"▁opportunity":10608,"going":10609,"▁covers":10610,"▁9.":10611,"▁Fighter":10612,"▁density":10613,"othes":10614,"▁bodies":10615,"ecution":10616,"▁settle":10617,"▁الإن":10618,"▁Beg":10619,"▁Trail":10620,"ities,":10621,"▁Norwegian":10622,"▁tram":10623,"▁sole":10624,"▁Melbourne":10625,"▁separated":10626,"▁roughly":10627,"weight":10628,"▁Fern":10629,"–3":10630,"▁Sound":10631,"▁grant":10632,"icut":10633,"u.":10634,"ومي":10635,"▁Lawrence":10636,"▁crime":10637,"▁minut":10638,"▁appropri":10639,"▁Communist":10640,"▁Philippines":10641,"▁civilian":10642,"▁DNA":10643,"▁languages":10644,"▁Danish":10645,"ture":10646,"in's":10647,"▁phen":10648,"▁manuscript":10649,"▁Honor":10650,"bell":10651,"abled":10652,"▁Mayor":10653,"▁يعيش":10654,"▁expos":10655,"▁funding":10656,"▁factor":10657,"▁consult":10658,"/201":10659,"طن":10660,"▁rose":10661,"▁اف":10662,"طاق":10663,"rank":10664,"▁surrounded":10665,"لكتر":10666,"oca":10667,"▁tropical":10668,"▁Roll":10669,"▁weak":10670,"▁retrieved":10671,"▁demolished":10672,"طية":10673,"▁يقوم":10674,"yard":10675,"▁النساء":10676,"▁أقل":10677,"enburg":10678,"▁Napole":10679,"▁electron":10680,"DF":10681,"▁operational":10682,"▁opera":10683,"box":10684,"▁driving":10685,"لاعب":10686,"▁Children":10687,"roke":10688,"▁translation":10689,"▁بان":10690,"یا":10691,"▁kilomet":10692,"▁العق":10693,"▁mine":10694,"▁Sport":10695,"▁stating":10696,"▁component":10697,"▁bass":10698,"▁population.":10699,"كنية":10700,"ches,":10701,"▁proced":10702,"▁sixth":10703,"76":10704,"igg":10705,"▁ham":10706,"brid":10707,"▁looked":10708,"▁elections":10709,"▁موسم":10710,"برى":10711,"atically":10712,"▁passes":10713,"▁Bart":10714,"▁lap":10715,"▁صدا":10716,"▁Colorado":10717,"▁drawn":10718,"▁PC":10719,"DA":10720,"▁Flore":10721,"▁ideas":10722,"HL":10723,"▁Sign":10724,"▁theme":10725,"▁Rest":10726,"occ":10727,"▁Las":10728,"▁غرب":10729,"▁invited":10730,"▁السود":10731,"▁سطح":10732,"▁Mans":10733,"▁protein":10734,"▁فأ":10735,"يلات":10736,"▁Pear":10737,"▁Century":10738,"▁Rose":10739,"باح":10740,"▁stopped":10741,"دت":10742,"▁merged":10743,"نائ":10744,"▁mayor":10745,"▁Culture":10746,"▁buy":10747,"udden":10748,"▁candidate":10749,"▁util":10750,"▁Nort":10751,"▁Today":10752,"هو":10753,"ia's":10754,"▁تمت":10755,"▁Flight":10756,"▁'''(":10757,"▁Fal":10758,"▁\"g":10759,"▁13th":10760,"▁views":10761,"▁ensure":10762,"▁injured":10763,"كليزية":10764,"▁Ric":10765,"ماية":10766,"▁Maryland":10767,"▁Societ":10768,"▁بس":10769,"▁publication":10770,"ترا":10771,"▁quar":10772,"▁قرار":10773,"▁voted":10774,"▁Comb":10775,"▁Sax":10776,"ناعة":10777,"▁https":10778,"▁والج":10779,"▁criminal":10780,"▁Here":10781,"▁سبيل":10782,"▁Metro":10783,"▁Ta":10784,"ry.":10785,"ًا.":10786,"▁Market":10787,"Qu":10788,"▁وين":10789,"▁الشم":10790,"يدر":10791,"▁المجتمع":10792,"phone":10793,"ology.":10794,"▁witness":10795,"▁Mediterranean":10796,"asure":10797,"▁Wiscons":10798,"lay":10799,"▁Anthony":10800,"▁Pierre":10801,"aly":10802,"▁Affairs":10803,"▁الفرنسي":10804,"▁والص":10805,"▁لك":10806,"▁bishop":10807,"▁twelve":10808,"▁chairman":10809,"▁heritage":10810,"▁visitors":10811,"▁1953":10812,"▁faced":10813,"hered":10814,"▁AS":10815,"▁Bible":10816,"▁export":10817,"▁Lib":10818,"▁1951":10819,"▁suggests":10820,"▁T.":10821,"▁casual":10822,"ثق":10823,"▁plot":10824,"ادات":10825,"ige":10826,"▁الجمهورية":10827,"▁See":10828,"▁town.":10829,"ogle":10830,"▁sleep":10831,"▁Member":10832,"▁foss":10833,"▁Cook":10834,"at.":10835,"ör":10836,"▁الفيلم":10837,"▁mechanism":10838,"rage":10839,"كية":10840,"▁mining":10841,"▁invent":10842,"▁astron":10843,"▁Hop":10844,"▁Micro":10845,"▁yards":10846,"▁struck":10847,"▁Lam":10848,"▁difference":10849,"87":10850,"▁Origin":10851,"▁architectural":10852,"▁sufficient":10853,"▁inher":10854,"▁getting":10855,"▁Venez":10856,"▁2003.":10857,"ant.":10858,"▁ولی":10859,"▁Labour":10860,"▁aged":10861,"ass,":10862,"▁الأغ":10863,"▁1936":10864,"▁grown":10865,"▁fields":10866,"86":10867,"▁tact":10868,"▁goods":10869,"▁12th":10870,"▁Heart":10871,"▁!":10872,"break":10873,"ره":10874,"ون،":10875,"▁linked":10876,"▁ton":10877,"▁frame":10878,"▁Local":10879,"▁منهم":10880,"pread":10881,"▁Bird":10882,"▁السابق":10883,"ورغ":10884,"▁Log":10885,"0)":10886,"▁المجلس":10887,"راث":10888,"▁calls":10889,"▁Upon":10890,"▁dress":10891,"▁deleg":10892,"hai":10893,"▁Deb":10894,"▁huge":10895,"▁Ancient":10896,"▁جورج":10897,"▁benef":10898,"▁innov":10899,"▁Ent":10900,"oles":10901,"▁Premier":10902,"▁Turkey":10903,"lets":10904,"J.":10905,"▁الإسب":10906,"wall":10907,"▁القب":10908,"▁الأسرة":10909,"▁Execut":10910,"▁trained":10911,"▁neut":10912,"▁institutions":10913,"▁بدون":10914,"rod":10915,"▁Bowl":10916,"icate":10917,"rove":10918,"▁إسبانيا":10919,"▁NFL":10920,"▁learning":10921,"▁history,":10922,"helm":10923,"▁gear":10924,"night":10925,"▁نيويورك":10926,"▁sections":10927,"▁لمدة":10928,"▁Administration":10929,"▁Shah":10930,"▁context":10931,"then":10932,"▁terminal":10933,"▁circuit":10934,"▁occas":10935,"▁cann":10936,"▁sam":10937,"▁Houston":10938,"▁Hom":10939,"▁metres":10940,"▁بف":10941,"▁Hell":10942,"fe":10943,"▁transmission":10944,"فية":10945,"atherine":10946,"ar.":10947,"▁terror":10948,"▁Then":10949,"tery":10950,"▁Services":10951,"▁existence":10952,"▁save":10953,"▁Vin":10954,"DP":10955,"▁respectively.":10956,"ادية":10957,"▁1917":10958,"crib":10959,"▁family,":10960,"▁remember":10961,"▁Allied":10962,"▁infrast":10963,"▁بجماعة":10964,"یه":10965,"ريبة":10966,"▁funds":10967,"▁Sac":10968,"uous":10969,"▁الفلسط":10970,"active":10971,"ín":10972,"▁إل":10973,"یل":10974,"▁enh":10975,"▁Yug":10976,"keep":10977,"▁shore":10978,"▁disappe":10979,"▁notably":10980,"وعات":10981,"ؤول":10982,"feld":10983,"زو":10984,"▁Back":10985,"▁representing":10986,"alu":10987,"▁سلط":10988,"▁caught":10989,"▁Oregon":10990,"▁Eric":10991,"▁Mes":10992,"eline":10993,"▁Scient":10994,"ليب":10995,"▁31,":10996,"▁انضمام":10997,"▁Tony":10998,"zer":10999,"uster":11000,"▁state.":11001,"▁Athlet":11002,"aro":11003,"aked":11004,"▁roads":11005,"▁''Le":11006,"▁Lud":11007,"▁leads":11008,"▁reput":11009,"adi":11010,"▁motion":11011,"▁1960s":11012,"▁Andre":11013,"▁anything":11014,"▁affili":11015,"▁Ukrainian":11016,"ellect":11017,"▁recre":11018,"هات":11019,"clusion":11020,"▁Finn":11021,"▁siz":11022,"▁offices":11023,"▁centuries":11024,"▁Persian":11025,"igious":11026,"▁Run":11027,"▁Switzerland":11028,"icien":11029,"▁temporary":11030,"▁powers":11031,"▁Allen":11032,"▁العلوم":11033,"racy":11034,"▁edited":11035,"▁وظ":11036,"▁Economic":11037,"▁المصري":11038,"▁later.":11039,"▁(بالإن":11040,"ensions":11041,"▁الآخر":11042,"ch,":11043,"am,":11044,"ives.":11045,"chang":11046,"/19":11047,"▁منصب":11048,"▁Lower":11049,"▁is,":11050,"ماً":11051,"▁Stew":11052,"▁Germany,":11053,"▁Agricult":11054,"▁females":11055,"▁worship":11056,"▁'''J":11057,"اضي":11058,"ولاية":11059,"▁بود،":11060,"▁Diego":11061,"▁هول":11062,"urricane":11063,"72":11064,"▁excav":11065,"▁ways":11066,"▁14th":11067,"▁Madrid":11068,"▁بداية":11069,"▁instruction":11070,"▁storage":11071,"▁Cre":11072,"cious":11073,"▁Sym":11074,"▁1997,":11075,"obb":11076,"▁راه":11077,"idespread":11078,"▁يحت":11079,"iche":11080,"نائية":11081,"▁Ku":11082,"▁imag":11083,"عدد":11084,"▁Tib":11085,"▁Princess":11086,"▁homes":11087,"anian":11088,"▁kit":11089,"▁Care":11090,"▁الرئيسي":11091,"▁Bry":11092,"▁items":11093,"▁exception":11094,"ريدة":11095,"▁Death":11096,"▁Egyptian":11097,"▁الطاقة":11098,"▁inhabitants":11099,"▁spiritual":11100,"▁Ali":11101,"▁Hud":11102,"▁Goth":11103,"pected":11104,"▁place.":11105,"'':":11106,"▁proceed":11107,"▁الجزيرة":11108,"▁جانب":11109,"▁composer":11110,"▁باید":11111,"▁line.":11112,"▁assumed":11113,"▁2001.":11114,"▁Energy":11115,"▁أفريقيا":11116,"▁يا":11117,"▁rejected":11118,"iants":11119,"▁Liberal":11120,"rang":11121,"▁tunnel":11122,"▁clock":11123,"▁انتخب":11124,"هداف":11125,"▁northeast":11126,"▁الكه":11127,"▁depending":11128,"pur":11129,"▁repair":11130,"▁accused":11131,"▁1970s":11132,"▁adap":11133,"ector":11134,"▁Crit":11135,"▁chose":11136,"▁note":11137,"▁Nick":11138,"▁rebuilt":11139,"▁Dubl":11140,"▁thing":11141,"▁الديمقرا":11142,"▁Ukraine":11143,"▁صد":11144,"▁کنم":11145,"▁وان":11146,"▁till":11147,"▁picture":11148,"stan":11149,"burn":11150,"بان":11151,"▁Knight":11152,"▁600":11153,"▁measures":11154,"▁salt":11155,"▁c.":11156,"ishment":11157,"▁التم":11158,"▁1938":11159,"ليج":11160,"▁bronze":11161,"▁fans":11162,"▁الفرد":11163,"icide":11164,"▁Survey":11165,"▁specim":11166,"▁Baseball":11167,"▁1000":11168,"▁greatly":11169,"▁alcoh":11170,"▁possess":11171,"اطر":11172,"▁details":11173,"▁grounds":11174,"ضح":11175,"▁Father":11176,"▁المرض":11177,"▁پر":11178,"▁requires":11179,"e's":11180,"لاب":11181,"▁نیست":11182,"▁carri":11183,"▁responsibility":11184,"▁Div":11185,"▁jun":11186,"42":11187,"▁Ow":11188,"▁option":11189,"▁gather":11190,"▁Cultural":11191,"▁Ll":11192,"▁الألعاب":11193,"▁areas.":11194,"▁seats":11195,"iop":11196,"▁sight":11197,"▁امر":11198,"abric":11199,"▁×":11200,"▁erected":11201,"SR":11202,"▁wire":11203,"▁Paris,":11204,"▁committed":11205,"osm":11206,"41":11207,"▁N.":11208,"▁Lock":11209,"▁Training":11210,"71":11211,"▁Live":11212,"▁Agency":11213,"▁Five":11214,"▁spr":11215,"iest":11216,"▁reading":11217,"▁tourist":11218,"▁Liverpool":11219,"▁عق":11220,"▁وزير":11221,"▁Cit":11222,"▁اليون":11223,"خصص":11224,"▁retained":11225,"▁Pas":11226,"▁ends":11227,"▁Brian":11228,"cht":11229,"▁Nag":11230,"▁Fact":11231,"▁حركة":11232,"▁Chem":11233,"▁communication":11234,"▁Company,":11235,"▁tool":11236,"OM":11237,"73":11238,"▁الأعمال":11239,"▁Norman":11240,"▁Sud":11241,"arth":11242,"actions":11243,"▁Cra":11244,"▁properties":11245,"▁objects":11246,"▁Works":11247,"gor":11248,"▁Laure":11249,"▁Bed":11250,"▁المغرب":11251,"▁ownership":11252,"▁مدرسة":11253,"▁chapel":11254,"▁times,":11255,"فاقية":11256,"leveland":11257,"▁سعود":11258,"▁clin":11259,"emen":11260,"▁proport":11261,"cess,":11262,"lie":11263,"▁Senator":11264,"▁America,":11265,"▁البيان":11266,"▁يعتبر":11267,"▁alleg":11268,"شته":11269,"owa":11270,"▁churches":11271,"▁surviving":11272,"▁external":11273,"stad":11274,"▁اي":11275,"▁school,":11276,"ماس":11277,"istical":11278,"▁marine":11279,"▁المب":11280,"▁wife,":11281,"▁Germans":11282,"▁الرس":11283,"▁Buddhist":11284,"otte":11285,"▁Admiral":11286,"▁Online":11287,"▁خم":11288,"▁father,":11289,"▁equivalent":11290,"isd":11291,"▁Europe.":11292,"▁charged":11293,"▁مبا":11294,"▁perfect":11295,"▁Hunt":11296,"▁game,":11297,"oj":11298,"ent.":11299,"▁•":11300,"▁Trump":11301,"▁panel":11302,"assador":11303,"▁Hills":11304,"قاء":11305,"▁Heb":11306,"▁fishing":11307,"▁Cemetery":11308,"▁stars":11309,"resents":11310,"▁Minnesota":11311,"▁أصبحت":11312,"▁matches":11313,"▁Phill":11314,"▁Hav":11315,"ogy":11316,"ifications":11317,"علق":11318,"-yard":11319,"assy":11320,"▁northwest":11321,"▁mobile":11322,"mund":11323,"▁recip":11324,"upt":11325,"▁rent":11326,"▁attributed":11327,"▁محم":11328,"merce":11329,"هاء":11330,"ayan":11331,"▁surf":11332,"▁improv":11333,"iday":11334,"▁Convention":11335,"ا.":11336,"▁franch":11337,"▁Row":11338,"▁عقد":11339,"▁''''":11340,"▁Trade":11341,"▁الرابعة":11342,"pat":11343,"▁helic":11344,"▁أفراد":11345,"▁شريك":11346,"▁calc":11347,"▁superv":11348,"▁supposed":11349,"▁Fleet":11350,"▁liquid":11351,"هرة":11352,"▁Race":11353,"▁الجام":11354,"▁learned":11355,"▁''Al":11356,"▁41":11357,"▁''Hist":11358,"▁calling":11359,"reck":11360,"▁seed":11361,"fish":11362,"▁Oklah":11363,"▁السوفي":11364,"▁أشهر":11365,"▁cm":11366,"▁الشمالية":11367,"▁widespread":11368,"▁eat":11369,"ser":11370,"▁throw":11371,"▁mob":11372,"chell":11373,"▁Independent":11374,"marine":11375,"▁'''E":11376,"▁artistic":11377,"ello":11378,"▁النباتات":11379,"▁بالل":11380,"edia":11381,"▁brid":11382,"طبي":11383,"▁Luther":11384,"▁2002.":11385,"▁Food":11386,"▁Rio":11387,"▁shut":11388,"▁monarch":11389,".H":11390,"▁39":11391,"▁gradually":11392,"▁كات":11393,"▁Bernard":11394,"▁violence":11395,"▁chapter":11396,"▁نقل":11397,"▁massive":11398,"▁cod":11399,"▁pover":11400,"▁Tennessee":11401,"اخ":11402,"▁Lithuan":11403,"عاد":11404,"▁Rey":11405,"▁السف":11406,"oche":11407,"wig":11408,"▁حقوق":11409,"▁Who":11410,"▁مستوى":11411,"▁emot":11412,"▁می‌د":11413,"▁المركزي":11414,"atern":11415,"▁propert":11416,"▁Cat":11417,"ogether":11418,"intend":11419,"▁chamber":11420,"▁somewhat":11421,"a)":11422,"▁crash":11423,"▁Last":11424,"▁حسن":11425,"uses":11426,"▁valu":11427,"ويات":11428,"▁Commander":11429,"bishop":11430,"▁°":11431,"بو":11432,"يميا":11433,"▁Gram":11434,"aptist":11435,"▁12.":11436,"▁Airlines":11437,"umph":11438,"▁seemed":11439,"▁headed":11440,"▁Aviation":11441,"▁الصف":11442,"▁Anderson":11443,"▁لندن":11444,"▁تتم":11445,"gow":11446,"▁category":11447,"▁suburb":11448,"▁wet":11449,"▁destruction":11450,"▁rend":11451,"▁encounter":11452,"▁كويكب":11453,"▁biggest":11454,"▁offering":11455,"▁gate":11456,"ics.":11457,"▁ای":11458,"▁سانت":11459,"▁Matthew":11460,"▁Method":11461,"▁coff":11462,"inction":11463,"hus":11464,"eway":11465,"rane":11466,"▁Tit":11467,"▁چون":11468,"ently,":11469,"▁.''":11470,"▁Hungary":11471,"▁Glas":11472,"▁الحكم":11473,"▁Margaret":11474,"▁representative":11475,"di":11476,"-date":11477,"▁scholars":11478,"▁cited":11479,"▁Gordon":11480,"▁forming":11481,"▁survived":11482,"▁Connecticut":11483,"▁دوري":11484,"▁حدي":11485,"▁Py":11486,"-re":11487,"▁Non":11488,"▁می‌ش":11489,"▁rit":11490,"▁determine":11491,"▁لمحافظة":11492,"اني.":11493,"ando":11494,"▁''Y":11495,"▁فال":11496,"▁إسرائيل":11497,"▁1996,":11498,"▁للج":11499,"▁surviv":11500,"▁vast":11501,"▁Venezuel":11502,"▁cancer":11503,"▁الكوكب":11504,"▁performances":11505,"▁1937":11506,"-term":11507,"▁اش":11508,"عمال":11509,"▁represents":11510,"▁أهل":11511,"▁نور":11512,"▁Leban":11513,"▁identity":11514,"▁issu":11515,"▁ones":11516,"▁کش":11517,"▁veter":11518,"ifer":11519,"inding":11520,"k.":11521,"▁خیلی":11522,"▁(16":11523,"▁Bull":11524,"▁vice":11525,"▁النف":11526,"▁Moon":11527,"▁printed":11528,"▁Opera":11529,"terior":11530,"▁begun":11531,"هار":11532,"▁Phot":11533,"وسيقى":11534,"▁خوش":11535,"▁emergency":11536,"bridge":11537,"▁1999.":11538,"es''":11539,"lass":11540,"▁Anna":11541,"▁1980s":11542,"atus":11543,"▁المرت":11544,"▁Model":11545,"▁dismiss":11546,"ورات":11547,"▁children.":11548,"%D9%84":11549,"related":11550,"▁hundreds":11551,"isition":11552,"▁Mexic":11553,"▁الكثافة":11554,"▁votes":11555,"▁mo":11556,"▁كندا":11557,"89":11558,"vant":11559,"▁Cooper":11560,"▁reserve":11561,"h,":11562,"▁10th":11563,"▁Authority":11564,"▁classified":11565,"▁Indiana":11566,"▁Baltim":11567,"وخ":11568,"erts":11569,"▁عين":11570,"▁1:":11571,"▁lyric":11572,"▁السي":11573,"▁preserved":11574,"▁لص":11575,"▁Donald":11576,"ci":11577,"▁Mem":11578,"▁documentary":11579,"▁regularly":11580,"▁الموج":11581,"▁يكن":11582,"otton":11583,"ontin":11584,"▁selling":11585,"▁deck":11586,"يدات":11587,"cular":11588,"ضية":11589,"outs":11590,"▁Hamp":11591,"hatt":11592,"قدم":11593,"▁مسير":11594,"DS":11595,"▁الكويت":11596,"▁solar":11597,"▁Kings":11598,"▁unf":11599,"eless":11600,"▁دوار":11601,"otan":11602,"▁indigenous":11603,"▁Construction":11604,"▁أمام":11605,"estone":11606,"ina,":11607,"▁partner":11608,"روي":11609,"itime":11610,"▁المث":11611,"▁پی":11612,"▁therm":11613,"▁أعلى":11614,"▁الأمن":11615,"nik":11616,"▁سك":11617,"▁الغربية":11618,"▁قوات":11619,"▁Vienna":11620,"ega":11621,"▁incom":11622,"▁Vik":11623,"▁يعمل":11624,"▁vide":11625,"▁جا":11626,"▁Movement":11627,"▁الداخل":11628,"irmingham":11629,"▁Village":11630,"▁يف":11631,"oria":11632,"▁theater":11633,"▁1929":11634,"▁''c":11635,"▁preced":11636,"▁covering":11637,"▁'''W":11638,"acre":11639,"يته":11640,"▁App":11641,"▁Patri":11642,"▁eye":11643,"▁البن":11644,"▁Camer":11645,"▁Monte":11646,"▁Kaz":11647,"▁D.C.":11648,"▁Every":11649,"▁techniques":11650,"▁game.":11651,"amental":11652,"▁grade":11653,"▁vic":11654,"▁rates":11655,"▁العليا":11656,"▁الحكوم":11657,"▁عهد":11658,"▁ster":11659,"aire":11660,"▁advoc":11661,"after":11662,"▁المصرية":11663,"▁قامت":11664,"▁las":11665,"▁timber":11666,"erted":11667,"▁1,000":11668,"▁43":11669,"▁e.":11670,"rix":11671,"▁Burg":11672,"▁plus":11673,"▁Marie":11674,"▁Yugoslav":11675,"▁معل":11676,"▁drawing":11677,"▁Cleveland":11678,"▁flo":11679,"▁rif":11680,"▁expression":11681,"abil":11682,"▁Prior":11683,"▁Miam":11684,"▁البشر":11685,"▁service.":11686,"▁العسكرية":11687,"▁ويل":11688,"▁القاهرة":11689,"▁Sn":11690,"▁Maj":11691,"▁Current":11692,"Al":11693,"و،":11694,"▁worn":11695,"▁فا":11696,"▁طرف":11697,"▁ready":11698,"▁يلي":11699,"46":11700,"▁auth":11701,"تا":11702,"anch":11703,"▁inner":11704,"ateur":11705,"▁رأس":11706,"▁لذلك":11707,"▁understanding":11708,"43":11709,"AL":11710,"-15":11711,"▁fitted":11712,"tsburgh":11713,"▁Nel":11714,"▁indicated":11715,"▁resign":11716,"prison":11717,"▁Arizona":11718,"▁اب":11719,"▁School,":11720,"▁Never":11721,"▁''m":11722,"جين":11723,"▁hand,":11724,"▁patient":11725,"▁جمع":11726,"▁hired":11727,"▁costs":11728,"▁8th":11729,"▁Park,":11730,"▁Lin":11731,"▁formally":11732,"▁building,":11733,"▁government,":11734,"▁assass":11735,"▁Executive":11736,"▁فلسط":11737,"▁streets":11738,"▁Franklin":11739,"orney":11740,"▁Reform":11741,"▁minimum":11742,"▁achieve":11743,"rus":11744,"▁Kennedy":11745,"▁raise":11746,"▁Harvard":11747,"▁دراسة":11748,"▁Church,":11749,"▁الجنوبية":11750,"pective":11751,"▁skin":11752,"▁boundary":11753,"antin":11754,"▁southwest":11755,"▁consecut":11756,"▁Alan":11757,"▁امت":11758,"▁مجلة":11759,"▁إحصاء":11760,"overe":11761,"▁Merc":11762,"▁Nord":11763,"▁49":11764,"olo":11765,"▁1933":11766,"▁intelligence":11767,"▁annually":11768,"وضع":11769,"▁Fel":11770,"▁Rud":11771,"▁advent":11772,"▁Pil":11773,"ische":11774,"▁Maced":11775,"▁اند":11776,"▁plane":11777,"▁جام":11778,"▁useful":11779,"▁AT":11780,"▁underground":11781,"▁Lyn":11782,"▁\"l":11783,"▁لمن":11784,"▁محد":11785,"▁الأمريكي":11786,"▁vision":11787,"نده":11788,"81":11789,"▁involving":11790,"ön":11791,"aste":11792,"▁musician":11793,"unch":11794,"▁ow":11795,"arl":11796,"ams":11797,"▁arranged":11798,"▁insect":11799,"▁Ay":11800,"▁نگاه":11801,"▁times.":11802,"▁busines":11803,"oeing":11804,"▁Standard":11805,"▁occupation":11806,"قتل":11807,"49":11808,"▁titles":11809,"▁graduated":11810,"▁Mond":11811,"▁Christopher":11812,"▁يستخدم":11813,"▁otherwise":11814,"▁displ":11815,"▁إبراهيم":11816,"▁por":11817,"ules":11818,"▁Chron":11819,"ates.":11820,"▁Chamber":11821,"▁multi-":11822,"▁چند":11823,"▁إيطاليا":11824,"▁Horn":11825,"sburg":11826,"▁sudden":11827,"▁Ga":11828,"▁Welsh":11829,"▁wrest":11830,"issions":11831,"ocol":11832,"▁Ref":11833,"▁Junior":11834,"▁Communic":11835,"▁southeast":11836,"▁لهذا":11837,"▁countries.":11838,"طان":11839,"▁EU":11840,"▁prime":11841,"▁AR":11842,"uy":11843,"▁strongly":11844,"▁Dall":11845,"▁charter":11846,"ilst":11847,"▁mart":11848,"▁electrical":11849,"▁أُ":11850,"▁Hispan":11851,"-20":11852,"▁اليهود":11853,"▁العائلات":11854,"▁Bruce":11855,"▁duty":11856,"ears":11857,"▁1935":11858,"▁Late":11859,"▁آقا":11860,"▁effectively":11861,"▁honour":11862,"▁أند":11863,"▁bringing":11864,"▁Grant":11865,"▁Pav":11866,"▁Defence":11867,"▁Control":11868,"▁fal":11869,"▁again.":11870,"▁Electric":11871,"▁؛":11872,"▁name.":11873,"▁1995,":11874,"ocracy":11875,"▁country,":11876,"onc":11877,"▁Stra":11878,"▁نفسه":11879,"▁adding":11880,"▁دائ":11881,"atics":11882,"'d":11883,"▁Roger":11884,"aired":11885,"ni":11886,"▁والخ":11887,"▁\"In":11888,"▁resolution":11889,"▁copper":11890,"jamin":11891,"كات":11892,"▁roles":11893,"▁articles":11894,"▁scenes":11895,"▁كي":11896,"▁WW":11897,"▁Sultan":11898,"اكم":11899,"▁رسم":11900,"bus":11901,"▁million.":11902,"ake,":11903,"enberg":11904,"ساعد":11905,"▁album,":11906,"ivals":11907,"-12":11908,"quarter":11909,"▁ratio":11910,"▁investment":11911,"▁Ever":11912,"▁View":11913,"▁accompl":11914,"-de":11915,"er''":11916,"▁1910":11917,"علن":11918,"▁normally":11919,"▁briefly":11920,"▁crisis":11921,"▁neck":11922,"هير":11923,"▁كذلك":11924,"▁الاكتشاف":11925,"▁Frid":11926,"▁مختلفة":11927,"▁districts":11928,"▁Mean":11929,"▁credit":11930,"83":11931,"▁Term":11932,"▁constant":11933,"▁Gaz":11934,"▁Buddh":11935,"▁characteristic":11936,"▁العزيز":11937,"http://":11938,"▁معهم":11939,"▁كثير":11940,"اعات":11941,"▁الوصول":11942,"عاية":11943,"▁Alab":11944,"▁imperial":11945,"▁الأولم":11946,"▁Additionally,":11947,"▁Jay":11948,"▁documents":11949,"▁سبا":11950,"▁College,":11951,"▁children,":11952,"▁meters":11953,"▁منظمة":11954,"▁judge":11955,"ewhere":11956,"▁Taiwan":11957,"▁Wisconsin":11958,"▁Equ":11959,"▁journalist":11960,"▁11th":11961,"cott":11962,"osph":11963,"▁kid":11964,"▁name,":11965,"▁sculpture":11966,"eas":11967,"▁distributed":11968,"P)":11969,"▁pip":11970,"▁England.":11971,"وسية":11972,"▁adopt":11973,"ill,":11974,"rice":11975,"bb":11976,"uis":11977,"▁Abbey":11978,"▁decline":11979,"▁Unt":11980,"▁القرية":11981,"▁deployed":11982,"riff":11983,"▁الجغ":11984,"▁Ky":11985,"▁Cow":11986,"▁جديدة":11987,"acht":11988,"▁offensive":11989,"▁assistant":11990,"▁Wright":11991,"▁حزام":11992,"▁brothers":11993,"ness,":11994,"claimed":11995,"▁Protestant":11996,"▁proposal":11997,"▁whereas":11998,"▁piano":11999,"▁Mess":12000,"▁9th":12001,"nex":12002,"ivate":12003,"▁Quebec":12004,"▁(6":12005,"▁\"V":12006,"▁differences":12007,"▁temperatures":12008,"▁Orchestra":12009,"ches.":12010,"▁المشت":12011,"▁Former":12012,"all,":12013,"▁الكبرى":12014,"▁building.":12015,"▁Beck":12016,"rehens":12017,"icians":12018,"ress.":12019,"ounced":12020,"▁cyl":12021,"▁decade":12022,"ستاذ":12023,"▁Unlike":12024,"▁murd":12025,"▁الماء":12026,"▁النوع":12027,"▁variant":12028,"▁horiz":12029,"▁controll":12030,"▁restoration":12031,"▁aspects":12032,"▁driven":12033,"شا":12034,"▁ocean":12035,"».":12036,"iga":12037,"▁membership":12038,"▁Mi":12039,"▁school.":12040,"▁catch":12041,"ابه":12042,"▁Gib":12043,"▁Such":12044,"▁عامة":12045,"▁Portugal":12046,"▁Friend":12047,"▁Television":12048,"SC":12049,"▁سلسلة":12050,"▁موج":12051,"▁Morgan":12052,"▁Mississippi":12053,"▁250":12054,"▁1994,":12055,"▁التاس":12056,"▁Legisl":12057,"▁influential":12058,"▁القديمة":12059,"فيل":12060,"▁جدا":12061,"▁Pad":12062,"▁Rub":12063,"▁rooms":12064,"chest":12065,"-Ch":12066,"▁Satur":12067,"▁displayed":12068,"▁الفلكي":12069,"'';":12070,"▁المثال":12071,"▁Sche":12072,"▁تنظيم":12073,"▁الكبير":12074,"▁send":12075,"▁أستراليا":12076,"▁Birmingham":12077,"▁earthqu":12078,"▁والك":12079,"▁planet":12080,"▁11.":12081,"▁reality":12082,"▁clubs":12083,"▁nominated":12084,"▁Exper":12085,"▁Stewart":12086,"▁Benn":12087,"▁wrong":12088,"▁\"م":12089,"جمهورية":12090,"▁py":12091,"وائل":12092,"▁Gener":12093,"ailand":12094,"aware":12095,"ينيا":12096,"'''،":12097,"▁1922":12098,"▁شع":12099,"▁tells":12100,"▁Doctor":12101,"▁touchdown":12102,"otten":12103,"uma":12104,"▁there,":12105,"▁(ب":12106,"کار":12107,"▁Norm":12108,"▁اتحاد":12109,"▁criticized":12110,"▁الفرنسية":12111,"▁(,":12112,"▁rect":12113,"▁teach":12114,"يق":12115,"کت":12116,"▁منها:":12117,"▁165":12118,"lack":12119,"ودي":12120,"▁McK":12121,"An":12122,"▁loyal":12123,"▁concentration":12124,"▁consecutive":12125,"ellectual":12126,"غان":12127,"▁chance":12128,"▁Call":12129,"یم.":12130,"▁برد":12131,"en's":12132,"▁الجزائر":12133,"zo":12134,"▁persons":12135,"▁Saturday":12136,"براطورية":12137,"داء":12138,"▁المؤس":12139,"▁partly":12140,"ouver":12141,"اتي":12142,"▁Gun":12143,"▁چیزی":12144,"▁Roberts":12145,"▁au":12146,"▁yield":12147,"▁imprison":12148,"arest":12149,"▁Eug":12150,"▁Pont":12151,"▁mechanical":12152,"minister":12153,"▁جيم":12154,"▁America.":12155,"▁$3":12156,"▁pitch":12157,"shop":12158,"▁company,":12159,"▁Around":12160,"ović":12161,"▁manufactured":12162,"lington":12163,"▁integrated":12164,"▁نهر":12165,"▁maintenance":12166,"▁criticism":12167,"ذار":12168,"▁id":12169,"▁upd":12170,"▁بالا":12171,"▁1934":12172,"▁مرجع":12173,"▁1912":12174,"aks":12175,"cester":12176,"▁nest":12177,"ologies":12178,"apes":12179,"▁switch":12180,"▁باستخدام":12181,"▁طور":12182,"▁Rabb":12183,"sterdam":12184,"▁الجامعة":12185,"legraph":12186,"▁'''ك":12187,"▁(2000":12188,"▁sons":12189,"▁المرأة":12190,"▁rapidly":12191,"▁prompt":12192,"شارة":12193,"▁Kam":12194,"▁الاخت":12195,"▁investigation":12196,"oric":12197,"▁sid":12198,"iley":12199,"▁film,":12200,"كد":12201,"▁dialect":12202,"▁Moore":12203,"يدا":12204,"▁lasted":12205,"▁detailed":12206,"▁defensive":12207,"▁bat":12208,"more,":12209,"▁McD":12210,"▁patrol":12211,"▁FC":12212,"▁substantial":12213,"طيع":12214,"mont":12215,"حتى":12216,"▁Invest":12217,"▁الجديدة":12218,"ins,":12219,"▁soul":12220,"haus":12221,"ribute":12222,"▁الحل":12223,"?\"":12224,"▁Na":12225,"os.":12226,"▁shr":12227,"عام":12228,"▁factors":12229,"▁بالنسبة":12230,"▁Miller":12231,"▁standards":12232,"▁بحث":12233,"▁nickn":12234,"▁Ext":12235,"ورم":12236,"ieg":12237,"▁prisoners":12238,"▁شا":12239,"▁Stanley":12240,"▁values":12241,"▁Bes":12242,"▁Again":12243,"▁plain":12244,"▁52":12245,"▁easy":12246,"ford,":12247,"▁upgrad":12248,"▁functions":12249,"▁adapted":12250,"▁آمد":12251,"▁Frances":12252,"▁patients":12253,"ource":12254,"يرات":12255,"▁عزلة":12256,"صلاح":12257,"▁مب":12258,"aron":12259,"▁warm":12260,"BM":12261,"▁nom":12262,"▁decades":12263,"▁Tun":12264,"▁1992,":12265,"ذهب":12266,"▁Within":12267,"▁assess":12268,"▁owners":12269,"▁donated":12270,"ristol":12271,"apping":12272,"▁moder":12273,"▁وانت":12274,"▁wearing":12275,"asp":12276,"nia":12277,"ushing":12278,"عيين":12279,"▁changing":12280,"انو":12281,"father":12282,"inental":12283,"▁نسب":12284,"▁مقارنة":12285,"▁secure":12286,"▁Argentina":12287,"▁1990,":12288,"iph":12289,"▁مشروع":12290,"▁البريطانية":12291,"▁''Z":12292,"teenth":12293,"auge":12294,"▁awards":12295,"▁آب":12296,"▁Ord":12297,"▁popularity":12298,"▁nut":12299,"▁$2":12300,"dale":12301,"ST":12302,"▁تؤ":12303,"▁''d":12304,"▁site.":12305,"قف":12306,"▁Archae":12307,"▁bab":12308,"▁الجُ":12309,"ocation":12310,"▁fit":12311,"▁participate":12312,"▁access-date":12313,"▁interested":12314,"▁دوست":12315,"▁Ald":12316,"iev":12317,"▁beautiful":12318,"▁سابق":12319,"▁Freedom":12320,"▁pure":12321,"كثر":12322,"▁Armenian":12323,"▁العاصمة":12324,"▁ساب":12325,"احب":12326,"obi":12327,"▁airline":12328,"▁الشرقية":12329,"▁London.":12330,"▁الأكثر":12331,"GB":12332,"olly":12333,"▁Vic":12334,"▁(from":12335,"▁رجل":12336,"▁accessdate":12337,"anga":12338,"▁Apple":12339,"ieth":12340,"▁mamm":12341,"auc":12342,"1/":12343,"cknow":12344,"▁expensive":12345,"▁frequency":12346,"asa":12347,"ريض":12348,"▁vertical":12349,"▁البحرية":12350,"▁degrees":12351,"▁ميت":12352,"▁تستخدم":12353,"▁Michel":12354,"راعة":12355,"▁I'm":12356,"▁format":12357,"▁Nicholas":12358,"▁الشركة":12359,"▁Advent":12360,"▁House,":12361,"راح":12362,"▁technique":12363,"راز":12364,"▁danc":12365,"▁everything":12366,"▁Limited":12367,"ads":12368,"▁testing":12369,"▁coat":12370,"▁viewed":12371,"▁line,":12372,"ردم":12373,"▁Hitler":12374,"▁windows":12375,"▁flew":12376,"▁admitted":12377,"▁opinion":12378,"▁grav":12379,"▁description":12380,"▁47":12381,"▁retreat":12382,"▁Theod":12383,"▁urg":12384,"pent":12385,"coming":12386,"▁Political":12387,"ler,":12388,"▁Encyclopedia":12389,"▁Sig":12390,"▁إب":12391,"▁140":12392,"▁Tu":12393,"Le":12394,"oys":12395,"▁older.":12396,"IL":12397,"▁resort":12398,"▁Om":12399,"▁الوح":12400,"▁''t":12401,"ونات":12402,"▁hear":12403,"▁treated":12404,"لاع":12405,"▁outer":12406,"-to":12407,"▁(وي":12408,"▁I,":12409,"oil":12410,"▁1931":12411,"▁India,":12412,"▁المعروف":12413,"▁Near":12414,"▁Jose":12415,"▁Beat":12416,"▁حض":12417,"▁Fut":12418,"▁tub":12419,"▁جبل":12420,"▁longest":12421,"▁Neg":12422,"▁styl":12423,"-9":12424,"▁نتيجة":12425,"ework":12426,"مار":12427,"▁excell":12428,"▁Orle":12429,"شأ":12430,"▁satisf":12431,"ذر":12432,"▁excess":12433,"طلح":12434,"▁wat":12435,"uri":12436,"▁assistance":12437,"▁كا":12438,"ائج":12439,"enses":12440,"ise.":12441,"▁Renaissance":12442,"▁anth":12443,"انس":12444,"▁battles":12445,"▁1993,":12446,"▁1928":12447,"▁tex":12448,"▁facing":12449,"iast":12450,"▁migr":12451,"▁1932":12452,"▁فرد":12453,"osy":12454,"▁جنس":12455,"▁peop":12456,"ينما":12457,"ancell":12458,"▁suitable":12459,"▁Your":12460,"urst":12461,"▁Has":12462,"▁تعتبر":12463,"▁IN":12464,"▁عنه":12465,"▁Seattle":12466,"ؤس":12467,"▁lock":12468,"▁then,":12469,"▁ben":12470,"▁مسار":12471,"▁team.":12472,"▁distinguished":12473,"ennial":12474,"▁1921":12475,"ighters":12476,"▁ritual":12477,"▁Confederate":12478,"▁existed":12479,"ناس":12480,"▁Zh":12481,"▁bay":12482,"▁''p":12483,"riel":12484,"▁AN":12485,"▁winn":12486,"كتبة":12487,"▁orn":12488,"ist.":12489,"bal":12490,"abase":12491,"امية":12492,"▁vac":12493,"▁Iss":12494,"▁Broadway":12495,"▁occasionally":12496,"▁stayed":12497,"▁Australia,":12498,"▁Sky":12499,"▁\"أ":12500,"▁Salv":12501,"ass.":12502,"man's":12503,"▁Alt":12504,"▁vessels":12505,"▁Bud":12506,"▁intention":12507,"▁mountains":12508,"▁pp":12509,"elli":12510,"▁monitor":12511,"ocratic":12512,"fire":12513,"oret":12514,"▁rub":12515,"▁Places":12516,"▁(later":12517,"▁cinem":12518,"eton":12519,"▁1998.":12520,"▁Thailand":12521,"▁Benjamin":12522,"▁entering":12523,"over,":12524,"▁Mack":12525,"ثيل":12526,"▁superior":12527,"▁Bris":12528,"comm":12529,"▁اد":12530,"▁Publishing":12531,"كيل":12532,"جهزة":12533,"▁1924":12534,"▁bands":12535,"▁Ple":12536,"▁وقتی":12537,"غيل":12538,"▁self-":12539,"▁الرب":12540,"▁\"Y":12541,"▁components":12542,"▁(10":12543,"▁Bour":12544,"ید،":12545,"olition":12546,"ygen":12547,"▁http://www.":12548,"▁trading":12549,"ot,":12550,"▁كاتب":12551,"▁Times'',":12552,"▁acknow":12553,"▁replacement":12554,"▁drew":12555,"▁simpl":12556,"▁Support":12557,"▁Byzantine":12558,"▁الرابع":12559,"▁reasons":12560,"▁out.":12561,"نترنت":12562,"▁ده":12563,"ائف":12564,"field,":12565,"انب":12566,"▁Chang":12567,"evin":12568,"▁إعادة":12569,"borne":12570,"حاء":12571,"▁التس":12572,"illes":12573,"pha":12574,"▁Anglo-":12575,"▁Fine":12576,"▁spoke":12577,"▁unusual":12578,"▁attracted":12579,"▁commit":12580,"علم":12581,"▁Louisiana":12582,"▁water,":12583,"▁follows":12584,"▁Dream":12585,"▁arrangement":12586,"▁diver":12587,"▁وقال":12588,"عاون":12589,"▁Brooklyn":12590,"▁Ivan":12591,"roup":12592,"▁hat":12593,"▁partially":12594,"ibl":12595,"▁PA":12596,"▁Prof":12597,"grim":12598,"▁Disney":12599,"▁level.":12600,"▁cup":12601,"etime":12602,"▁الساد":12603,"▁days.":12604,"▁organis":12605,"▁المال":12606,"▁pron":12607,"▁anch":12608,"▁resid":12609,"▁Site":12610,"▁flank":12611,"▁اقت":12612,"▁colleg":12613,"واز":12614,"فاء":12615,"▁Russell":12616,"acle":12617,"ادرة":12618,"▁بهذه":12619,"▁marri":12620,"▁series.":12621,"▁Lan":12622,"▁gard":12623,"▁gone":12624,"▁community.":12625,"مين":12626,"▁bright":12627,"▁liberal":12628,"قلال":12629,"▁tiss":12630,"▁''k":12631,"▁France.":12632,"▁1915":12633,"▁نام":12634,"▁men's":12635,"L.":12636,"▁Init":12637,"▁pul":12638,"abad":12639,"▁Inc.":12640,"▁Wol":12641,"▁'''K":12642,"▁Organization":12643,"▁الحركة":12644,"▁Buff":12645,"▁Nation":12646,"▁dominated":12647,"emic":12648,"▁10,000":12649,"حول":12650,"▁hosts":12651,"▁flights":12652,"▁mos":12653,"▁convert":12654,"▁evening":12655,"▁21st":12656,"▁journey":12657,"ships":12658,"▁Lank":12659,"▁Gam":12660,"town":12661,"▁الأمم":12662,"▁عبدال":12663,"▁seasons":12664,"▁turning":12665,"▁region,":12666,"▁constitu":12667,"▁Books":12668,"▁Bulgar":12669,"▁gene":12670,"▁compete":12671,"▁Capital":12672,"▁الـ":12673,"▁Chapter":12674,"flu":12675,"ابي":12676,"▁Victorian":12677,"▁منا":12678,"كام":12679,"MC":12680,"▁cryst":12681,"▁الثورة":12682,"▁المياه":12683,"▁الإيط":12684,"▁القديم":12685,"▁plastic":12686,"▁hal":12687,"رجان":12688,"▁جزيرة":12689,"▁programme":12690,"▁Boeing":12691,"▁السلام":12692,"▁fict":12693,"gate":12694,"▁الاعت":12695,"▁ميش":12696,"▁employees":12697,"▁'''د":12698,"▁country's":12699,"▁بلدة":12700,"raham":12701,"▁missile":12702,"▁Cad":12703,"▁Orange":12704,"▁users":12705,"▁jazz":12706,"▁India.":12707,"▁لـ":12708,"▁banks":12709,"راه":12710,"▁Munich":12711,"possible":12712,"▁transportation":12713,"▁Tradition":12714,"▁1991,":12715,"▁Indians":12716,"▁extreme":12717,"▁46":12718,"▁surg":12719,"▁سوريا":12720,"▁cargo":12721,"▁immediate":12722,"▁user":12723,"▁present,":12724,"▁Nature":12725,"▁diagn":12726,"▁أمريكا":12727,"▁Hudson":12728,"▁King's":12729,"▁config":12730,"▁كن":12731,"rison":12732,"▁Muham":12733,"▁credited":12734,"hom":12735,"▁قتل":12736,"▁stages":12737,"▁Mars":12738,"▁Wilhelm":12739,"شة":12740,"or's":12741,"▁Dark":12742,"▁profit":12743,"برز":12744,"▁comic":12745,"die":12746,"▁à":12747,"راقي":12748,"▁الصين":12749,"▁predomin":12750,"usted":12751,"▁vehic":12752,"/s":12753,"FC":12754,"▁Hyd":12755,"▁Oklahoma":12756,"▁declined":12757,"▁jurisd":12758,"▁وصف":12759,"▁بزر":12760,"▁hope":12761,"▁Bak":12762,"imir":12763,"▁دل":12764,"▁fled":12765,"▁battalion":12766,"▁لف":12767,"▁explained":12768,"2).":12769,"▁زي":12770,"▁(former":12771,"PC":12772,"acon":12773,"▁والب":12774,"▁describe":12775,"▁citizen":12776,"▁canal":12777,"▁absorb":12778,"▁1916":12779,"▁possibility":12780,"▁قل":12781,"▁reputation":12782,"▁fur":12783,"using":12784,"▁للف":12785,"▁وتت":12786,"▁Romanian":12787,"▁today.":12788,"ün":12789,"▁بور":12790,"▁outd":12791,"▁affair":12792,"▁starring":12793,"▁Cass":12794,"▁Antar":12795,"▁Theater":12796,"د،":12797,"▁1923":12798,"يكا":12799,"▁1911":12800,"▁Glasgow":12801,"▁Rick":12802,"▁Greater":12803,"▁autonom":12804,"leton":12805,"forcement":12806,"وحة":12807,"1st":12808,"▁ABC":12809,"▁threatened":12810,"▁fold":12811,"ّل":12812,"▁Cart":12813,"▁Carlos":12814,"jection":12815,"▁تحديد":12816,"▁السياسية":12817,"▁Ry":12818,"▁denied":12819,"▁gent":12820,"▁executed":12821,"جنة":12822,"mel":12823,"▁تأثير":12824,"▁وتش":12825,"▁waste":12826,"▁signs":12827,"endar":12828,"▁(ويعرف":12829,"▁Amsterdam":12830,"▁satellite":12831,"isp":12832,"▁رب":12833,"▁الاجتماعية":12834,"-called":12835,"▁US$":12836,"▁approval":12837,"▁rescue":12838,"▁encouraged":12839,"SS":12840,"ures.":12841,"▁Instead":12842,"-17":12843,"▁portrayed":12844,"▁populations":12845,"برة":12846,"▁prol":12847,"▁المف":12848,"▁1925":12849,"▁burial":12850,"▁Malt":12851,"ؤلاء":12852,"▁Similar":12853,"abilities":12854,"▁Biography":12855,"▁Brazilian":12856,"▁Study":12857,"omber":12858,"▁drivers":12859,"ِي":12860,"▁Saud":12861,"▁وإن":12862,"iki":12863,"▁Prote":12864,"▁Bristol":12865,"▁(لاعب":12866,"▁empire":12867,"▁apparently":12868,"▁girls":12869,"اطق":12870,"▁flower":12871,"▁circumst":12872,"▁devices":12873,"▁كام":12874,"▁الجُرم":12875,"▁Expl":12876,"▁scoring":12877,"▁800":12878,"LC":12879,"▁contribution":12880,"▁بغداد":12881,"▁Friedrich":12882,"▁Emer":12883,"▁father's":12884,"▁Rap":12885,"▁للك":12886,"شهاد":12887,"IM":12888,"▁neither":12889,"▁السك":12890,"▁Tam":12891,"▁together,":12892,"ricted":12893,"جميع":12894,"aneous":12895,"▁النفس":12896,"▁Road,":12897,"واف":12898,"▁''En":12899,"▁Mongol":12900,"▁Type":12901,"▁Si":12902,"▁يص":12903,"▁classic":12904,"▁none":12905,"▁compound":12906,"▁desire":12907,"▁Google":12908,"bo":12909,"▁regime":12910,"▁(الم":12911,"▁SR":12912,"▁prohib":12913,"stic":12914,"▁Cle":12915,"▁connecting":12916,"EM":12917,"▁Graham":12918,"▁labour":12919,"وليك":12920,"▁Ot":12921,"همة":12922,"▁Hend":12923,"▁radar":12924,"▁exhibit":12925,"▁Petersburg":12926,"عبد":12927,",''":12928,"▁صغيرة":12929,"▁policies":12930,"خول":12931,"▁Bav":12932,"▁i'm":12933,"سيط":12934,"▁الهي":12935,"▁ceased":12936,"▁Jordan":12937,"thm":12938,"▁اث":12939,"uh":12940,"▁CEO":12941,"▁Racing":12942,"▁13.":12943,"▁Dak":12944,"▁Baltimore":12945,"▁reduction":12946,"▁Ess":12947,"▁(7":12948,"osevel":12949,"▁continuing":12950,"otes":12951,"▁Spirit":12952,"بنى":12953,"▁areas,":12954,"▁sequence":12955,"▁حسين":12956,"▁raid":12957,"▁أسا":12958,"▁secretary":12959,"▁Nep":12960,"▁Born":12961,"▁remove":12962,"▁Shang":12963,"▁ويمكن":12964,"جاح":12965,"▁ju":12966,"▁Manhatt":12967,"ountain":12968,"idal":12969,"ondon":12970,"قی":12971,"▁happened":12972,"▁Rain":12973,"▁enclos":12974,"▁propag":12975,"quir":12976,"▁Years":12977,"▁alcohol":12978,"▁Tibet":12979,"▁Dead":12980,"▁باريس":12981,"▁clearly":12982,"▁بيروت":12983,"▁CN":12984,"▁strict":12985,"▁cous":12986,"▁episodes":12987,"land.":12988,"▁operator":12989,"هت":12990,"▁Niger":12991,"rift":12992,"▁جعل":12993,"▁stick":12994,"▁completion":12995,"illiam":12996,"▁چرا":12997,"▁Lad":12998,"▁1927":12999,"▁إخراج":13000,"▁Cou":13001,"▁Ward":13002,"phony":13003,"▁وغ":13004,"▁comedy":13005,"▁Tang":13006,"\";":13007,"opes":13008,"▁Mann":13009,"▁إف":13010,"▁1913":13011,"▁لبنان":13012,"▁instruct":13013,"ti":13014,"▁شعب":13015,"▁Mort":13016,"▁exposed":13017,"▁ninet":13018,"▁annex":13019,"▁dream":13020,"▁Sic":13021,"▁cavalry":13022,"rock":13023,"ندر":13024,"افع":13025,"▁نو":13026,"▁Industrial":13027,"▁أمر":13028,"ails":13029,"▁Tol":13030,"▁حالا":13031,"▁انتقل":13032,"▁recommended":13033,"▁tempor":13034,"chi":13035,"apse":13036,"مم":13037,"▁1950s":13038,"▁بعضهم":13039,"▁copy":13040,"/or":13041,"▁wedd":13042,"▁provision":13043,"▁discovery":13044,"▁Kun":13045,"roph":13046,"▁habitat":13047,"▁Pittsburgh":13048,"▁camera":13049,"apolis":13050,"–15":13051,"▁Richmond":13052,"▁mac":13053,"صدار":13054,"W.":13055,"ersed":13056,"▁conventional":13057,"▁UC":13058,"seud":13059,"▁od":13060,"▁Branch":13061,"uilding":13062,"awn":13063,"▁Ship":13064,"redited":13065,"PR":13066,"cha":13067,"▁السياسي":13068,"▁decorated":13069,"▁تغ":13070,"▁(New":13071,"▁تطوير":13072,"▁Seven":13073,"away":13074,"وزيع":13075,"▁هار":13076,"OT":13077,"▁pian":13078,"▁غال":13079,"شرون":13080,"cont":13081,"▁Aircraft":13082,"▁long,":13083,"▁Peninsula":13084,".cite":13085,"hite":13086,"▁إنشاء":13087,"س،":13088,"▁trend":13089,"▁again,":13090,"▁praised":13091,"irk":13092,"▁Artillery":13093,"هند":13094,"▁Vlad":13095,"▁مناطق":13096,"▁conservation":13097,"▁fert":13098,"▁rising":13099,"-General":13100,"▁قناة":13101,"ائب":13102,"▁crossed":13103,"▁Windows":13104,"▁wounded":13105,"▁include:":13106,"hill":13107,"orus":13108,"▁تأس":13109,"▁outbreak":13110,"▁classification":13111,"▁)،":13112,"یی":13113,"▁Fellow":13114,"▁الصنا":13115,"▁definition":13116,"teg":13117,"asant":13118,"▁copies":13119,"▁العصر":13120,"oda":13121,"▁bath":13122,"▁Alliance":13123,"▁روسيا":13124,"جليزية":13125,"▁Gate":13126,"▁''De":13127,"▁summit":13128,"▁els":13129,"lades":13130,"ovo":13131,"▁traditionally":13132,"▁DVD":13133,"oni":13134,"▁heads":13135,"ellion":13136,"▁معركة":13137,"▁Ka":13138,"amburg":13139,"▁(بالإنكليزية":13140,"▁يوسف":13141,"▁replacing":13142,"▁Dublin":13143,"▁phenomen":13144,"▁root":13145,"لبية":13146,"▁synthes":13147,"▁Officer":13148,"▁depicted":13149,"▁Franç":13150,"▁Hold":13151,"itic":13152,"▁wel":13153,"▁extens":13154,"حيان":13155,"▁کو":13156,"archive.":13157,"zi":13158,"ثى":13159,"▁thirty":13160,"▁1926":13161,"heme":13162,"▁children's":13163,"▁Small":13164,"▁loan":13165,"▁frequent":13166,"lett":13167,"▁which,":13168,"▁\"It":13169,"▁courses":13170,"▁passage":13171,"lik":13172,"oly":13173,"▁(such":13174,"▁ideal":13175,"▁الموسم":13176,"▁branches":13177,"▁وض":13178,"▁Henri":13179,"ample":13180,"بيض":13181,"▁اول":13182,"ancouver":13183,"جع":13184,"ناصر":13185,"▁اص":13186,"▁الدرجة":13187,"▁flows":13188,"نوان":13189,"▁debate":13190,"▁links":13191,"▁Lane":13192,"▁oblig":13193,"re,":13194,"شب":13195,"▁ing":13196,"▁Also,":13197,"▁mile":13198,"▁يلعب":13199,"▁فوق.":13200,"▁Prom":13201,"▁المواد":13202,"▁https://":13203,"▁بأنه":13204,"▁sure":13205,"▁Muhammad":13206,"▁involvement":13207,"▁house,":13208,"▁expert":13209,"aration":13210,"▁Youth":13211,"▁cable":13212,"regation":13213,"حب":13214,"▁155":13215,"arr":13216,"ery,":13217,"akespe":13218,"▁characterized":13219,"▁War,":13220,"alm":13221,"▁البد":13222,"▁defence":13223,"▁traveled":13224,"زين":13225,"▁collaboration":13226,"▁176":13227,"ifted":13228,"▁politics":13229,"▁لين":13230,"▁company's":13231,"ra,":13232,"▁Jenn":13233,"▁التابعة":13234,"bound":13235,"▁Canada,":13236,"▁المختلف":13237,"athered":13238,"▁Campaign":13239,"osopher":13240,"▁valid":13241,"–6":13242,"▁Digital":13243,"ilation":13244,"▁بتاريخ":13245,"▁Cold":13246,"▁finds":13247,"▁accounts":13248,"اصر":13249,"achment":13250,"▁leaf":13251,"▁interests":13252,"▁skill":13253,"eed":13254,"▁provincial":13255,"▁المدرسة":13256,"▁service,":13257,"urrent":13258,"▁السري":13259,"▁out,":13260,"كتاب":13261,"omic":13262,"▁memor":13263,"▁لما":13264,"علوم":13265,"▁الدراسات":13266,"folk":13267,"▁amongst":13268,"▁so-called":13269,"▁Urban":13270,"▁elsewhere":13271,"▁Mall":13272,"ipped":13273,"▁Thus,":13274,"▁colony":13275,"▁music,":13276,"▁concerns":13277,"رر":13278,"▁Isa":13279,"رجنت":13280,"وائز":13281,"▁trap":13282,"dal":13283,"▁(بالإنكليزية)":13284,"▁تنا":13285,"▁الأر":13286,"▁روم":13287,"▁appearances":13288,"▁أور":13289,"▁Nad":13290,"▁جاء":13291,"▁Indonesia":13292,"▁confirm":13293,"▁Mult":13294,"وذج":13295,"▁همین":13296,"▁Mother":13297,"lag":13298,"▁species,":13299,"▁pill":13300,"▁team,":13301,"▁وث":13302,"▁Hab":13303,"▁state,":13304,"i.e.":13305,"tainment":13306,"▁بالف":13307,"▁Roosevel":13308,"▁Princip":13309,"حاب":13310,"erk":13311,"▁finishing":13312,"ah,":13313,"▁drag":13314,"▁rig":13315,"▁Hebrew":13316,"▁extend":13317,"▁Phoen":13318,"▁الفريق":13319,"▁essential":13320,"▁starts":13321,"▁poverty":13322,"▁بلاد":13323,"▁شيء":13324,"▁Germany.":13325,"▁Iranian":13326,"▁and/or":13327,"▁use.":13328,"▁guide":13329,"▁arc":13330,"▁كلا":13331,"▁Florence":13332,"وبي":13333,"EL":13334,"▁Living":13335,"▁Herald":13336,"while,":13337,"▁powered":13338,"▁Until":13339,"▁وحتى":13340,"▁strategic":13341,"ناطق":13342,"▁\"We":13343,"ن،":13344,"▁fabric":13345,"▁لهم":13346,"▁تجمع":13347,"▁K.":13348,"▁condem":13349,"▁بري":13350,"▁وآ":13351,"يطة":13352,"▁cloud":13353,"itarian":13354,"▁housed":13355,"▁Hein":13356,"▁تتبع":13357,"کرد":13358,"▁slave":13359,"don":13360,"▁يقول":13361,"▁mit":13362,"▁extent":13363,"a'',":13364,"▁diplomatic":13365,"▁recept":13366,"▁CA":13367,"▁practical":13368,"▁Tamil":13369,"▁emerged":13370,"▁هدف":13371,"▁الإناث":13372,"▁forg":13373,"▁carrier":13374,"▁Cond":13375,"▁البرا":13376,"▁Today,":13377,"رجمة":13378,"▁(8":13379,"▁درب":13380,"▁Kos":13381,"▁giant":13382,"جزاء":13383,"▁controversial":13384,"▁segment":13385,"-level":13386,"▁safe":13387,"icip":13388,"▁Section":13389,"▁Pun":13390,"▁السب":13391,"ُّ":13392,"▁الرئيسية":13393,"▁supplies":13394,"▁challenge":13395,"▁resigned":13396,"▁finding":13397,"err":13398,"▁البيض":13399,"▁NASA":13400,"▁الخارجية":13401,"iah":13402,"uart":13403,"▁85":13404,"▁اللبن":13405,"▁writers":13406,"furt":13407,"▁bacter":13408,"▁battery":13409,"▁الغرب":13410,"▁1990s":13411,"▁Fitz":13412,"cho":13413,"▁illegal":13414,"▁unsuccess":13415,"▁suppress":13416,"rogen":13417,"harm":13418,"▁أيام":13419,"▁Street.":13420,"▁explo":13421,"▁Vers":13422,"▁rhy":13423,"oren":13424,"▁synd":13425,"▁you're":13426,"▁الأولمبية":13427,"▁Marshall":13428,"▁keeping":13429,"▁Occ":13430,"▁العالمي":13431,"▁facilit":13432,"▁It's":13433,"g.,":13434,"akespeare":13435,"▁أعضاء":13436,"▁mor":13437,"▁dock":13438,"▁wings":13439,"ون.":13440,"OL":13441,"▁missions":13442,"▁Nam":13443,"▁مسيرته":13444,"rose":13445,"▁used.":13446,"▁همان":13447,"▁الام":13448,"▁v.":13449,"▁السا":13450,"▁عبارة":13451,"▁promotion":13452,"andal":13453,"▁Australia.":13454,"▁dual":13455,"▁FA":13456,"▁Chapel":13457,"EA":13458,"ley.":13459,"▁borough":13460,"▁Hig":13461,"▁الكهرب":13462,"▁المض":13463,"onnaissance":13464,"▁زيادة":13465,"▁المحيط":13466,"▁sustain":13467,"1).":13468,"▁apartment":13469,"▁Len":13470,"▁الجد":13471,"▁continuous":13472,"▁junior":13473,"▁produces":13474,"▁يك":13475,"▁دن":13476,"él":13477,"▁Tokyo":13478,"▁species.":13479,"▁session":13480,"section":13481,"▁applications":13482,"cribed":13483,"▁Gust":13484,"▁bell":13485,"▁Tow":13486,"E,":13487,"▁tons":13488,"orig":13489,"ؤون":13490,"▁tied":13491,"▁اليد":13492,"▁nations":13493,"▁Kentucky":13494,"▁موضوع":13495,"▁rice":13496,"▁Vas":13497,"▁territories":13498,"▁singing":13499,"▁Had":13500,"▁حي":13501,"▁opponent":13502,"▁Hous":13503,"enger":13504,"▁Barcel":13505,"▁acceler":13506,"▁المبار":13507,"▁artic":13508,"▁Dog":13509,"▁ST":13510,"▁administer":13511,"▁genetic":13512,"▁cathedral":13513,".G":13514,"▁Fif":13515,"▁لقد":13516,"عال":13517,"present":13518,"400":13519,"ibbean":13520,"▁graduate":13521,"▁candidates":13522,"–7":13523,"▁مين":13524,"▁California,":13525,"▁boats":13526,"last":13527,"▁truth":13528,"ness.":13529,"▁noble":13530,"▁households":13531,"▁حدث":13532,"▁الهجوم":13533,"mill":13534,"▁scheme":13535,"▁preferred":13536,"ст":13537,"▁العظم":13538,"▁men,":13539,"anni":13540,"▁indicates":13541,"▁advis":13542,"▁دمشق":13543,"▁stress":13544,"▁Guardian":13545,"▁بسی":13546,"▁her,":13547,"▁البحث":13548,"▁1989,":13549,"embers":13550,"▁vul":13551,"▁تقوم":13552,"▁comed":13553,"-west":13554,"▁days,":13555,"▁توجد":13556,"agre":13557,"▁tribes":13558,"▁playoff":13559,"▁message":13560,"▁males":13561,"appro":13562,"▁disaster":13563,"▁China,":13564,"resident":13565,"▁Dean":13566,"▁تقدم":13567,"ous.":13568,"يا،":13569,"صابة":13570,"▁gran":13571,"ologists":13572,"▁closer":13573,"▁معروف":13574,"▁London:":13575,"▁الطريق":13576,"abet":13577,"▁Secret":13578,"▁\"in":13579,"▁مرض":13580,"▁Sid":13581,"▁Woman":13582,"▁atmosphere":13583,"▁Gor":13584,"▁Ryan":13585,"▁1908":13586,"-scale":13587,"▁side.":13588,"▁Magn":13589,"-k":13590,"▁Banglades":13591,"omp":13592,"▁الأب":13593,"نات":13594,"web.":13595,"▁shock":13596,"▁مقابل":13597,"▁seventh":13598,"▁wins":13599,"بطة":13600,"oga":13601,"▁shooting":13602,"▁الأصل":13603,"▁abroad":13604,"▁empt":13605,"▁FM":13606,"-fl":13607,"▁profile":13608,"▁males.":13609,"inations":13610,"▁بنفس":13611,"▁‌":13612,"▁Wor":13613,"lon":13614,"ów":13615,"▁Gon":13616,"▁cul":13617,"▁Operations":13618,"▁Bath":13619,"▁التاسع":13620,"▁يعرف":13621,"▁Speed":13622,"ابن":13623,"شرف":13624,"▁remainder":13625,"born":13626,"▁divor":13627,"▁رأ":13628,"▁البريطاني":13629,"▁Nelson":13630,"▁حمل":13631,"▁ماي":13632,"s'',":13633,"▁ride":13634,"▁الغربي":13635,"bow":13636,"▁movements":13637,"▁Monument":13638,"▁Philippine":13639,"▁Rot":13640,"▁دين":13641,"▁Yorkshire":13642,"▁book,":13643,"br":13644,"▁evacu":13645,"▁130":13646,"▁Hampshire":13647,"aque":13648,"▁intellectual":13649,"▁Tan":13650,"ويم":13651,"▁Herman":13652,"▁Chand":13653,"\"''":13654,"▁Past":13655,"▁الكلي":13656,"▁استمر":13657,"▁manner":13658,"▁Aqu":13659,"▁Box":13660,"▁النقطة":13661,"▁الجوية":13662,"▁Later,":13663,"▁Dub":13664,"▁Arabic":13665,"▁hunting":13666,"▁1997.":13667,"▁فان":13668,"راسة":13669,"▁فهم":13670,"▁contributions":13671,"▁aimed":13672,"▁Milan":13673,"▁penal":13674,"ensis":13675,".P":13676,"▁Dod":13677,"ليام":13678,"▁However":13679,"▁Kan":13680,"▁divisions":13681,"ahl":13682,"▁subt":13683,"▁anyone":13684,"▁بخبر":13685,"ificial":13686,"▁Tig":13687,"▁المنظمات":13688,"▁56":13689,"▁compens":13690,"ner,":13691,"▁treaty":13692,"▁domain":13693,"▁poetry":13694,"▁Celt":13695,"▁النظ":13696,"▁strengthen":13697,"▁Cher":13698,"▁jump":13699,"anks":13700,"▁commanded":13701,"▁Along":13702,"▁Serge":13703,"▁victims":13704,"ively,":13705,"▁1800":13706,"300":13707,"▁others,":13708,"▁radical":13709,"▁sugar":13710,"▁شن":13711,"▁Vancouver":13712,"▁gal":13713,"▁الجمعية":13714,"▁descent":13715,"ليزي":13716,"▁meat":13717,"▁inscription":13718,"‬‬":13719,"▁underst":13720,"خاب":13721,"ی،":13722,"▁charges":13723,"ierra":13724,"▁Warsaw":13725,"▁Catherine":13726,"عه":13727,"▁tort":13728,"▁agency":13729,"▁desert":13730,"▁Medicine":13731,"▁Snow":13732,"اديمية":13733,"▁gender":13734,"alia":13735,"▁instruments":13736,"soft":13737,"▁audio":13738,"▁إليه":13739,"ونا":13740,"▁else":13741,"itary":13742,"sea":13743,"▁philosophy":13744,"▁Slav":13745,"▁تنت":13746,"▁dominant":13747,"▁المحيطة":13748,"▁54":13749,"▁assembly":13750,"▁1905":13751,"فاظ":13752,"▁Herbert":13753,"▁MS":13754,"▁Belgian":13755,"لاك":13756,"-cont":13757,"▁Fisher":13758,"▁درست":13759,"قام":13760,"سباب":13761,"▁recommend":13762,"ney,":13763,"olith":13764,"▁layer":13765,"زه":13766,"ected":13767,"▁1906":13768,"▁i.":13769,"▁القرآن":13770,"hil":13771,"▁ماد":13772,"▁identify":13773,"about":13774,"▁(192":13775,"▁demonstrated":13776,"▁characteristics":13777,"iffer":13778,"▁تعمل":13779,"angular":13780,"▁universities":13781,"▁critics":13782,"لفت":13783,"واصل":13784,"▁Bulg":13785,"P,":13786,"▁filed":13787,"▁pig":13788,"ifest":13789,"▁Kevin":13790,"▁diet":13791,"▁impossible":13792,"▁victor":13793,"ولات":13794,"top":13795,"▁visiting":13796,"archive.org/":13797,"▁businesses":13798,"avid":13799,"▁Municipal":13800,"▁باست":13801,"▁increases":13802,"ibli":13803,"▁Gilbert":13804,"/S":13805,"▁Aren":13806,"▁concerned":13807,"ruption":13808,"ارض":13809,"يوان":13810,"▁restaurant":13811,"▁الشمس":13812,"▁authors":13813,"▁Pra":13814,"ائرات":13815,"▁Institut":13816,"▁ارتفاع":13817,"▁Ground":13818,"▁(185":13819,"uda":13820,"مع":13821,"▁diff":13822,"▁طلب":13823,"▁reportedly":13824,"▁recru":13825,"▁efficient":13826,"▁عنوان":13827,"▁Event":13828,"▁rating":13829,"▁well,":13830,"atin":13831,"اثوليك":13832,"▁Seb":13833,"▁hybrid":13834,"▁shares":13835,"▁Conservation":13836,"▁Much":13837,"▁Ru":13838,"▁تحقيق":13839,"bane":13840,"▁infrastructure":13841,"▁alliance":13842,"▁الإسلامي":13843,".D":13844,"▁IC":13845,"▁hockey":13846,"▁كندي":13847,"▁cattle":13848,"enos":13849,"▁''b":13850,"▁Harbor":13851,"▁Deputy":13852,"▁إضافة":13853,"▁Player":13854,"▁students.":13855,"-shaped":13856,"▁Ferr":13857,"▁humans":13858,"▁هؤلاء":13859,"▁الألمانية":13860,"▁horses":13861,"▁Pedro":13862,"▁صوت":13863,"bs":13864,"▁Bey":13865,"رائي":13866,"▁(i.e.":13867,"▁orchestra":13868,"▁Guine":13869,"▁بقي":13870,"▁summ":13871,"▁لغ":13872,"▁ممثلة":13873,"▁permission":13874,"▁Baptist":13875,"▁town,":13876,"▁requirements":13877,"جاج":13878,"يا.":13879,"▁elder":13880,"▁Serbian":13881,"▁simult":13882,"يزة":13883,"▁oxygen":13884,"▁پای":13885,"▁sovere":13886,"ندوق":13887,"▁مسلسل":13888,"▁Thor":13889,"▁Champion":13890,"▁torped":13891,"▁countries,":13892,"orous":13893,"▁دائرة":13894,"▁moral":13895,"توسط":13896,"▁injury":13897,"▁Luis":13898,"▁republic":13899,"▁mental":13900,"▁بلدية":13901,"▁episod":13902,"▁Fem":13903,"master":13904,"ов":13905,"▁Campbell":13906,"▁string":13907,"▁spoken":13908,"▁behalf":13909,"▁NBA":13910,"▁possession":13911,"ومتر":13912,"▁Cole":13913,"▁discip":13914,"▁Chairman":13915,"▁Delt":13916,"▁Montreal":13917,"-v":13918,"▁أولاد":13919,"▁legislation":13920,"▁يعد":13921,"▁shopping":13922,"d.":13923,"▁1850":13924,"istance":13925,"▁venue":13926,"▁Nobel":13927,"▁archaeological":13928,"owed":13929,"▁ويو":13930,"eu":13931,"▁whilst":13932,"عليم":13933,"▁UE":13934,"▁14.":13935,"▁nucle":13936,"▁تونس":13937,"▁وبالتالي":13938,"roduction":13939,"▁حكومة":13940,"▁أنحاء":13941,"جري":13942,"▁Ce":13943,"▁Deuts":13944,"▁drama":13945,"▁glac":13946,"▁اجتما":13947,"atar":13948,"▁flour":13949,"▁Murray":13950,"▁reducing":13951,"▁Dave":13952,"تان":13953,"▁الكنيسة":13954,"-16":13955,"▁predecess":13956,"3).":13957,"▁أدى":13958,"▁Neb":13959,"▁sect":13960,"▁Kath":13961,"صاب":13962,"نین":13963,"▁fest":13964,"▁steep":13965,"isch":13966,"▁زن":13967,"▁Buch":13968,"▁anti":13969,"▁LC":13970,"▁حياة":13971,"▁Beij":13972,"▁Hugh":13973,"احية":13974,"▁losses":13975,"rehensive":13976,"icon":13977,"▁announce":13978,"▁الأخيرة":13979,"▁سه":13980,"▁كث":13981,"E)":13982,"▁الحض":13983,"▁Chall":13984,"▁Warren":13985,"aja":13986,"etty":13987,"arting":13988,"▁discontin":13989,"▁Archbishop":13990,"▁Parish":13991,"▁gift":13992,"▁المجموع":13993,"▁Ferdin":13994,"▁behavi":13995,"▁Miami":13996,"▁(و.":13997,"▁الوزراء":13998,"▁قاعدة":13999,"▁Bron":14000,"▁Vel":14001,"▁Wes":14002,"ugu":14003,"▁tanks":14004,"دية":14005,"▁percentage":14006,"▁vel":14007,"▁shield":14008,"raf":14009,"▁ذا":14010,"▁التالية":14011,"▁explain":14012,"▁on,":14013,"zig":14014,"▁throne":14015,"illo":14016,"▁Ethiop":14017,"▁Roosevelt":14018,"ingly":14019,"▁المجموعة":14020,"RT":14021,"▁يو":14022,"▁دخت":14023,"aman":14024,"RS":14025,"ignment":14026,"▁station.":14027,"داشت":14028,"▁landed":14029,"▁Horse":14030,"َل":14031,"▁Salt":14032,"▁وعند":14033,"▁cave":14034,"ويلة":14035,"uper":14036,"otal":14037,"▁عسك":14038,"▁practices":14039,"▁accord":14040,"▁horn":14041,"▁Jefferson":14042,"avan":14043,"▁؟":14044,"▁blocks":14045,"▁(re":14046,"roid":14047,"▁item":14048,"▁Therefore":14049,"hl":14050,"▁1945,":14051,"▁الحدود":14052,"سبوع":14053,"▁nit":14054,"-law":14055,"▁plac":14056,"var":14057,"▁turns":14058,"HS":14059,"▁الاجتماعي":14060,"علان":14061,"فته":14062,"ظة":14063,"▁stim":14064,"▁Carter":14065,"▁measured":14066,"7).":14067,"▁duties":14068,"opal":14069,"▁125":14070,"هتمام":14071,"▁Furthermore,":14072,"▁محا":14073,"▁prince":14074,"▁جر":14075,"ATO":14076,"where":14077,"lectric":14078,"▁BM":14079,"▁grave":14080,"6).":14081,"▁وی":14082,"▁Transit":14083,"atra":14084,"▁'''إ":14085,"▁Lov":14086,"I.":14087,"▁العلاج":14088,"▁(9":14089,"▁Pic":14090,"▁SP":14091,"▁suspended":14092,"es:":14093,"ومب":14094,"4).":14095,"▁Caribbean":14096,"▁choose":14097,"▁process.":14098,"▁الوحدات":14099,"web.archive.org/":14100,"▁neutral":14101,"▁guilt":14102,"ansk":14103,"front":14104,"▁fossil":14105,"▁settlers":14106,"▁تقديم":14107,"web.archive.org/web":14108,"▁Territory":14109,"igrated":14110,"▁1996.":14111,"▁Imp":14112,"▁Gothic":14113,"▁Full":14114,"idad":14115,"عددة":14116,"حيح":14117,"ds":14118,"▁(س":14119,"▁barrel":14120,"▁Literature":14121,"▁Case":14122,"▁joining":14123,"▁لجنة":14124,"H.":14125,"▁establishing":14126,"▁Formula":14127,"تماد":14128,"▁monastery":14129,"حلة":14130,"▁rac":14131,"▁license":14132,"bird":14133,"▁XV":14134,"▁asc":14135,"eta":14136,"iture":14137,"▁(th":14138,"▁الإعلام":14139,"ه‌ها":14140,"▁Stein":14141,"▁escort":14142,"▁soldier":14143,"▁NS":14144,"▁case,":14145,"▁conservative":14146,"▁شاه":14147,"rapy":14148,"dy":14149,"▁group,":14150,"▁games.":14151,"▁شک":14152,"▁الشيو":14153,"▁البيانات":14154,"ستم":14155,"▁Griff":14156,"!\"":14157,"▁GT":14158,"▁الباب":14159,"▁الإلكتر":14160,"en''":14161,"▁energ":14162,"▁company.":14163,"▁seeking":14164,"▁siege":14165,"▁underw":14166,"▁missing":14167,"▁supplied":14168,"▁Pin":14169,"▁Hall,":14170,"books":14171,"▁steps":14172,"law":14173,"▁Know":14174,"▁Bod":14175,"▁comfort":14176,"▁generated":14177,"ifies":14178,"فاعل":14179,"ooking":14180,"▁Norfolk":14181,"▁lowest":14182,"بدو":14183,"rost":14184,"acked":14185,"▁torn":14186,".R":14187,"–9":14188,"جلترا":14189,"▁efficien":14190,"▁Bert":14191,"rt":14192,"esis":14193,"▁المستخدم":14194,"▁strate":14195,"▁Champions":14196,"▁Senior":14197,"▁Giov":14198,"zing":14199,"▁SA":14200,"emed":14201,"▁Barn":14202,"▁aqu":14203,"rob":14204,"▁junction":14205,"former":14206,"سيك":14207,"▁gets":14208,"▁genre":14209,"يري":14210,"لز":14211,"ارقة":14212,"▁strategy":14213,"▁initiated":14214,"gie":14215,"ions,":14216,"▁Brothers":14217,"▁Toy":14218,"▁MA":14219,"▁tube":14220,"▁heir":14221,"▁Christianity":14222,"▁Und":14223,"▁Esp":14224,"▁عمليات":14225,"entieth":14226,"writer":14227,"▁آدم":14228,"▁deaths":14229,"▁وحيد":14230,"▁Alabama":14231,"uez":14232,"▁VII":14233,"▁teeth":14234,"▁surpr":14235,"يرلندا":14236,"▁نص":14237,"▁'''ت":14238,"▁الإنترنت":14239,"▁الرحمن":14240,"th,":14241,"▁:''":14242,"ن.":14243,"▁سلة":14244,"▁skills":14245,"▁adm":14246,"ظاهر":14247,"▁Iowa":14248,"نام":14249,"نمية":14250,"▁ومد":14251,"▁thin":14252,"▁supports":14253,"ivation":14254,"▁السيد":14255,"▁breeding":14256,"▁theat":14257,"▁appropriate":14258,"▁Shakespeare":14259,"▁Schools":14260,"شتر":14261,"▁Hem":14262,"▁Pel":14263,"▁stead":14264,"▁1/":14265,"▁fat":14266,"▁exha":14267,"أمة":14268,"▁Lloyd":14269,"ocket":14270,"اريو":14271,"▁Brew":14272,"▁publicly":14273,"▁gang":14274,"وانين":14275,"levard":14276,"▁Doc":14277,"▁emperor":14278,"▁الدكتور":14279,"▁بالع":14280,"▁merchant":14281,"▁convention":14282,"u''":14283,"ulating":14284,"▁services.":14285,"▁Amaz":14286,"▁الوسطى":14287,"▁Adams":14288,"▁rib":14289,"شيد":14290,"▁بالح":14291,"▁براي":14292,"▁earn":14293,"▁اليابان":14294,"▁seconds":14295,"▁enjoyed":14296,"▁rarely":14297,"حتها":14298,"▁Tax":14299,"▁و.":14300,"و'''":14301,"▁110":14302,"odern":14303,"ضاف":14304,"▁Japan,":14305,"▁childhood":14306,"▁coup":14307,"▁suffering":14308,"▁مون":14309,"ائع":14310,"▁eleven":14311,"▁prize":14312,"▁Venice":14313,"▁falls":14314,"▁53":14315,"▁months.":14316,"osex":14317,"▁volt":14318,"▁الشباب":14319,"▁1980s,":14320,"ensed":14321,"▁Utah":14322,"▁Oil":14323,"▁Mak":14324,"▁nurs":14325,"▁Apoll":14326,"▁Psych":14327,"▁پا":14328,"▁Sarah":14329,"▁Representatives":14330,"pine":14331,"▁competed":14332,"forced":14333,"▁twin":14334,"▁input":14335,"▁Mitchell":14336,"▁نصف":14337,"▁FIFA":14338,"▁2:":14339,"لمات":14340,"▁land,":14341,"▁(e.g.":14342,"cell":14343,"600":14344,"▁Kon":14345,"▁sympt":14346,"▁requirement":14347,"i)":14348,"▁رد":14349,"▁95":14350,"رافية":14351,"▁Reich":14352,"▁Pir":14353,"ags":14354,"▁accessible":14355,"▁اللعب":14356,"▁Singh":14357,"8).":14358,"▁Rou":14359,"▁Abraham":14360,"▁abund":14361,"▁Tob":14362,"ذب":14363,"▁apply":14364,"▁Independence":14365,"▁are:":14366,"▁knock":14367,"▁(الاسم":14368,"▁(who":14369,"▁الحس":14370,"▁keyboard":14371,"ists.":14372,"▁pole":14373,"kov":14374,"ishn":14375,"▁University,":14376,"▁(ف":14377,"uzz":14378,"▁دورة":14379,"▁participation":14380,"▁Robinson":14381,"▁design,":14382,"▁Steel":14383,"▁مات":14384,"▁آسيا":14385,"▁51":14386,"▁Prad":14387,"▁Hamburg":14388,"▁Nash":14389,"يفيد":14390,"▁dangerous":14391,"▁al.":14392,"▁medicine":14393,"▁attraction":14394,"▁بايد":14395,"▁Coal":14396,"▁وادي":14397,"▁Africa,":14398,"▁aircraft.":14399,"▁الحديد":14400,"ourag":14401,"▁net":14402,"ُم":14403,"▁المقد":14404,"ader":14405,"▁falling":14406,"▁Palestinian":14407,"▁'''The":14408,"neur":14409,"▁لويس":14410,"▁relocated":14411,"ئاسة":14412,"▁سيدي":14413,"▁electricity":14414,"یب":14415,"▁سو":14416,"▁Manuel":14417,"▁Brid":14418,"▁XX":14419,"▁qualified":14420,"lic":14421,"▁Saudi":14422,"▁dra":14423,"▁notice":14424,"ourse":14425,"▁حدود":14426,"▁البرت":14427,"قتصادي":14428,"▁conversion":14429,"▁اكت":14430,"pled":14431,"▁coin":14432,"▁الغذ":14433,"▁locomotive":14434,"▁responded":14435,"▁Christians":14436,"▁می‌خوا":14437,"▁SC":14438,"▁acknowled":14439,"itals":14440,"▁يأ":14441,"▁جل":14442,"▁questions":14443,"▁obst":14444,"▁Transportation":14445,"▁I.":14446,"▁weekend":14447,"hal":14448,"▁Policy":14449,"▁كثافة":14450,"▁unp":14451,"▁لر":14452,"▁الجسم":14453,"▁physician":14454,"▁prototype":14455,"▁تأسيس":14456,"▁revenue":14457,"▁أربعة":14458,"▁Fig":14459,"▁Thompson":14460,"▁horizont":14461,"au,":14462,"تج":14463,"▁pictures":14464,"hent":14465,"هادة":14466,"▁supporters":14467,"scar":14468,"▁هيئة":14469,"rypt":14470,"▁fill":14471,"▁Element":14472,"▁\"n":14473,"▁jet":14474,"شفى":14475,"▁femin":14476,"&d":14477,"hand":14478,"ately,":14479,"▁Hispanic":14480,"▁Eston":14481,"urope":14482,"▁doors":14483,"▁freight":14484,"-born":14485,"▁belonged":14486,"▁stem":14487,"▁collections":14488,"▁آم":14489,"▁phone":14490,"▁appeal":14491,"▁restricted":14492,"▁originated":14493,"orer":14494,"▁UEFA":14495,"–10":14496,"ices,":14497,"istant":14498,"–17":14499,"▁Tele":14500,"▁sav":14501,"osc":14502,"▁Malaysia":14503,"▁permitted":14504,"▁vocals":14505,"inating":14506,"▁tribut":14507,"▁خلف":14508,"alg":14509,"▁57":14510,"▁diesel":14511,"▁Vincent":14512,"▁Grad":14513,"▁pregn":14514,"خم":14515,"كنولوجيا":14516,"تمي":14517,"dess":14518,"▁Those":14519,"▁1907":14520,"▁present-day":14521,"▁700":14522,"▁Philosoph":14523,"▁cruc":14524,"osexual":14525,"othy":14526,"▁bull":14527,"ولت":14528,"▁Chel":14529,"▁الممت":14530,"ration,":14531,"▁balance":14532,"▁بزرگ":14533,"▁reven":14534,"▁Meanwhile,":14535,"▁Italy,":14536,"▁home.":14537,"▁burned":14538,"▁tip":14539,"▁manual":14540,"▁rocket":14541,"▁عرق":14542,"▁Alaska":14543,"▁Storm":14544,"▁philosopher":14545,"▁station,":14546,"▁voy":14547,"ulu":14548,"ources":14549,"esch":14550,"▁well-known":14551,"▁chrom":14552,"طوير":14553,"▁unlike":14554,"صاص":14555,"▁pump":14556,"uble":14557,"▁subjects":14558,"▁آيت":14559,"▁aired":14560,"▁belonging":14561,"acts":14562,"▁recovered":14563,"▁الخلايا":14564,"▁وات":14565,"▁أرشيف":14566,"▁شخصية":14567,"agram":14568,"▁تعرض":14569,"▁earthquake":14570,"▁persu":14571,"▁Southeast":14572,"ستين":14573,"▁absol":14574,"amese":14575,"▁Obama":14576,"▁دوار.":14577,"▁debt":14578,"▁locally":14579,"/200":14580,"▁سعيد":14581,"‌تر":14582,"نائي":14583,"▁events.":14584,"▁justice":14585,"▁لأول":14586,"▁wider":14587,"▁boys":14588,"▁1909":14589,"▁TH":14590,"▁evolved":14591,"▁يؤدي":14592,"▁execution":14593,"كين":14594,"▁exhibited":14595,"▁ML":14596,"▁عمان":14597,"▁magnetic":14598,"▁Bulgarian":14599,"▁tight":14600,"rys":14601,"▁Walker":14602,"ديو":14603,"ريح":14604,"▁involves":14605,"▁agree":14606,"▁organised":14607,"New":14608,"▁Rif":14609,"uche":14610,"-le":14611,"▁Clare":14612,"▁جمعية":14613,"▁کرد.":14614,"▁فض":14615,"▁Clinton":14616,"▁دولية":14617,"▁conven":14618,"▁shelter":14619,"▁Kelly":14620,"▁سير":14621,"▁المسلمين":14622,"▁Conservative":14623,"▁Franz":14624,"▁انه":14625,"awk":14626,"icular":14627,"▁usual":14628,"–8":14629,"▁Fab":14630,"Ne":14631,"theless,":14632,"▁Slovak":14633,"EE":14634,"▁i.e.":14635,"▁66":14636,"طا":14637,"▁°C":14638,"▁المفت":14639,"▁claiming":14640,"وله":14641,"▁tap":14642,"▁cam":14643,"▁Crime":14644,"▁schem":14645,"▁tu":14646,"▁Annual":14647,"celand":14648,"▁جوان":14649,"▁substit":14650,"يبة":14651,"heel":14652,"esignated":14653,"▁Environmental":14654,"▁faster":14655,"iler":14656,".F":14657,"▁place,":14658,"▁pointed":14659,"RI":14660,"lain":14661,"-hour":14662,"hin":14663,"واة":14664,"▁لاح":14665,"ls":14666,"انوية":14667,"-11":14668,"▁faculty":14669,"▁Ian":14670,"▁Face":14671,"oque":14672,"▁breast":14673,"▁بی‌":14674,"▁revol":14675,"▁Range":14676,"▁pist":14677,"rection":14678,"▁مؤسسة":14679,"▁publishing":14680,"▁Tak":14681,"▁Finnish":14682,"ners":14683,"▁1970s,":14684,"▁diverse":14685,"lete":14686,"ورو":14687,"▁weekly":14688,"▁الجنس":14689,"▁forces.":14690,"ław":14691,"▁Hond":14692,"▁transit":14693,"▁المكان":14694,"▁elabor":14695,"▁تحمل":14696,"▁Ori":14697,"▁Verm":14698,"▁المعيش":14699,"▁Ice":14700,"▁Ferdinand":14701,"▁flex":14702,"▁golden":14703,"▁retirement":14704,"▁1988,":14705,"▁coins":14706,"▁processing":14707,"▁Romania":14708,"▁August,":14709,"خيص":14710,"▁identical":14711,"lu":14712,"▁1987,":14713,"وكس":14714,"▁15.":14715,"-out":14716,"▁Kil":14717,"onso":14718,"geon":14719,"▁mineral":14720,"▁مرحلة":14721,"▁Fr":14722,"▁improvement":14723,"alph":14724,"▁versus":14725,"▁باللغة":14726,"▁زد":14727,"▁tot":14728,"▁immigrants":14729,"▁Article":14730,"تهم":14731,"▁educated":14732,"ator,":14733,"ivan":14734,"▁Iv":14735,"▁والأربع":14736,"رجعية":14737,"خته":14738,"ivic":14739,"▁Therefore,":14740,"▁''n":14741,"▁pod":14742,"GC":14743,"munition":14744,"▁هنا":14745,"▁Arkansas":14746,"▁السلة":14747,"▁Anal":14748,"▁1990s,":14749,"um''":14750,"▁patent":14751,"▁Observ":14752,"▁Rugby":14753,"▁flav":14754,"imm":14755,"uclear":14756,"▁Protection":14757,"▁lose":14758,"▁smok":14759,"▁Rus":14760,"▁no.":14761,"روس":14762,"▁highlight":14763,"▁Gur":14764,"▁processes":14765,"▁الأدب":14766,"▁چيز":14767,"▁seeing":14768,"▁Gas":14769,"▁cash":14770,"▁variet":14771,"▁suicide":14772,"▁يقصد":14773,"▁ash":14774,"ess,":14775,"body":14776,"▁games,":14777,"▁revised":14778,"▁spend":14779,"▁CO":14780,"eme":14781,"كلة":14782,"ocene":14783,"▁evalu":14784,"▁Atlanta":14785,"▁Sah":14786,"▁cases,":14787,"▁decad":14788,"▁interpre":14789,"▁withdrew":14790,"▁Number":14791,"▁happen":14792,"▁Bened":14793,"كب":14794,"▁Mind":14795,"عرض":14796,"▁sweet":14797,"شاط":14798,"▁geomet":14799,"▁Syria":14800,"لاج":14801,"amics":14802,"▁Bund":14803,"▁automatic":14804,"وتا":14805,"▁sor":14806,"▁cant":14807,"▁thor":14808,"▁secured":14809,"▁NCAA":14810,"▁1986,":14811,"▁sharp":14812,"▁Orleans":14813,"هان":14814,"افر":14815,"▁\"to":14816,"▁Finland":14817,"ни":14818,"▁Chen":14819,"▁distinctive":14820,"▁ranging":14821,"▁الرسم":14822,"▁aboard":14823,"▁lie":14824,"▁guar":14825,"▁franchise":14826,"formance":14827,"▁squad":14828,"▁China.":14829,"▁تقري":14830,"وائية":14831,"▁Interstate":14832,"um.":14833,"▁Put":14834,"▁teen":14835,"▁Ko":14836,"io,":14837,"▁Add":14838,"▁holiday":14839,"ائمة":14840,"▁58":14841,"▁سجل":14842,"▁wish":14843,"▁Conn":14844,"▁fib":14845,"ém":14846,"▁lad":14847,"▁الصوت":14848,"▁exclusively":14849,"▁Bog":14850,"ра":14851,"▁gauge":14852,"▁Students":14853,"▁الأزواج":14854,"▁bone":14855,"wards,":14856,"▁چي":14857,"غو":14858,"arked":14859,"asters":14860,"▁side,":14861,"aqu":14862,"▁organisation":14863,"▁here.":14864,"▁+":14865,"▁file":14866,"▁helping":14867,"▁Ring":14868,"▁Ye":14869,"▁ruling":14870,"قق":14871,"▁other.":14872,"وتين":14873,"▁conj":14874,"خلي":14875,"▁دع":14876,"▁Afghanistan":14877,"▁phr":14878,"sson":14879,"▁enthus":14880,"▁Cer":14881,"▁was,":14882,"▁cabinet":14883,".مرجع":14884,"isen":14885,"▁hun":14886,"на":14887,"offic":14888,"▁السر":14889,"▁neuro":14890,"obby":14891,"▁Sz":14892,"▁Rav":14893,"▁للط":14894,"aton":14895,"▁exceed":14896,"▁warfare":14897,"hum":14898,"ск":14899,"itable":14900,"▁Shel":14901,"▁discussed":14902,"▁البار":14903,"▁AP":14904,"▁periods":14905,"▁1995.":14906,"▁themselv":14907,"▁que":14908,"▁experimental":14909,"▁deter":14910,"▁(14":14911,"▁concerning":14912,"وامل":14913,"▁أط":14914,"▁cricket":14915,"▁personality":14916,"power":14917,"▁Kit":14918,"▁Right":14919,"andy":14920,"▁representatives":14921,"eria":14922,"▁Bir":14923,"▁breed":14924,"▁الحب":14925,"▁Armed":14926,"▁بيل":14927,"▁reconstruction":14928,"▁محمود":14929,"▁نج":14930,"▁bid":14931,"etch":14932,"▁speaking":14933,"▁cens":14934,"tains":14935,"▁reun":14936,"▁Barry":14937,"▁Entertainment":14938,"▁تعليم":14939,"▁العدد":14940,"eli":14941,"▁elevation":14942,"▁Appl":14943,"▁intern":14944,"▁جای":14945,"▁Data":14946,"▁Mrs.":14947,"▁Sold":14948,"▁وو":14949,"▁couples":14950,"▁fiction":14951,"▁one,":14952,"arg":14953,"▁Lag":14954,"▁يه":14955,"▁سلام":14956,"▁parking":14957,"▁colle":14958,"▁career.":14959,"ingen":14960,"tha":14961,"▁struggle":14962,"▁Vo":14963,"▁مباشرة":14964,"▁gay":14965,"▁Marqu":14966,"▁الحصول":14967,"سلوب":14968,"▁inspir":14969,"▁devoted":14970,"agues":14971,"▁first,":14972,"▁Archive":14973,"▁structural":14974,"▁designer":14975,"-speed":14976,"سه":14977,"▁الجغرافي":14978,"▁Falls":14979,"▁مشتركة":14980,"▁Aber":14981,"▁ye":14982,"-style":14983,"▁photo":14984,"▁helicopter":14985,"▁NBC":14986,"▁altar":14987,"▁forests":14988,"▁bon":14989,"▁فرنسي":14990,"▁الحاج":14991,"▁mode":14992,"otyp":14993,"▁1992.":14994,"▁tests":14995,"▁CP":14996,"▁چشم":14997,"▁Prag":14998,"arus":14999,"▁Mol":15000,"▁Video":15001,"inking":15002,"▁stable":15003,"aze":15004,"ic.":15005,"sa":15006,"▁acquisition":15007,"▁fact,":15008,"▁متن":15009,"▁هير":15010,"▁Ernest":15011,"ég":15012,"▁الرقم":15013,"-east":15014,"سرحية":15015,"▁1944,":15016,"▁القاط":15017,"ourt":15018,"▁اغ":15019,"▁scientists":15020,"▁Ron":15021,"▁نبات":15022,"▁72":15023,"▁Imm":15024,"▁سوف":15025,"▁Technical":15026,"▁Architecture":15027,"▁Pack":15028,"▁walking":15029,"▁aw":15030,"▁May,":15031,"▁kne":15032,"▁لتح":15033,"صيلة":15034,"▁grey":15035,"▁(Ch":15036,"▁Times''":15037,"▁().":15038,"aris":15039,"احل":15040,"▁کردن":15041,"▁أرض":15042,"▁drain":15043,"▁والث":15044,"هوم":15045,"▁Wik":15046,"ياب":15047,"▁members.":15048,"▁accommodate":15049,"▁initiative":15050,"cat":15051,"▁''f":15052,"el.":15053,"▁answ":15054,"itis":15055,"▁Zone":15056,"▁رفض":15057,"▁gathered":15058,"vet":15059,"▁Dance":15060,"quest":15061,"....":15062,"▁organic":15063,"▁amounts":15064,"▁Barbara":15065,"▁peoples":15066,"endment":15067,"▁Nova":15068,"▁و\"":15069,"overed":15070,"▁collapse":15071,"▁Throughout":15072,"▁السينما":15073,"▁Shaw":15074,"type":15075,"▁وتح":15076,"▁successor":15077,"▁benefits":15078,"▁hearing":15079,"▁Et":15080,"ography,":15081,"▁medic":15082,"▁التالي":15083,"▁marks":15084,"دين":15085,"ison,":15086,"▁buses":15087,"▁1994.":15088,"▁أنثى":15089,"-min":15090,"▁Mason":15091,"▁الزمن":15092,"iper":15093,"▁up,":15094,"▁(g":15095,"▁\"st":15096,"▁Ridge":15097,"▁Bald":15098,"▁1904":15099,"▁Ult":15100,"▁corporate":15101,"▁Bengal":15102,"omon":15103,"▁Conserv":15104,"▁rum":15105,"▁Hockey":15106,"▁یکی":15107,"▁Oliver":15108,"▁sword":15109,"castle":15110,"▁محت":15111,"▁Mend":15112,"▁wait":15113,"▁Grey":15114,"▁Ib":15115,"co.":15116,"▁extract":15117,"▁Archives":15118,"▁Lion":15119,"▁land.":15120,"▁Room":15121,"▁chann":15122,"▁القلب":15123,"quer":15124,"▁أت":15125,"pers":15126,"ancellor":15127,"▁Contemporary":15128,"▁Borough":15129,"▁hub":15130,"▁والا":15131,"يتها":15132,"appoint":15133,"▁\"St":15134,"▁Socialist":15135,"/A":15136,"▁sick":15137,"▁quad":15138,"▁scatter":15139,"▁breaking":15140,"▁'''O":15141,"▁Quarter":15142,"▁Gray":15143,"▁شبه":15144,"▁1901":15145,"▁Person":15146,"▁الداخلية":15147,"▁removal":15148,"ipper":15149,"▁بسیار":15150,"▁für":15151,"uras":15152,"▁funded":15153,"▁Kirk":15154,"▁Stuart":15155,"▁dischar":15156,"▁tox":15157,
[...]
